{
  "version": "1.0",
  "truncation": null,
  "padding": null,
  "added_tokens": [
    {
      "id": 0,
      "special": true,
      "content": "[PAD]",
      "single_word": false,
      "lstrip": false,
      "rstrip": false,
      "normalized": false
    },
    {
      "id": 1,
      "special": true,
      "content": "[UNK]",
      "single_word": false,
      "lstrip": false,
      "rstrip": false,
      "normalized": false
    },
    {
      "id": 2,
      "special": true,
      "content": "[CLS]",
      "single_word": false,
      "lstrip": false,
      "rstrip": false,
      "normalized": false
    },
    {
      "id": 3,
      "special": true,
      "content": "[SEP]",
      "single_word": false,
      "lstrip": false,
      "rstrip": false,
      "normalized": false
    },
    {
      "id": 4,
      "special": true,
      "content": "[MASK]",
      "single_word": false,
      "lstrip": false,
      "rstrip": false,
      "normalized": false
    }
  ],
  "normalizer": {
    "type": "BertNormalizer",
    "clean_text": true,
    "handle_chinese_chars": true,
    "strip_accents": null,
    "lowercase": false
  },
  "pre_tokenizer": { "type": "BertPreTokenizer" },
  "post_processor": {
    "type": "TemplateProcessing",
    "single": [
      { "SpecialToken": { "id": "[CLS]", "type_id": 0 } },
      { "Sequence": { "id": "A", "type_id": 0 } },
      { "SpecialToken": { "id": "[SEP]", "type_id": 0 } }
    ],
    "pair": [
      { "SpecialToken": { "id": "[CLS]", "type_id": 0 } },
      { "Sequence": { "id": "A", "type_id": 0 } },
      { "SpecialToken": { "id": "[SEP]", "type_id": 0 } },
      { "Sequence": { "id": "B", "type_id": 1 } },
      { "SpecialToken": { "id": "[SEP]", "type_id": 1 } }
    ],
    "special_tokens": {
      "[CLS]": { "id": "[CLS]", "ids": [2], "tokens": ["[CLS]"] },
      "[SEP]": { "id": "[SEP]", "ids": [3], "tokens": ["[SEP]"] }
    }
  },
  "decoder": { "type": "WordPiece", "prefix": "##", "cleanup": true },
  "model": {
    "type": "WordPiece",
    "unk_token": "[UNK]",
    "continuing_subword_prefix": "##",
    "max_input_chars_per_word": 100,
    "vocab": {
      "[PAD]": 0,
      "[UNK]": 1,
      "[CLS]": 2,
      "[SEP]": 3,
      "[MASK]": 4,
      "[unused0]": 5,
      "[unused1]": 6,
      "[unused2]": 7,
      "[unused3]": 8,
      "[unused4]": 9,
      "[unused5]": 10,
      "[unused6]": 11,
      "[unused7]": 12,
      "[unused8]": 13,
      "[unused9]": 14,
      "[unused10]": 15,
      "[unused11]": 16,
      "[unused12]": 17,
      "[unused13]": 18,
      "[unused14]": 19,
      "[unused15]": 20,
      "[unused16]": 21,
      "[unused17]": 22,
      "[unused18]": 23,
      "[unused19]": 24,
      "[unused20]": 25,
      "[unused21]": 26,
      "[unused22]": 27,
      "[unused23]": 28,
      "[unused24]": 29,
      "[unused25]": 30,
      "[unused26]": 31,
      "[unused27]": 32,
      "[unused28]": 33,
      "[unused29]": 34,
      "[unused30]": 35,
      "[unused31]": 36,
      "[unused32]": 37,
      "[unused33]": 38,
      "[unused34]": 39,
      "[unused35]": 40,
      "[unused36]": 41,
      "[unused37]": 42,
      "[unused38]": 43,
      "[unused39]": 44,
      "[unused40]": 45,
      "[unused41]": 46,
      "[unused42]": 47,
      "[unused43]": 48,
      "[unused44]": 49,
      "[unused45]": 50,
      "[unused46]": 51,
      "[unused47]": 52,
      "[unused48]": 53,
      "[unused49]": 54,
      "[unused50]": 55,
      "[unused51]": 56,
      "[unused52]": 57,
      "[unused53]": 58,
      "[unused54]": 59,
      "[unused55]": 60,
      "[unused56]": 61,
      "[unused57]": 62,
      "[unused58]": 63,
      "[unused59]": 64,
      "[unused60]": 65,
      "[unused61]": 66,
      "[unused62]": 67,
      "[unused63]": 68,
      "[unused64]": 69,
      "[unused65]": 70,
      "[unused66]": 71,
      "[unused67]": 72,
      "[unused68]": 73,
      "[unused69]": 74,
      "[unused70]": 75,
      "[unused71]": 76,
      "[unused72]": 77,
      "[unused73]": 78,
      "[unused74]": 79,
      "[unused75]": 80,
      "[unused76]": 81,
      "[unused77]": 82,
      "[unused78]": 83,
      "[unused79]": 84,
      "[unused80]": 85,
      "[unused81]": 86,
      "[unused82]": 87,
      "[unused83]": 88,
      "[unused84]": 89,
      "[unused85]": 90,
      "[unused86]": 91,
      "[unused87]": 92,
      "[unused88]": 93,
      "[unused89]": 94,
      "[unused90]": 95,
      "[unused91]": 96,
      "[unused92]": 97,
      "[unused93]": 98,
      "[unused94]": 99,
      "[unused95]": 100,
      "[unused96]": 101,
      "[unused97]": 102,
      "[unused98]": 103,
      "[unused99]": 104,
      "[unused100]": 105,
      "[unused101]": 106,
      "[unused102]": 107,
      "[unused103]": 108,
      "[unused104]": 109,
      "[unused105]": 110,
      "[unused106]": 111,
      "[unused107]": 112,
      "[unused108]": 113,
      "[unused109]": 114,
      "[unused110]": 115,
      "[unused111]": 116,
      "[unused112]": 117,
      "[unused113]": 118,
      "[unused114]": 119,
      "[unused115]": 120,
      "[unused116]": 121,
      "[unused117]": 122,
      "[unused118]": 123,
      "[unused119]": 124,
      "[unused120]": 125,
      "[unused121]": 126,
      "[unused122]": 127,
      "[unused123]": 128,
      "[unused124]": 129,
      "[unused125]": 130,
      "[unused126]": 131,
      "[unused127]": 132,
      "[unused128]": 133,
      "[unused129]": 134,
      "[unused130]": 135,
      "[unused131]": 136,
      "[unused132]": 137,
      "[unused133]": 138,
      "[unused134]": 139,
      "[unused135]": 140,
      "[unused136]": 141,
      "[unused137]": 142,
      "[unused138]": 143,
      "[unused139]": 144,
      "[unused140]": 145,
      "[unused141]": 146,
      "[unused142]": 147,
      "[unused143]": 148,
      "[unused144]": 149,
      "[unused145]": 150,
      "[unused146]": 151,
      "[unused147]": 152,
      "[unused148]": 153,
      "[unused149]": 154,
      "[unused150]": 155,
      "[unused151]": 156,
      "[unused152]": 157,
      "[unused153]": 158,
      "[unused154]": 159,
      "[unused155]": 160,
      "[unused156]": 161,
      "[unused157]": 162,
      "[unused158]": 163,
      "[unused159]": 164,
      "[unused160]": 165,
      "[unused161]": 166,
      "[unused162]": 167,
      "[unused163]": 168,
      "[unused164]": 169,
      "[unused165]": 170,
      "[unused166]": 171,
      "[unused167]": 172,
      "[unused168]": 173,
      "[unused169]": 174,
      "[unused170]": 175,
      "[unused171]": 176,
      "[unused172]": 177,
      "[unused173]": 178,
      "[unused174]": 179,
      "[unused175]": 180,
      "[unused176]": 181,
      "[unused177]": 182,
      "[unused178]": 183,
      "[unused179]": 184,
      "[unused180]": 185,
      "[unused181]": 186,
      "[unused182]": 187,
      "[unused183]": 188,
      "[unused184]": 189,
      "[unused185]": 190,
      "[unused186]": 191,
      "[unused187]": 192,
      "[unused188]": 193,
      "[unused189]": 194,
      "[unused190]": 195,
      "[unused191]": 196,
      "[unused192]": 197,
      "[unused193]": 198,
      "[unused194]": 199,
      "[unused195]": 200,
      "[unused196]": 201,
      "[unused197]": 202,
      "[unused198]": 203,
      "[unused199]": 204,
      "[unused200]": 205,
      "[unused201]": 206,
      "[unused202]": 207,
      "[unused203]": 208,
      "[unused204]": 209,
      "[unused205]": 210,
      "[unused206]": 211,
      "[unused207]": 212,
      "[unused208]": 213,
      "[unused209]": 214,
      "[unused210]": 215,
      "[unused211]": 216,
      "[unused212]": 217,
      "[unused213]": 218,
      "[unused214]": 219,
      "[unused215]": 220,
      "[unused216]": 221,
      "[unused217]": 222,
      "[unused218]": 223,
      "[unused219]": 224,
      "[unused220]": 225,
      "[unused221]": 226,
      "[unused222]": 227,
      "[unused223]": 228,
      "[unused224]": 229,
      "[unused225]": 230,
      "[unused226]": 231,
      "[unused227]": 232,
      "[unused228]": 233,
      "[unused229]": 234,
      "[unused230]": 235,
      "[unused231]": 236,
      "[unused232]": 237,
      "[unused233]": 238,
      "[unused234]": 239,
      "[unused235]": 240,
      "[unused236]": 241,
      "[unused237]": 242,
      "[unused238]": 243,
      "[unused239]": 244,
      "[unused240]": 245,
      "[unused241]": 246,
      "[unused242]": 247,
      "[unused243]": 248,
      "[unused244]": 249,
      "[unused245]": 250,
      "[unused246]": 251,
      "[unused247]": 252,
      "[unused248]": 253,
      "[unused249]": 254,
      "[unused250]": 255,
      "[unused251]": 256,
      "[unused252]": 257,
      "[unused253]": 258,
      "[unused254]": 259,
      "[unused255]": 260,
      "[unused256]": 261,
      "[unused257]": 262,
      "[unused258]": 263,
      "[unused259]": 264,
      "[unused260]": 265,
      "[unused261]": 266,
      "[unused262]": 267,
      "[unused263]": 268,
      "[unused264]": 269,
      "[unused265]": 270,
      "[unused266]": 271,
      "[unused267]": 272,
      "[unused268]": 273,
      "[unused269]": 274,
      "[unused270]": 275,
      "[unused271]": 276,
      "[unused272]": 277,
      "[unused273]": 278,
      "[unused274]": 279,
      "[unused275]": 280,
      "[unused276]": 281,
      "[unused277]": 282,
      "[unused278]": 283,
      "[unused279]": 284,
      "[unused280]": 285,
      "[unused281]": 286,
      "[unused282]": 287,
      "[unused283]": 288,
      "[unused284]": 289,
      "[unused285]": 290,
      "[unused286]": 291,
      "[unused287]": 292,
      "[unused288]": 293,
      "[unused289]": 294,
      "[unused290]": 295,
      "[unused291]": 296,
      "[unused292]": 297,
      "[unused293]": 298,
      "[unused294]": 299,
      "[unused295]": 300,
      "[unused296]": 301,
      "[unused297]": 302,
      "[unused298]": 303,
      "[unused299]": 304,
      "[unused300]": 305,
      "[unused301]": 306,
      "[unused302]": 307,
      "[unused303]": 308,
      "[unused304]": 309,
      "[unused305]": 310,
      "[unused306]": 311,
      "[unused307]": 312,
      "[unused308]": 313,
      "[unused309]": 314,
      "[unused310]": 315,
      "[unused311]": 316,
      "[unused312]": 317,
      "[unused313]": 318,
      "[unused314]": 319,
      "[unused315]": 320,
      "[unused316]": 321,
      "[unused317]": 322,
      "[unused318]": 323,
      "[unused319]": 324,
      "[unused320]": 325,
      "[unused321]": 326,
      "[unused322]": 327,
      "[unused323]": 328,
      "[unused324]": 329,
      "[unused325]": 330,
      "[unused326]": 331,
      "[unused327]": 332,
      "[unused328]": 333,
      "[unused329]": 334,
      "[unused330]": 335,
      "[unused331]": 336,
      "[unused332]": 337,
      "[unused333]": 338,
      "[unused334]": 339,
      "[unused335]": 340,
      "[unused336]": 341,
      "[unused337]": 342,
      "[unused338]": 343,
      "[unused339]": 344,
      "[unused340]": 345,
      "[unused341]": 346,
      "[unused342]": 347,
      "[unused343]": 348,
      "[unused344]": 349,
      "[unused345]": 350,
      "[unused346]": 351,
      "[unused347]": 352,
      "[unused348]": 353,
      "[unused349]": 354,
      "[unused350]": 355,
      "[unused351]": 356,
      "[unused352]": 357,
      "[unused353]": 358,
      "[unused354]": 359,
      "[unused355]": 360,
      "[unused356]": 361,
      "[unused357]": 362,
      "[unused358]": 363,
      "[unused359]": 364,
      "[unused360]": 365,
      "[unused361]": 366,
      "[unused362]": 367,
      "[unused363]": 368,
      "[unused364]": 369,
      "[unused365]": 370,
      "[unused366]": 371,
      "[unused367]": 372,
      "[unused368]": 373,
      "[unused369]": 374,
      "[unused370]": 375,
      "[unused371]": 376,
      "[unused372]": 377,
      "[unused373]": 378,
      "[unused374]": 379,
      "[unused375]": 380,
      "[unused376]": 381,
      "[unused377]": 382,
      "[unused378]": 383,
      "[unused379]": 384,
      "[unused380]": 385,
      "[unused381]": 386,
      "[unused382]": 387,
      "[unused383]": 388,
      "[unused384]": 389,
      "[unused385]": 390,
      "[unused386]": 391,
      "[unused387]": 392,
      "[unused388]": 393,
      "[unused389]": 394,
      "[unused390]": 395,
      "[unused391]": 396,
      "[unused392]": 397,
      "[unused393]": 398,
      "[unused394]": 399,
      "[unused395]": 400,
      "[unused396]": 401,
      "[unused397]": 402,
      "[unused398]": 403,
      "[unused399]": 404,
      "[unused400]": 405,
      "[unused401]": 406,
      "[unused402]": 407,
      "[unused403]": 408,
      "[unused404]": 409,
      "[unused405]": 410,
      "[unused406]": 411,
      "[unused407]": 412,
      "[unused408]": 413,
      "[unused409]": 414,
      "[unused410]": 415,
      "[unused411]": 416,
      "[unused412]": 417,
      "[unused413]": 418,
      "[unused414]": 419,
      "[unused415]": 420,
      "[unused416]": 421,
      "[unused417]": 422,
      "[unused418]": 423,
      "[unused419]": 424,
      "[unused420]": 425,
      "[unused421]": 426,
      "[unused422]": 427,
      "[unused423]": 428,
      "[unused424]": 429,
      "[unused425]": 430,
      "[unused426]": 431,
      "[unused427]": 432,
      "[unused428]": 433,
      "[unused429]": 434,
      "[unused430]": 435,
      "[unused431]": 436,
      "[unused432]": 437,
      "[unused433]": 438,
      "[unused434]": 439,
      "[unused435]": 440,
      "[unused436]": 441,
      "[unused437]": 442,
      "[unused438]": 443,
      "[unused439]": 444,
      "[unused440]": 445,
      "[unused441]": 446,
      "[unused442]": 447,
      "[unused443]": 448,
      "[unused444]": 449,
      "[unused445]": 450,
      "[unused446]": 451,
      "[unused447]": 452,
      "[unused448]": 453,
      "[unused449]": 454,
      "[unused450]": 455,
      "[unused451]": 456,
      "[unused452]": 457,
      "[unused453]": 458,
      "[unused454]": 459,
      "[unused455]": 460,
      "[unused456]": 461,
      "[unused457]": 462,
      "[unused458]": 463,
      "[unused459]": 464,
      "[unused460]": 465,
      "[unused461]": 466,
      "[unused462]": 467,
      "[unused463]": 468,
      "[unused464]": 469,
      "[unused465]": 470,
      "[unused466]": 471,
      "[unused467]": 472,
      "[unused468]": 473,
      "[unused469]": 474,
      "[unused470]": 475,
      "[unused471]": 476,
      "[unused472]": 477,
      "[unused473]": 478,
      "[unused474]": 479,
      "[unused475]": 480,
      "[unused476]": 481,
      "[unused477]": 482,
      "[unused478]": 483,
      "[unused479]": 484,
      "[unused480]": 485,
      "[unused481]": 486,
      "[unused482]": 487,
      "[unused483]": 488,
      "[unused484]": 489,
      "[unused485]": 490,
      "[unused486]": 491,
      "[unused487]": 492,
      "[unused488]": 493,
      "[unused489]": 494,
      "[unused490]": 495,
      "[unused491]": 496,
      "[unused492]": 497,
      "[unused493]": 498,
      "[unused494]": 499,
      "[unused495]": 500,
      "[unused496]": 501,
      "[unused497]": 502,
      "[unused498]": 503,
      "[unused499]": 504,
      "!": 505,
      "\"": 506,
      "#": 507,
      "$": 508,
      "%": 509,
      "&": 510,
      "'": 511,
      "(": 512,
      ")": 513,
      "*": 514,
      "+": 515,
      ",": 516,
      "-": 517,
      ".": 518,
      "/": 519,
      "0": 520,
      "1": 521,
      "2": 522,
      "3": 523,
      "4": 524,
      "5": 525,
      "6": 526,
      "7": 527,
      "8": 528,
      "9": 529,
      ":": 530,
      ";": 531,
      "<": 532,
      "=": 533,
      ">": 534,
      "?": 535,
      "@": 536,
      "A": 537,
      "B": 538,
      "C": 539,
      "D": 540,
      "E": 541,
      "F": 542,
      "G": 543,
      "H": 544,
      "I": 545,
      "J": 546,
      "K": 547,
      "L": 548,
      "M": 549,
      "N": 550,
      "O": 551,
      "P": 552,
      "Q": 553,
      "R": 554,
      "S": 555,
      "T": 556,
      "U": 557,
      "V": 558,
      "W": 559,
      "X": 560,
      "Y": 561,
      "Z": 562,
      "[": 563,
      "\\": 564,
      "]": 565,
      "^": 566,
      "_": 567,
      "`": 568,
      "a": 569,
      "b": 570,
      "c": 571,
      "d": 572,
      "e": 573,
      "f": 574,
      "g": 575,
      "h": 576,
      "i": 577,
      "j": 578,
      "k": 579,
      "l": 580,
      "m": 581,
      "n": 582,
      "o": 583,
      "p": 584,
      "q": 585,
      "r": 586,
      "s": 587,
      "t": 588,
      "u": 589,
      "v": 590,
      "w": 591,
      "x": 592,
      "y": 593,
      "z": 594,
      "{": 595,
      "|": 596,
      "}": 597,
      "~": 598,
      "§": 599,
      "«": 600,
      "°": 601,
      "±": 602,
      "²": 603,
      "³": 604,
      "´": 605,
      "·": 606,
      "¹": 607,
      "»": 608,
      "É": 609,
      "×": 610,
      "ß": 611,
      "à": 612,
      "â": 613,
      "ã": 614,
      "ä": 615,
      "ç": 616,
      "è": 617,
      "é": 618,
      "ê": 619,
      "ì": 620,
      "í": 621,
      "ó": 622,
      "ô": 623,
      "ö": 624,
      "÷": 625,
      "ú": 626,
      "ü": 627,
      "ā": 628,
      "Đ": 629,
      "ơ": 630,
      "ư": 631,
      "ː": 632,
      "˚": 633,
      "˝": 634,
      "́": 635,
      "̈": 636,
      "̣": 637,
      "̥": 638,
      "α": 639,
      "β": 640,
      "γ": 641,
      "δ": 642,
      "ε": 643,
      "η": 644,
      "θ": 645,
      "ι": 646,
      "κ": 647,
      "λ": 648,
      "μ": 649,
      "ν": 650,
      "ο": 651,
      "π": 652,
      "ρ": 653,
      "ς": 654,
      "σ": 655,
      "τ": 656,
      "ω": 657,
      "А": 658,
      "В": 659,
      "И": 660,
      "К": 661,
      "М": 662,
      "Н": 663,
      "П": 664,
      "Р": 665,
      "С": 666,
      "а": 667,
      "б": 668,
      "в": 669,
      "г": 670,
      "д": 671,
      "е": 672,
      "ж": 673,
      "з": 674,
      "и": 675,
      "й": 676,
      "к": 677,
      "л": 678,
      "м": 679,
      "н": 680,
      "о": 681,
      "п": 682,
      "р": 683,
      "с": 684,
      "т": 685,
      "у": 686,
      "х": 687,
      "ц": 688,
      "ч": 689,
      "ш": 690,
      "ы": 691,
      "ь": 692,
      "я": 693,
      "ا": 694,
      "ل": 695,
      "و": 696,
      "ෆ": 697,
      "๑": 698,
      "ღ": 699,
      "ᄒ": 700,
      "ᆞ": 701,
      "ᆡ": 702,
      "ạ": 703,
      "ị": 704,
      "–": 705,
      "—": 706,
      "―": 707,
      "‘": 708,
      "’": 709,
      "“": 710,
      "”": 711,
      "†": 712,
      "•": 713,
      "․": 714,
      "‥": 715,
      "…": 716,
      "‧": 717,
      "′": 718,
      "※": 719,
      "‼": 720,
      "₁": 721,
      "₂": 722,
      "₩": 723,
      "℃": 724,
      "ℓ": 725,
      "™": 726,
      "⅓": 727,
      "Ⅰ": 728,
      "Ⅱ": 729,
      "Ⅲ": 730,
      "Ⅳ": 731,
      "Ⅴ": 732,
      "Ⅵ": 733,
      "←": 734,
      "↑": 735,
      "→": 736,
      "↓": 737,
      "↔": 738,
      "⇒": 739,
      "−": 740,
      "∙": 741,
      "∼": 742,
      "≪": 743,
      "≫": 744,
      "⊙": 745,
      "⋅": 746,
      "①": 747,
      "②": 748,
      "③": 749,
      "④": 750,
      "⑤": 751,
      "⑥": 752,
      "⑦": 753,
      "⑧": 754,
      "⑨": 755,
      "⑩": 756,
      "⑪": 757,
      "⑫": 758,
      "⑴": 759,
      "⑵": 760,
      "⑶": 761,
      "⑷": 762,
      "ⓐ": 763,
      "ⓑ": 764,
      "ⓒ": 765,
      "─": 766,
      "━": 767,
      "│": 768,
      "┃": 769,
      "┌": 770,
      "└": 771,
      "├": 772,
      "┬": 773,
      "■": 774,
      "□": 775,
      "▣": 776,
      "▨": 777,
      "▪": 778,
      "▫": 779,
      "▲": 780,
      "△": 781,
      "▶": 782,
      "▷": 783,
      "▼": 784,
      "▽": 785,
      "◀": 786,
      "◆": 787,
      "◇": 788,
      "◈": 789,
      "○": 790,
      "◎": 791,
      "●": 792,
      "◡": 793,
      "★": 794,
      "☆": 795,
      "☎": 796,
      "☏": 797,
      "☕": 798,
      "☞": 799,
      "☺": 800,
      "♀": 801,
      "♂": 802,
      "♡": 803,
      "♣": 804,
      "♤": 805,
      "♥": 806,
      "♩": 807,
      "♪": 808,
      "♬": 809,
      "✅": 810,
      "✌": 811,
      "✔": 812,
      "✨": 813,
      "❗": 814,
      "❣": 815,
      "❤": 816,
      "➡": 817,
      "⠀": 818,
      "⭐": 819,
      "、": 820,
      "。": 821,
      "〃": 822,
      "〈": 823,
      "〉": 824,
      "《": 825,
      "》": 826,
      "「": 827,
      "」": 828,
      "『": 829,
      "』": 830,
      "【": 831,
      "】": 832,
      "〓": 833,
      "〔": 834,
      "〕": 835,
      "〜": 836,
      "〰": 837,
      "あ": 838,
      "い": 839,
      "う": 840,
      "え": 841,
      "お": 842,
      "か": 843,
      "が": 844,
      "き": 845,
      "く": 846,
      "け": 847,
      "こ": 848,
      "さ": 849,
      "し": 850,
      "じ": 851,
      "す": 852,
      "せ": 853,
      "そ": 854,
      "た": 855,
      "だ": 856,
      "ち": 857,
      "っ": 858,
      "つ": 859,
      "て": 860,
      "で": 861,
      "と": 862,
      "ど": 863,
      "な": 864,
      "に": 865,
      "ぬ": 866,
      "の": 867,
      "は": 868,
      "ば": 869,
      "ひ": 870,
      "ま": 871,
      "み": 872,
      "め": 873,
      "も": 874,
      "ゃ": 875,
      "や": 876,
      "よ": 877,
      "ら": 878,
      "り": 879,
      "る": 880,
      "れ": 881,
      "ろ": 882,
      "わ": 883,
      "を": 884,
      "ん": 885,
      "ア": 886,
      "ィ": 887,
      "イ": 888,
      "ウ": 889,
      "ェ": 890,
      "エ": 891,
      "オ": 892,
      "カ": 893,
      "ガ": 894,
      "キ": 895,
      "ク": 896,
      "グ": 897,
      "ケ": 898,
      "コ": 899,
      "サ": 900,
      "シ": 901,
      "ジ": 902,
      "ス": 903,
      "ズ": 904,
      "ソ": 905,
      "タ": 906,
      "ダ": 907,
      "チ": 908,
      "ッ": 909,
      "ツ": 910,
      "テ": 911,
      "デ": 912,
      "ト": 913,
      "ド": 914,
      "ナ": 915,
      "ニ": 916,
      "ノ": 917,
      "ハ": 918,
      "バ": 919,
      "パ": 920,
      "ビ": 921,
      "フ": 922,
      "ブ": 923,
      "プ": 924,
      "ボ": 925,
      "ポ": 926,
      "マ": 927,
      "ミ": 928,
      "ム": 929,
      "メ": 930,
      "モ": 931,
      "ャ": 932,
      "ュ": 933,
      "ョ": 934,
      "ラ": 935,
      "リ": 936,
      "ル": 937,
      "レ": 938,
      "ロ": 939,
      "ン": 940,
      "・": 941,
      "ー": 942,
      "ㄱ": 943,
      "ㄲ": 944,
      "ㄴ": 945,
      "ㄷ": 946,
      "ㄹ": 947,
      "ㅁ": 948,
      "ㅂ": 949,
      "ㅅ": 950,
      "ㅆ": 951,
      "ㅇ": 952,
      "ㅈ": 953,
      "ㅉ": 954,
      "ㅊ": 955,
      "ㅋ": 956,
      "ㅌ": 957,
      "ㅍ": 958,
      "ㅎ": 959,
      "ㅏ": 960,
      "ㅐ": 961,
      "ㅑ": 962,
      "ㅓ": 963,
      "ㅔ": 964,
      "ㅗ": 965,
      "ㅛ": 966,
      "ㅜ": 967,
      "ㅠ": 968,
      "ㅡ": 969,
      "ㅣ": 970,
      "ㅤ": 971,
      "ㆍ": 972,
      "㈎": 973,
      "㈏": 974,
      "㈐": 975,
      "㈑": 976,
      "㈔": 977,
      "㈜": 978,
      "㉠": 979,
      "㉡": 980,
      "㉢": 981,
      "㉣": 982,
      "㉮": 983,
      "㉯": 984,
      "㎉": 985,
      "㎍": 986,
      "㎎": 987,
      "㎏": 988,
      "㎒": 989,
      "㎓": 990,
      "㎖": 991,
      "㎛": 992,
      "㎜": 993,
      "㎝": 994,
      "㎞": 995,
      "㎡": 996,
      "㎢": 997,
      "㎥": 998,
      "㎾": 999,
      "㎿": 1000,
      "㏄": 1001,
      "㏈": 1002,
      "㏊": 1003,
      "一": 1004,
      "丁": 1005,
      "七": 1006,
      "丈": 1007,
      "三": 1008,
      "上": 1009,
      "下": 1010,
      "不": 1011,
      "丑": 1012,
      "且": 1013,
      "世": 1014,
      "丘": 1015,
      "丙": 1016,
      "东": 1017,
      "丞": 1018,
      "中": 1019,
      "丸": 1020,
      "丹": 1021,
      "主": 1022,
      "乃": 1023,
      "久": 1024,
      "之": 1025,
      "乎": 1026,
      "乘": 1027,
      "乙": 1028,
      "九": 1029,
      "也": 1030,
      "乡": 1031,
      "乳": 1032,
      "乾": 1033,
      "亂": 1034,
      "了": 1035,
      "事": 1036,
      "二": 1037,
      "于": 1038,
      "云": 1039,
      "互": 1040,
      "五": 1041,
      "井": 1042,
      "亞": 1043,
      "亡": 1044,
      "交": 1045,
      "亥": 1046,
      "亦": 1047,
      "亨": 1048,
      "享": 1049,
      "京": 1050,
      "亭": 1051,
      "亮": 1052,
      "人": 1053,
      "仁": 1054,
      "今": 1055,
      "介": 1056,
      "仕": 1057,
      "他": 1058,
      "付": 1059,
      "仙": 1060,
      "代": 1061,
      "令": 1062,
      "以": 1063,
      "仰": 1064,
      "仲": 1065,
      "件": 1066,
      "任": 1067,
      "企": 1068,
      "伊": 1069,
      "伏": 1070,
      "伐": 1071,
      "休": 1072,
      "会": 1073,
      "伯": 1074,
      "似": 1075,
      "伽": 1076,
      "但": 1077,
      "位": 1078,
      "低": 1079,
      "住": 1080,
      "佐": 1081,
      "何": 1082,
      "余": 1083,
      "佛": 1084,
      "作": 1085,
      "佳": 1086,
      "使": 1087,
      "來": 1088,
      "例": 1089,
      "侍": 1090,
      "供": 1091,
      "依": 1092,
      "侯": 1093,
      "侵": 1094,
      "便": 1095,
      "係": 1096,
      "俊": 1097,
      "俗": 1098,
      "保": 1099,
      "信": 1100,
      "修": 1101,
      "倂": 1102,
      "倉": 1103,
      "個": 1104,
      "倍": 1105,
      "候": 1106,
      "借": 1107,
      "値": 1108,
      "倫": 1109,
      "倭": 1110,
      "假": 1111,
      "偉": 1112,
      "偏": 1113,
      "停": 1114,
      "健": 1115,
      "傅": 1116,
      "備": 1117,
      "傳": 1118,
      "債": 1119,
      "傷": 1120,
      "僉": 1121,
      "像": 1122,
      "僕": 1123,
      "僞": 1124,
      "僧": 1125,
      "價": 1126,
      "儀": 1127,
      "儒": 1128,
      "償": 1129,
      "優": 1130,
      "允": 1131,
      "元": 1132,
      "兄": 1133,
      "充": 1134,
      "兆": 1135,
      "先": 1136,
      "光": 1137,
      "克": 1138,
      "免": 1139,
      "兒": 1140,
      "入": 1141,
      "內": 1142,
      "全": 1143,
      "兩": 1144,
      "兪": 1145,
      "八": 1146,
      "公": 1147,
      "六": 1148,
      "共": 1149,
      "兵": 1150,
      "其": 1151,
      "具": 1152,
      "典": 1153,
      "兼": 1154,
      "内": 1155,
      "冊": 1156,
      "再": 1157,
      "冠": 1158,
      "冬": 1159,
      "凉": 1160,
      "凡": 1161,
      "凶": 1162,
      "出": 1163,
      "刀": 1164,
      "分": 1165,
      "切": 1166,
      "刊": 1167,
      "刑": 1168,
      "列": 1169,
      "初": 1170,
      "判": 1171,
      "別": 1172,
      "利": 1173,
      "到": 1174,
      "制": 1175,
      "券": 1176,
      "刺": 1177,
      "刻": 1178,
      "則": 1179,
      "前": 1180,
      "剛": 1181,
      "副": 1182,
      "割": 1183,
      "創": 1184,
      "劃": 1185,
      "劇": 1186,
      "劉": 1187,
      "劍": 1188,
      "力": 1189,
      "功": 1190,
      "加": 1191,
      "助": 1192,
      "勇": 1193,
      "勒": 1194,
      "動": 1195,
      "務": 1196,
      "勝": 1197,
      "勞": 1198,
      "勢": 1199,
      "勤": 1200,
      "勳": 1201,
      "勿": 1202,
      "包": 1203,
      "化": 1204,
      "北": 1205,
      "匠": 1206,
      "区": 1207,
      "區": 1208,
      "十": 1209,
      "千": 1210,
      "升": 1211,
      "午": 1212,
      "半": 1213,
      "卑": 1214,
      "卒": 1215,
      "卓": 1216,
      "協": 1217,
      "南": 1218,
      "博": 1219,
      "卜": 1220,
      "占": 1221,
      "卦": 1222,
      "卯": 1223,
      "印": 1224,
      "危": 1225,
      "却": 1226,
      "卷": 1227,
      "卽": 1228,
      "卿": 1229,
      "厚": 1230,
      "原": 1231,
      "去": 1232,
      "县": 1233,
      "參": 1234,
      "又": 1235,
      "及": 1236,
      "友": 1237,
      "反": 1238,
      "叔": 1239,
      "取": 1240,
      "受": 1241,
      "叢": 1242,
      "口": 1243,
      "古": 1244,
      "句": 1245,
      "只": 1246,
      "召": 1247,
      "可": 1248,
      "台": 1249,
      "史": 1250,
      "右": 1251,
      "司": 1252,
      "各": 1253,
      "合": 1254,
      "吉": 1255,
      "同": 1256,
      "名": 1257,
      "后": 1258,
      "吏": 1259,
      "向": 1260,
      "君": 1261,
      "否": 1262,
      "吳": 1263,
      "吾": 1264,
      "呂": 1265,
      "告": 1266,
      "周": 1267,
      "味": 1268,
      "呼": 1269,
      "命": 1270,
      "和": 1271,
      "咸": 1272,
      "哀": 1273,
      "品": 1274,
      "哉": 1275,
      "員": 1276,
      "哲": 1277,
      "唐": 1278,
      "唯": 1279,
      "唱": 1280,
      "商": 1281,
      "問": 1282,
      "啓": 1283,
      "善": 1284,
      "喜": 1285,
      "喪": 1286,
      "單": 1287,
      "嘉": 1288,
      "嘗": 1289,
      "器": 1290,
      "嚴": 1291,
      "四": 1292,
      "回": 1293,
      "因": 1294,
      "固": 1295,
      "国": 1296,
      "圈": 1297,
      "國": 1298,
      "圍": 1299,
      "園": 1300,
      "圓": 1301,
      "圖": 1302,
      "團": 1303,
      "土": 1304,
      "在": 1305,
      "圭": 1306,
      "地": 1307,
      "址": 1308,
      "坂": 1309,
      "均": 1310,
      "坊": 1311,
      "坐": 1312,
      "坡": 1313,
      "坤": 1314,
      "坪": 1315,
      "型": 1316,
      "城": 1317,
      "域": 1318,
      "執": 1319,
      "基": 1320,
      "堂": 1321,
      "堅": 1322,
      "堯": 1323,
      "報": 1324,
      "場": 1325,
      "塔": 1326,
      "塘": 1327,
      "塚": 1328,
      "塵": 1329,
      "境": 1330,
      "墓": 1331,
      "增": 1332,
      "墨": 1333,
      "壁": 1334,
      "壇": 1335,
      "壤": 1336,
      "士": 1337,
      "壬": 1338,
      "壯": 1339,
      "壽": 1340,
      "夏": 1341,
      "夕": 1342,
      "外": 1343,
      "多": 1344,
      "夜": 1345,
      "夢": 1346,
      "大": 1347,
      "天": 1348,
      "太": 1349,
      "夫": 1350,
      "央": 1351,
      "失": 1352,
      "夷": 1353,
      "奇": 1354,
      "奈": 1355,
      "奉": 1356,
      "奎": 1357,
      "奏": 1358,
      "契": 1359,
      "女": 1360,
      "奴": 1361,
      "好": 1362,
      "如": 1363,
      "妃": 1364,
      "妄": 1365,
      "妓": 1366,
      "妙": 1367,
      "妻": 1368,
      "始": 1369,
      "姓": 1370,
      "委": 1371,
      "姜": 1372,
      "姬": 1373,
      "威": 1374,
      "娘": 1375,
      "婚": 1376,
      "婢": 1377,
      "婦": 1378,
      "子": 1379,
      "孔": 1380,
      "字": 1381,
      "存": 1382,
      "孝": 1383,
      "孟": 1384,
      "季": 1385,
      "孤": 1386,
      "学": 1387,
      "孫": 1388,
      "學": 1389,
      "宇": 1390,
      "守": 1391,
      "安": 1392,
      "宋": 1393,
      "完": 1394,
      "宏": 1395,
      "宗": 1396,
      "官": 1397,
      "宙": 1398,
      "定": 1399,
      "宜": 1400,
      "客": 1401,
      "宣": 1402,
      "室": 1403,
      "宮": 1404,
      "宰": 1405,
      "害": 1406,
      "家": 1407,
      "容": 1408,
      "宿": 1409,
      "寂": 1410,
      "寄": 1411,
      "寅": 1412,
      "密": 1413,
      "富": 1414,
      "寒": 1415,
      "察": 1416,
      "寡": 1417,
      "實": 1418,
      "寧": 1419,
      "審": 1420,
      "寫": 1421,
      "寬": 1422,
      "寶": 1423,
      "寺": 1424,
      "封": 1425,
      "射": 1426,
      "將": 1427,
      "專": 1428,
      "尉": 1429,
      "尊": 1430,
      "尋": 1431,
      "對": 1432,
      "導": 1433,
      "小": 1434,
      "少": 1435,
      "尙": 1436,
      "就": 1437,
      "尹": 1438,
      "尺": 1439,
      "尼": 1440,
      "尾": 1441,
      "局": 1442,
      "居": 1443,
      "屈": 1444,
      "屋": 1445,
      "展": 1446,
      "層": 1447,
      "履": 1448,
      "屬": 1449,
      "屯": 1450,
      "山": 1451,
      "岐": 1452,
      "岡": 1453,
      "岩": 1454,
      "岳": 1455,
      "岸": 1456,
      "峯": 1457,
      "峰": 1458,
      "峴": 1459,
      "島": 1460,
      "崇": 1461,
      "崎": 1462,
      "崔": 1463,
      "嶺": 1464,
      "巖": 1465,
      "川": 1466,
      "州": 1467,
      "巡": 1468,
      "工": 1469,
      "左": 1470,
      "巨": 1471,
      "巫": 1472,
      "差": 1473,
      "己": 1474,
      "已": 1475,
      "巳": 1476,
      "巴": 1477,
      "市": 1478,
      "布": 1479,
      "希": 1480,
      "帖": 1481,
      "帝": 1482,
      "帥": 1483,
      "師": 1484,
      "席": 1485,
      "帶": 1486,
      "常": 1487,
      "幕": 1488,
      "干": 1489,
      "平": 1490,
      "年": 1491,
      "幸": 1492,
      "幹": 1493,
      "幻": 1494,
      "幼": 1495,
      "幽": 1496,
      "幾": 1497,
      "庄": 1498,
      "床": 1499,
      "序": 1500,
      "底": 1501,
      "店": 1502,
      "庚": 1503,
      "府": 1504,
      "度": 1505,
      "座": 1506,
      "庫": 1507,
      "庭": 1508,
      "庵": 1509,
      "庶": 1510,
      "康": 1511,
      "庸": 1512,
      "廉": 1513,
      "廟": 1514,
      "廢": 1515,
      "廣": 1516,
      "廳": 1517,
      "延": 1518,
      "廷": 1519,
      "建": 1520,
      "式": 1521,
      "弓": 1522,
      "引": 1523,
      "弗": 1524,
      "弘": 1525,
      "弟": 1526,
      "弱": 1527,
      "張": 1528,
      "强": 1529,
      "弼": 1530,
      "彈": 1531,
      "彌": 1532,
      "形": 1533,
      "彦": 1534,
      "彩": 1535,
      "彭": 1536,
      "影": 1537,
      "役": 1538,
      "彼": 1539,
      "往": 1540,
      "征": 1541,
      "待": 1542,
      "律": 1543,
      "後": 1544,
      "徐": 1545,
      "徒": 1546,
      "得": 1547,
      "從": 1548,
      "御": 1549,
      "復": 1550,
      "微": 1551,
      "徵": 1552,
      "德": 1553,
      "徽": 1554,
      "心": 1555,
      "必": 1556,
      "忌": 1557,
      "忍": 1558,
      "志": 1559,
      "忘": 1560,
      "忠": 1561,
      "念": 1562,
      "忽": 1563,
      "怒": 1564,
      "思": 1565,
      "急": 1566,
      "性": 1567,
      "怨": 1568,
      "怪": 1569,
      "恐": 1570,
      "恒": 1571,
      "恨": 1572,
      "恩": 1573,
      "恭": 1574,
      "息": 1575,
      "悅": 1576,
      "悟": 1577,
      "患": 1578,
      "悲": 1579,
      "情": 1580,
      "惑": 1581,
      "惟": 1582,
      "惠": 1583,
      "惡": 1584,
      "惱": 1585,
      "想": 1586,
      "意": 1587,
      "愚": 1588,
      "愛": 1589,
      "感": 1590,
      "愼": 1591,
      "慈": 1592,
      "態": 1593,
      "慕": 1594,
      "慧": 1595,
      "慶": 1596,
      "慾": 1597,
      "憂": 1598,
      "憲": 1599,
      "應": 1600,
      "懷": 1601,
      "懿": 1602,
      "戊": 1603,
      "戌": 1604,
      "成": 1605,
      "我": 1606,
      "戒": 1607,
      "或": 1608,
      "戦": 1609,
      "戰": 1610,
      "戱": 1611,
      "戴": 1612,
      "戶": 1613,
      "房": 1614,
      "所": 1615,
      "手": 1616,
      "才": 1617,
      "打": 1618,
      "扶": 1619,
      "批": 1620,
      "承": 1621,
      "技": 1622,
      "投": 1623,
      "抗": 1624,
      "折": 1625,
      "招": 1626,
      "拜": 1627,
      "持": 1628,
      "指": 1629,
      "振": 1630,
      "授": 1631,
      "掌": 1632,
      "排": 1633,
      "接": 1634,
      "推": 1635,
      "提": 1636,
      "揚": 1637,
      "換": 1638,
      "援": 1639,
      "損": 1640,
      "摠": 1641,
      "摩": 1642,
      "撫": 1643,
      "播": 1644,
      "撰": 1645,
      "擇": 1646,
      "擊": 1647,
      "操": 1648,
      "擔": 1649,
      "據": 1650,
      "擧": 1651,
      "支": 1652,
      "收": 1653,
      "改": 1654,
      "攻": 1655,
      "放": 1656,
      "政": 1657,
      "故": 1658,
      "效": 1659,
      "敍": 1660,
      "敎": 1661,
      "敏": 1662,
      "救": 1663,
      "敗": 1664,
      "敢": 1665,
      "散": 1666,
      "敦": 1667,
      "敬": 1668,
      "整": 1669,
      "敵": 1670,
      "數": 1671,
      "文": 1672,
      "斗": 1673,
      "料": 1674,
      "斯": 1675,
      "新": 1676,
      "斷": 1677,
      "方": 1678,
      "於": 1679,
      "施": 1680,
      "旅": 1681,
      "族": 1682,
      "旗": 1683,
      "旣": 1684,
      "日": 1685,
      "旨": 1686,
      "早": 1687,
      "旭": 1688,
      "昇": 1689,
      "昌": 1690,
      "明": 1691,
      "易": 1692,
      "星": 1693,
      "映": 1694,
      "春": 1695,
      "昭": 1696,
      "是": 1697,
      "時": 1698,
      "晉": 1699,
      "晋": 1700,
      "晩": 1701,
      "普": 1702,
      "景": 1703,
      "智": 1704,
      "暗": 1705,
      "暴": 1706,
      "曆": 1707,
      "曉": 1708,
      "曰": 1709,
      "曲": 1710,
      "更": 1711,
      "書": 1712,
      "曹": 1713,
      "曺": 1714,
      "曾": 1715,
      "最": 1716,
      "會": 1717,
      "月": 1718,
      "有": 1719,
      "朋": 1720,
      "服": 1721,
      "朔": 1722,
      "望": 1723,
      "朝": 1724,
      "期": 1725,
      "木": 1726,
      "未": 1727,
      "末": 1728,
      "本": 1729,
      "朱": 1730,
      "朴": 1731,
      "李": 1732,
      "材": 1733,
      "村": 1734,
      "杖": 1735,
      "杜": 1736,
      "束": 1737,
      "条": 1738,
      "東": 1739,
      "松": 1740,
      "板": 1741,
      "林": 1742,
      "果": 1743,
      "枝": 1744,
      "某": 1745,
      "染": 1746,
      "柔": 1747,
      "柱": 1748,
      "柳": 1749,
      "査": 1750,
      "校": 1751,
      "株": 1752,
      "核": 1753,
      "根": 1754,
      "格": 1755,
      "桂": 1756,
      "桃": 1757,
      "案": 1758,
      "桑": 1759,
      "桓": 1760,
      "梁": 1761,
      "梅": 1762,
      "條": 1763,
      "梵": 1764,
      "棄": 1765,
      "森": 1766,
      "植": 1767,
      "楊": 1768,
      "楚": 1769,
      "業": 1770,
      "極": 1771,
      "榮": 1772,
      "構": 1773,
      "槪": 1774,
      "樂": 1775,
      "樓": 1776,
      "標": 1777,
      "樞": 1778,
      "模": 1779,
      "樣": 1780,
      "樹": 1781,
      "橋": 1782,
      "機": 1783,
      "橫": 1784,
      "檀": 1785,
      "檢": 1786,
      "權": 1787,
      "次": 1788,
      "欲": 1789,
      "欽": 1790,
      "款": 1791,
      "歌": 1792,
      "歐": 1793,
      "止": 1794,
      "正": 1795,
      "此": 1796,
      "步": 1797,
      "武": 1798,
      "歲": 1799,
      "歷": 1800,
      "歸": 1801,
      "死": 1802,
      "殊": 1803,
      "殘": 1804,
      "段": 1805,
      "殷": 1806,
      "殺": 1807,
      "殿": 1808,
      "毅": 1809,
      "母": 1810,
      "每": 1811,
      "毒": 1812,
      "比": 1813,
      "毛": 1814,
      "氏": 1815,
      "民": 1816,
      "氣": 1817,
      "水": 1818,
      "氷": 1819,
      "永": 1820,
      "求": 1821,
      "汗": 1822,
      "汝": 1823,
      "江": 1824,
      "池": 1825,
      "決": 1826,
      "沈": 1827,
      "沒": 1828,
      "沙": 1829,
      "河": 1830,
      "油": 1831,
      "治": 1832,
      "況": 1833,
      "泉": 1834,
      "法": 1835,
      "波": 1836,
      "泥": 1837,
      "注": 1838,
      "泰": 1839,
      "泳": 1840,
      "洋": 1841,
      "洙": 1842,
      "洛": 1843,
      "洞": 1844,
      "津": 1845,
      "洪": 1846,
      "洲": 1847,
      "活": 1848,
      "派": 1849,
      "流": 1850,
      "浙": 1851,
      "浦": 1852,
      "浩": 1853,
      "浪": 1854,
      "浮": 1855,
      "海": 1856,
      "消": 1857,
      "涉": 1858,
      "淑": 1859,
      "淨": 1860,
      "淫": 1861,
      "淮": 1862,
      "深": 1863,
      "淳": 1864,
      "淵": 1865,
      "混": 1866,
      "淸": 1867,
      "清": 1868,
      "減": 1869,
      "渡": 1870,
      "港": 1871,
      "湖": 1872,
      "湯": 1873,
      "源": 1874,
      "準": 1875,
      "溪": 1876,
      "溫": 1877,
      "滅": 1878,
      "滿": 1879,
      "漁": 1880,
      "演": 1881,
      "漢": 1882,
      "潛": 1883,
      "潤": 1884,
      "潭": 1885,
      "潮": 1886,
      "澤": 1887,
      "濟": 1888,
      "濤": 1889,
      "灣": 1890,
      "火": 1891,
      "災": 1892,
      "炎": 1893,
      "炳": 1894,
      "烈": 1895,
      "烏": 1896,
      "焉": 1897,
      "無": 1898,
      "然": 1899,
      "煙": 1900,
      "煥": 1901,
      "照": 1902,
      "煩": 1903,
      "熊": 1904,
      "熙": 1905,
      "熟": 1906,
      "熱": 1907,
      "燈": 1908,
      "燕": 1909,
      "營": 1910,
      "燮": 1911,
      "爭": 1912,
      "爲": 1913,
      "父": 1914,
      "爾": 1915,
      "片": 1916,
      "版": 1917,
      "牙": 1918,
      "牛": 1919,
      "牧": 1920,
      "物": 1921,
      "特": 1922,
      "犬": 1923,
      "犯": 1924,
      "狀": 1925,
      "狂": 1926,
      "狗": 1927,
      "猶": 1928,
      "獄": 1929,
      "獨": 1930,
      "獸": 1931,
      "獻": 1932,
      "玄": 1933,
      "率": 1934,
      "玉": 1935,
      "王": 1936,
      "珍": 1937,
      "珠": 1938,
      "班": 1939,
      "現": 1940,
      "球": 1941,
      "理": 1942,
      "琴": 1943,
      "瑞": 1944,
      "環": 1945,
      "甘": 1946,
      "甚": 1947,
      "生": 1948,
      "産": 1949,
      "用": 1950,
      "甫": 1951,
      "田": 1952,
      "由": 1953,
      "甲": 1954,
      "申": 1955,
      "男": 1956,
      "町": 1957,
      "界": 1958,
      "留": 1959,
      "略": 1960,
      "番": 1961,
      "異": 1962,
      "畵": 1963,
      "當": 1964,
      "畿": 1965,
      "疏": 1966,
      "疑": 1967,
      "疾": 1968,
      "病": 1969,
      "症": 1970,
      "痛": 1971,
      "癸": 1972,
      "登": 1973,
      "發": 1974,
      "白": 1975,
      "百": 1976,
      "的": 1977,
      "皆": 1978,
      "皇": 1979,
      "皮": 1980,
      "益": 1981,
      "盛": 1982,
      "盜": 1983,
      "盟": 1984,
      "盡": 1985,
      "監": 1986,
      "盤": 1987,
      "盧": 1988,
      "目": 1989,
      "直": 1990,
      "相": 1991,
      "省": 1992,
      "看": 1993,
      "眞": 1994,
      "真": 1995,
      "眠": 1996,
      "眼": 1997,
      "着": 1998,
      "督": 1999,
      "矣": 2000,
      "知": 2001,
      "短": 2002,
      "石": 2003,
      "砂": 2004,
      "砲": 2005,
      "破": 2006,
      "硏": 2007,
      "碑": 2008,
      "碧": 2009,
      "碩": 2010,
      "確": 2011,
      "磁": 2012,
      "磨": 2013,
      "示": 2014,
      "社": 2015,
      "祀": 2016,
      "祐": 2017,
      "祖": 2018,
      "祝": 2019,
      "神": 2020,
      "祠": 2021,
      "祥": 2022,
      "票": 2023,
      "祭": 2024,
      "祿": 2025,
      "禁": 2026,
      "禍": 2027,
      "福": 2028,
      "禪": 2029,
      "禮": 2030,
      "禹": 2031,
      "秀": 2032,
      "私": 2033,
      "秉": 2034,
      "秋": 2035,
      "科": 2036,
      "秘": 2037,
      "租": 2038,
      "秦": 2039,
      "秩": 2040,
      "移": 2041,
      "稅": 2042,
      "程": 2043,
      "種": 2044,
      "稱": 2045,
      "稷": 2046,
      "稿": 2047,
      "穀": 2048,
      "穆": 2049,
      "積": 2050,
      "穴": 2051,
      "究": 2052,
      "空": 2053,
      "窓": 2054,
      "窮": 2055,
      "立": 2056,
      "章": 2057,
      "童": 2058,
      "端": 2059,
      "競": 2060,
      "竹": 2061,
      "笑": 2062,
      "符": 2063,
      "第": 2064,
      "筆": 2065,
      "等": 2066,
      "答": 2067,
      "策": 2068,
      "箕": 2069,
      "算": 2070,
      "管": 2071,
      "節": 2072,
      "範": 2073,
      "篇": 2074,
      "簡": 2075,
      "簿": 2076,
      "籍": 2077,
      "米": 2078,
      "精": 2079,
      "系": 2080,
      "紀": 2081,
      "約": 2082,
      "紅": 2083,
      "紋": 2084,
      "納": 2085,
      "純": 2086,
      "紙": 2087,
      "級": 2088,
      "素": 2089,
      "紫": 2090,
      "細": 2091,
      "紹": 2092,
      "終": 2093,
      "組": 2094,
      "結": 2095,
      "給": 2096,
      "統": 2097,
      "絲": 2098,
      "絶": 2099,
      "經": 2100,
      "綠": 2101,
      "維": 2102,
      "綱": 2103,
      "網": 2104,
      "線": 2105,
      "緣": 2106,
      "編": 2107,
      "縣": 2108,
      "總": 2109,
      "織": 2110,
      "繼": 2111,
      "續": 2112,
      "罪": 2113,
      "置": 2114,
      "罰": 2115,
      "署": 2116,
      "羅": 2117,
      "羊": 2118,
      "美": 2119,
      "群": 2120,
      "義": 2121,
      "羽": 2122,
      "翁": 2123,
      "翊": 2124,
      "習": 2125,
      "翰": 2126,
      "翼": 2127,
      "老": 2128,
      "考": 2129,
      "者": 2130,
      "而": 2131,
      "耕": 2132,
      "耳": 2133,
      "耶": 2134,
      "聖": 2135,
      "聞": 2136,
      "聯": 2137,
      "聲": 2138,
      "職": 2139,
      "聽": 2140,
      "肅": 2141,
      "肉": 2142,
      "育": 2143,
      "背": 2144,
      "胎": 2145,
      "胡": 2146,
      "能": 2147,
      "脈": 2148,
      "脫": 2149,
      "腸": 2150,
      "腹": 2151,
      "臣": 2152,
      "臨": 2153,
      "自": 2154,
      "至": 2155,
      "致": 2156,
      "臺": 2157,
      "與": 2158,
      "興": 2159,
      "舊": 2160,
      "舌": 2161,
      "舍": 2162,
      "舜": 2163,
      "舞": 2164,
      "舟": 2165,
      "航": 2166,
      "般": 2167,
      "船": 2168,
      "良": 2169,
      "色": 2170,
      "芝": 2171,
      "花": 2172,
      "芳": 2173,
      "苑": 2174,
      "若": 2175,
      "苦": 2176,
      "英": 2177,
      "茂": 2178,
      "范": 2179,
      "茶": 2180,
      "草": 2181,
      "荒": 2182,
      "荷": 2183,
      "莊": 2184,
      "莫": 2185,
      "菊": 2186,
      "菜": 2187,
      "菩": 2188,
      "華": 2189,
      "菴": 2190,
      "萬": 2191,
      "落": 2192,
      "葉": 2193,
      "著": 2194,
      "葛": 2195,
      "董": 2196,
      "葬": 2197,
      "蒙": 2198,
      "蒼": 2199,
      "蓋": 2200,
      "蓮": 2201,
      "蔡": 2202,
      "蕭": 2203,
      "薄": 2204,
      "薛": 2205,
      "薩": 2206,
      "藏": 2207,
      "藝": 2208,
      "藤": 2209,
      "藥": 2210,
      "藩": 2211,
      "蘇": 2212,
      "蘭": 2213,
      "虎": 2214,
      "處": 2215,
      "虛": 2216,
      "虞": 2217,
      "號": 2218,
      "蛇": 2219,
      "蜀": 2220,
      "融": 2221,
      "血": 2222,
      "衆": 2223,
      "行": 2224,
      "衍": 2225,
      "術": 2226,
      "街": 2227,
      "衛": 2228,
      "衡": 2229,
      "衣": 2230,
      "表": 2231,
      "袁": 2232,
      "被": 2233,
      "裁": 2234,
      "裕": 2235,
      "補": 2236,
      "裝": 2237,
      "裵": 2238,
      "製": 2239,
      "複": 2240,
      "襄": 2241,
      "西": 2242,
      "要": 2243,
      "覇": 2244,
      "見": 2245,
      "規": 2246,
      "視": 2247,
      "親": 2248,
      "覺": 2249,
      "覽": 2250,
      "觀": 2251,
      "角": 2252,
      "解": 2253,
      "觸": 2254,
      "言": 2255,
      "計": 2256,
      "討": 2257,
      "訓": 2258,
      "託": 2259,
      "記": 2260,
      "訟": 2261,
      "訥": 2262,
      "訪": 2263,
      "設": 2264,
      "許": 2265,
      "訴": 2266,
      "註": 2267,
      "評": 2268,
      "詞": 2269,
      "試": 2270,
      "詩": 2271,
      "話": 2272,
      "誌": 2273,
      "認": 2274,
      "語": 2275,
      "誠": 2276,
      "誤": 2277,
      "說": 2278,
      "課": 2279,
      "調": 2280,
      "談": 2281,
      "請": 2282,
      "論": 2283,
      "諫": 2284,
      "諸": 2285,
      "謀": 2286,
      "謂": 2287,
      "謙": 2288,
      "講": 2289,
      "謝": 2290,
      "證": 2291,
      "識": 2292,
      "譜": 2293,
      "警": 2294,
      "譯": 2295,
      "議": 2296,
      "護": 2297,
      "讀": 2298,
      "變": 2299,
      "讓": 2300,
      "谷": 2301,
      "豆": 2302,
      "豊": 2303,
      "象": 2304,
      "豪": 2305,
      "豫": 2306,
      "貞": 2307,
      "負": 2308,
      "財": 2309,
      "貢": 2310,
      "貧": 2311,
      "貨": 2312,
      "貪": 2313,
      "貫": 2314,
      "責": 2315,
      "貴": 2316,
      "買": 2317,
      "貸": 2318,
      "費": 2319,
      "賀": 2320,
      "賃": 2321,
      "資": 2322,
      "賊": 2323,
      "賓": 2324,
      "賜": 2325,
      "賞": 2326,
      "賠": 2327,
      "賢": 2328,
      "賣": 2329,
      "賤": 2330,
      "賦": 2331,
      "質": 2332,
      "贈": 2333,
      "贊": 2334,
      "赤": 2335,
      "赫": 2336,
      "走": 2337,
      "起": 2338,
      "超": 2339,
      "越": 2340,
      "趙": 2341,
      "足": 2342,
      "路": 2343,
      "身": 2344,
      "車": 2345,
      "軍": 2346,
      "軒": 2347,
      "載": 2348,
      "輔": 2349,
      "輕": 2350,
      "輝": 2351,
      "輪": 2352,
      "輯": 2353,
      "輸": 2354,
      "輿": 2355,
      "轉": 2356,
      "辛": 2357,
      "辨": 2358,
      "辭": 2359,
      "辯": 2360,
      "辰": 2361,
      "農": 2362,
      "迎": 2363,
      "近": 2364,
      "述": 2365,
      "迷": 2366,
      "追": 2367,
      "退": 2368,
      "送": 2369,
      "逆": 2370,
      "通": 2371,
      "速": 2372,
      "造": 2373,
      "連": 2374,
      "進": 2375,
      "逸": 2376,
      "遂": 2377,
      "遇": 2378,
      "遊": 2379,
      "運": 2380,
      "過": 2381,
      "道": 2382,
      "達": 2383,
      "違": 2384,
      "遠": 2385,
      "適": 2386,
      "遷": 2387,
      "選": 2388,
      "遺": 2389,
      "遼": 2390,
      "避": 2391,
      "還": 2392,
      "邊": 2393,
      "邑": 2394,
      "那": 2395,
      "邦": 2396,
      "邪": 2397,
      "邱": 2398,
      "郎": 2399,
      "郞": 2400,
      "郡": 2401,
      "部": 2402,
      "郭": 2403,
      "都": 2404,
      "鄕": 2405,
      "鄧": 2406,
      "鄭": 2407,
      "酉": 2408,
      "配": 2409,
      "酒": 2410,
      "醫": 2411,
      "釋": 2412,
      "里": 2413,
      "重": 2414,
      "野": 2415,
      "量": 2416,
      "金": 2417,
      "釜": 2418,
      "鉉": 2419,
      "銀": 2420,
      "銅": 2421,
      "銘": 2422,
      "錄": 2423,
      "錢": 2424,
      "錦": 2425,
      "錫": 2426,
      "錯": 2427,
      "鍾": 2428,
      "鎬": 2429,
      "鎭": 2430,
      "鏡": 2431,
      "鐘": 2432,
      "鐵": 2433,
      "鑑": 2434,
      "镇": 2435,
      "長": 2436,
      "門": 2437,
      "開": 2438,
      "閑": 2439,
      "間": 2440,
      "閔": 2441,
      "閣": 2442,
      "關": 2443,
      "阪": 2444,
      "阮": 2445,
      "防": 2446,
      "阿": 2447,
      "陀": 2448,
      "附": 2449,
      "降": 2450,
      "限": 2451,
      "院": 2452,
      "陣": 2453,
      "除": 2454,
      "陰": 2455,
      "陳": 2456,
      "陵": 2457,
      "陶": 2458,
      "陸": 2459,
      "陽": 2460,
      "隆": 2461,
      "隊": 2462,
      "階": 2463,
      "際": 2464,
      "障": 2465,
      "隨": 2466,
      "險": 2467,
      "隱": 2468,
      "雄": 2469,
      "雅": 2470,
      "集": 2471,
      "雖": 2472,
      "雙": 2473,
      "雜": 2474,
      "離": 2475,
      "難": 2476,
      "雨": 2477,
      "雪": 2478,
      "雲": 2479,
      "電": 2480,
      "需": 2481,
      "震": 2482,
      "露": 2483,
      "靈": 2484,
      "靑": 2485,
      "青": 2486,
      "靖": 2487,
      "靜": 2488,
      "非": 2489,
      "面": 2490,
      "革": 2491,
      "韓": 2492,
      "音": 2493,
      "韻": 2494,
      "頂": 2495,
      "項": 2496,
      "順": 2497,
      "須": 2498,
      "頌": 2499,
      "領": 2500,
      "頭": 2501,
      "題": 2502,
      "額": 2503,
      "顔": 2504,
      "願": 2505,
      "類": 2506,
      "顧": 2507,
      "顯": 2508,
      "風": 2509,
      "飛": 2510,
      "食": 2511,
      "飮": 2512,
      "飯": 2513,
      "養": 2514,
      "餘": 2515,
      "館": 2516,
      "首": 2517,
      "香": 2518,
      "馬": 2519,
      "駐": 2520,
      "騎": 2521,
      "驗": 2522,
      "驛": 2523,
      "骨": 2524,
      "體": 2525,
      "高": 2526,
      "鬪": 2527,
      "鬼": 2528,
      "魂": 2529,
      "魏": 2530,
      "魔": 2531,
      "魚": 2532,
      "魯": 2533,
      "鮮": 2534,
      "鳥": 2535,
      "鳳": 2536,
      "鳴": 2537,
      "鴻": 2538,
      "鶴": 2539,
      "鷄": 2540,
      "鹽": 2541,
      "鹿": 2542,
      "麗": 2543,
      "麟": 2544,
      "麻": 2545,
      "黃": 2546,
      "黎": 2547,
      "黑": 2548,
      "默": 2549,
      "點": 2550,
      "黨": 2551,
      "鼎": 2552,
      "鼓": 2553,
      "齊": 2554,
      "齋": 2555,
      "齒": 2556,
      "齡": 2557,
      "龍": 2558,
      "龙": 2559,
      "龜": 2560,
      "가": 2561,
      "각": 2562,
      "간": 2563,
      "갇": 2564,
      "갈": 2565,
      "갉": 2566,
      "감": 2567,
      "갑": 2568,
      "값": 2569,
      "갓": 2570,
      "갔": 2571,
      "강": 2572,
      "갖": 2573,
      "갗": 2574,
      "같": 2575,
      "갚": 2576,
      "갛": 2577,
      "개": 2578,
      "객": 2579,
      "갠": 2580,
      "갤": 2581,
      "갬": 2582,
      "갭": 2583,
      "갯": 2584,
      "갰": 2585,
      "갱": 2586,
      "갸": 2587,
      "걀": 2588,
      "걍": 2589,
      "걔": 2590,
      "거": 2591,
      "걱": 2592,
      "건": 2593,
      "걷": 2594,
      "걸": 2595,
      "검": 2596,
      "겁": 2597,
      "것": 2598,
      "겄": 2599,
      "겅": 2600,
      "겉": 2601,
      "겊": 2602,
      "겋": 2603,
      "게": 2604,
      "겐": 2605,
      "겔": 2606,
      "겜": 2607,
      "겟": 2608,
      "겠": 2609,
      "겡": 2610,
      "겨": 2611,
      "격": 2612,
      "겪": 2613,
      "견": 2614,
      "결": 2615,
      "겸": 2616,
      "겹": 2617,
      "겻": 2618,
      "겼": 2619,
      "경": 2620,
      "곁": 2621,
      "계": 2622,
      "곗": 2623,
      "고": 2624,
      "곡": 2625,
      "곤": 2626,
      "곧": 2627,
      "골": 2628,
      "곪": 2629,
      "곯": 2630,
      "곰": 2631,
      "곱": 2632,
      "곳": 2633,
      "공": 2634,
      "곶": 2635,
      "곸": 2636,
      "과": 2637,
      "곽": 2638,
      "관": 2639,
      "괄": 2640,
      "괌": 2641,
      "광": 2642,
      "괘": 2643,
      "괜": 2644,
      "괭": 2645,
      "괴": 2646,
      "굉": 2647,
      "교": 2648,
      "굣": 2649,
      "구": 2650,
      "국": 2651,
      "군": 2652,
      "굳": 2653,
      "굴": 2654,
      "굵": 2655,
      "굶": 2656,
      "굼": 2657,
      "굽": 2658,
      "굿": 2659,
      "궁": 2660,
      "궂": 2661,
      "궈": 2662,
      "권": 2663,
      "궐": 2664,
      "궜": 2665,
      "궤": 2666,
      "귀": 2667,
      "귄": 2668,
      "귈": 2669,
      "귐": 2670,
      "귓": 2671,
      "규": 2672,
      "균": 2673,
      "귤": 2674,
      "그": 2675,
      "극": 2676,
      "근": 2677,
      "글": 2678,
      "긁": 2679,
      "금": 2680,
      "급": 2681,
      "긋": 2682,
      "긍": 2683,
      "긔": 2684,
      "기": 2685,
      "긱": 2686,
      "긴": 2687,
      "길": 2688,
      "김": 2689,
      "깁": 2690,
      "깃": 2691,
      "깄": 2692,
      "깅": 2693,
      "깊": 2694,
      "까": 2695,
      "깍": 2696,
      "깎": 2697,
      "깐": 2698,
      "깔": 2699,
      "깜": 2700,
      "깝": 2701,
      "깟": 2702,
      "깡": 2703,
      "깥": 2704,
      "깨": 2705,
      "깬": 2706,
      "깰": 2707,
      "깻": 2708,
      "깼": 2709,
      "깽": 2710,
      "꺄": 2711,
      "꺅": 2712,
      "꺼": 2713,
      "꺽": 2714,
      "꺾": 2715,
      "껀": 2716,
      "껄": 2717,
      "껌": 2718,
      "껍": 2719,
      "껏": 2720,
      "껐": 2721,
      "껑": 2722,
      "께": 2723,
      "껴": 2724,
      "꼈": 2725,
      "꼬": 2726,
      "꼭": 2727,
      "꼰": 2728,
      "꼴": 2729,
      "꼼": 2730,
      "꼽": 2731,
      "꼿": 2732,
      "꽁": 2733,
      "꽂": 2734,
      "꽃": 2735,
      "꽈": 2736,
      "꽉": 2737,
      "꽝": 2738,
      "꽤": 2739,
      "꽥": 2740,
      "꽹": 2741,
      "꾀": 2742,
      "꾸": 2743,
      "꾹": 2744,
      "꾼": 2745,
      "꿀": 2746,
      "꿇": 2747,
      "꿈": 2748,
      "꿉": 2749,
      "꿋": 2750,
      "꿍": 2751,
      "꿎": 2752,
      "꿔": 2753,
      "꿨": 2754,
      "꿩": 2755,
      "꿰": 2756,
      "뀌": 2757,
      "뀐": 2758,
      "뀔": 2759,
      "뀜": 2760,
      "끄": 2761,
      "끈": 2762,
      "끊": 2763,
      "끌": 2764,
      "끓": 2765,
      "끔": 2766,
      "끗": 2767,
      "끙": 2768,
      "끝": 2769,
      "끼": 2770,
      "끽": 2771,
      "낀": 2772,
      "낄": 2773,
      "낌": 2774,
      "낍": 2775,
      "낑": 2776,
      "나": 2777,
      "낙": 2778,
      "낚": 2779,
      "난": 2780,
      "날": 2781,
      "낡": 2782,
      "남": 2783,
      "납": 2784,
      "낫": 2785,
      "났": 2786,
      "낭": 2787,
      "낮": 2788,
      "낯": 2789,
      "낱": 2790,
      "낳": 2791,
      "내": 2792,
      "낵": 2793,
      "낸": 2794,
      "낼": 2795,
      "냄": 2796,
      "냅": 2797,
      "냇": 2798,
      "냈": 2799,
      "냉": 2800,
      "냐": 2801,
      "냑": 2802,
      "냔": 2803,
      "냘": 2804,
      "냠": 2805,
      "냥": 2806,
      "너": 2807,
      "넉": 2808,
      "넋": 2809,
      "넌": 2810,
      "널": 2811,
      "넓": 2812,
      "넘": 2813,
      "넙": 2814,
      "넛": 2815,
      "넜": 2816,
      "넝": 2817,
      "넣": 2818,
      "네": 2819,
      "넥": 2820,
      "넨": 2821,
      "넬": 2822,
      "넴": 2823,
      "넵": 2824,
      "넷": 2825,
      "넸": 2826,
      "넹": 2827,
      "넼": 2828,
      "녀": 2829,
      "녁": 2830,
      "년": 2831,
      "념": 2832,
      "녔": 2833,
      "녕": 2834,
      "녘": 2835,
      "녜": 2836,
      "노": 2837,
      "녹": 2838,
      "논": 2839,
      "놀": 2840,
      "놈": 2841,
      "놉": 2842,
      "놋": 2843,
      "농": 2844,
      "높": 2845,
      "놓": 2846,
      "놔": 2847,
      "놨": 2848,
      "뇌": 2849,
      "뇨": 2850,
      "뇰": 2851,
      "뇸": 2852,
      "뇽": 2853,
      "누": 2854,
      "눅": 2855,
      "눈": 2856,
      "눌": 2857,
      "눔": 2858,
      "눕": 2859,
      "눗": 2860,
      "눙": 2861,
      "눠": 2862,
      "눴": 2863,
      "뉘": 2864,
      "뉜": 2865,
      "뉴": 2866,
      "늄": 2867,
      "늉": 2868,
      "느": 2869,
      "늑": 2870,
      "는": 2871,
      "늘": 2872,
      "늙": 2873,
      "늠": 2874,
      "능": 2875,
      "늦": 2876,
      "늪": 2877,
      "늬": 2878,
      "니": 2879,
      "닉": 2880,
      "닌": 2881,
      "닐": 2882,
      "님": 2883,
      "닙": 2884,
      "닛": 2885,
      "닝": 2886,
      "닢": 2887,
      "다": 2888,
      "닥": 2889,
      "닦": 2890,
      "단": 2891,
      "닫": 2892,
      "달": 2893,
      "닭": 2894,
      "닮": 2895,
      "닳": 2896,
      "담": 2897,
      "답": 2898,
      "닷": 2899,
      "당": 2900,
      "닻": 2901,
      "닼": 2902,
      "닿": 2903,
      "대": 2904,
      "댁": 2905,
      "댄": 2906,
      "댈": 2907,
      "댐": 2908,
      "댑": 2909,
      "댓": 2910,
      "댔": 2911,
      "댕": 2912,
      "댜": 2913,
      "더": 2914,
      "덕": 2915,
      "던": 2916,
      "덜": 2917,
      "덟": 2918,
      "덤": 2919,
      "덥": 2920,
      "덧": 2921,
      "덩": 2922,
      "덫": 2923,
      "덮": 2924,
      "데": 2925,
      "덱": 2926,
      "덴": 2927,
      "델": 2928,
      "뎀": 2929,
      "뎁": 2930,
      "뎃": 2931,
      "뎅": 2932,
      "뎈": 2933,
      "뎌": 2934,
      "뎐": 2935,
      "뎠": 2936,
      "도": 2937,
      "독": 2938,
      "돈": 2939,
      "돋": 2940,
      "돌": 2941,
      "돔": 2942,
      "돕": 2943,
      "돗": 2944,
      "동": 2945,
      "돛": 2946,
      "돼": 2947,
      "됏": 2948,
      "됐": 2949,
      "되": 2950,
      "된": 2951,
      "될": 2952,
      "됨": 2953,
      "됩": 2954,
      "됬": 2955,
      "됴": 2956,
      "두": 2957,
      "둑": 2958,
      "둔": 2959,
      "둘": 2960,
      "둠": 2961,
      "둡": 2962,
      "둣": 2963,
      "둥": 2964,
      "둬": 2965,
      "뒀": 2966,
      "뒈": 2967,
      "뒤": 2968,
      "뒷": 2969,
      "뒹": 2970,
      "듀": 2971,
      "듈": 2972,
      "듐": 2973,
      "드": 2974,
      "득": 2975,
      "든": 2976,
      "듣": 2977,
      "들": 2978,
      "듦": 2979,
      "듬": 2980,
      "듭": 2981,
      "듯": 2982,
      "등": 2983,
      "디": 2984,
      "딕": 2985,
      "딘": 2986,
      "딛": 2987,
      "딜": 2988,
      "딤": 2989,
      "딥": 2990,
      "딧": 2991,
      "딨": 2992,
      "딩": 2993,
      "딪": 2994,
      "따": 2995,
      "딱": 2996,
      "딴": 2997,
      "딸": 2998,
      "땀": 2999,
      "땃": 3000,
      "땄": 3001,
      "땅": 3002,
      "땋": 3003,
      "때": 3004,
      "땐": 3005,
      "땔": 3006,
      "땜": 3007,
      "땠": 3008,
      "땡": 3009,
      "떄": 3010,
      "떠": 3011,
      "떡": 3012,
      "떤": 3013,
      "떨": 3014,
      "떫": 3015,
      "떳": 3016,
      "떴": 3017,
      "떵": 3018,
      "떻": 3019,
      "떼": 3020,
      "뗀": 3021,
      "뗄": 3022,
      "뗏": 3023,
      "뗐": 3024,
      "또": 3025,
      "똑": 3026,
      "똘": 3027,
      "똥": 3028,
      "똬": 3029,
      "뙤": 3030,
      "뚜": 3031,
      "뚝": 3032,
      "뚠": 3033,
      "뚤": 3034,
      "뚫": 3035,
      "뚱": 3036,
      "뛰": 3037,
      "뛴": 3038,
      "뛸": 3039,
      "뜀": 3040,
      "뜨": 3041,
      "뜩": 3042,
      "뜬": 3043,
      "뜯": 3044,
      "뜰": 3045,
      "뜸": 3046,
      "뜻": 3047,
      "띄": 3048,
      "띈": 3049,
      "띌": 3050,
      "띔": 3051,
      "띠": 3052,
      "띤": 3053,
      "띨": 3054,
      "띵": 3055,
      "라": 3056,
      "락": 3057,
      "란": 3058,
      "랄": 3059,
      "람": 3060,
      "랍": 3061,
      "랏": 3062,
      "랐": 3063,
      "랑": 3064,
      "랖": 3065,
      "랗": 3066,
      "래": 3067,
      "랙": 3068,
      "랜": 3069,
      "랠": 3070,
      "램": 3071,
      "랩": 3072,
      "랫": 3073,
      "랬": 3074,
      "랭": 3075,
      "랴": 3076,
      "략": 3077,
      "량": 3078,
      "러": 3079,
      "럭": 3080,
      "런": 3081,
      "럴": 3082,
      "럼": 3083,
      "럽": 3084,
      "럿": 3085,
      "렀": 3086,
      "렁": 3087,
      "렇": 3088,
      "레": 3089,
      "렉": 3090,
      "렌": 3091,
      "렐": 3092,
      "렘": 3093,
      "렙": 3094,
      "렛": 3095,
      "렝": 3096,
      "려": 3097,
      "력": 3098,
      "련": 3099,
      "렬": 3100,
      "렴": 3101,
      "렵": 3102,
      "렷": 3103,
      "렸": 3104,
      "령": 3105,
      "례": 3106,
      "롄": 3107,
      "로": 3108,
      "록": 3109,
      "론": 3110,
      "롤": 3111,
      "롬": 3112,
      "롭": 3113,
      "롯": 3114,
      "롱": 3115,
      "뢰": 3116,
      "뢴": 3117,
      "료": 3118,
      "룡": 3119,
      "루": 3120,
      "룩": 3121,
      "룬": 3122,
      "룰": 3123,
      "룸": 3124,
      "룹": 3125,
      "룻": 3126,
      "룽": 3127,
      "뤄": 3128,
      "뤘": 3129,
      "뤼": 3130,
      "뤽": 3131,
      "류": 3132,
      "륙": 3133,
      "륜": 3134,
      "률": 3135,
      "륨": 3136,
      "륭": 3137,
      "르": 3138,
      "륵": 3139,
      "른": 3140,
      "를": 3141,
      "름": 3142,
      "릅": 3143,
      "릇": 3144,
      "릉": 3145,
      "릎": 3146,
      "릏": 3147,
      "리": 3148,
      "릭": 3149,
      "린": 3150,
      "릴": 3151,
      "림": 3152,
      "립": 3153,
      "릿": 3154,
      "링": 3155,
      "마": 3156,
      "막": 3157,
      "만": 3158,
      "많": 3159,
      "맏": 3160,
      "말": 3161,
      "맑": 3162,
      "맘": 3163,
      "맙": 3164,
      "맛": 3165,
      "망": 3166,
      "맞": 3167,
      "맡": 3168,
      "맣": 3169,
      "매": 3170,
      "맥": 3171,
      "맨": 3172,
      "맬": 3173,
      "맴": 3174,
      "맵": 3175,
      "맷": 3176,
      "맸": 3177,
      "맹": 3178,
      "맺": 3179,
      "먀": 3180,
      "먐": 3181,
      "머": 3182,
      "먹": 3183,
      "먼": 3184,
      "멀": 3185,
      "멈": 3186,
      "멋": 3187,
      "멍": 3188,
      "멎": 3189,
      "멓": 3190,
      "메": 3191,
      "멕": 3192,
      "멘": 3193,
      "멜": 3194,
      "멤": 3195,
      "멧": 3196,
      "멩": 3197,
      "며": 3198,
      "멱": 3199,
      "면": 3200,
      "멸": 3201,
      "몄": 3202,
      "명": 3203,
      "몇": 3204,
      "모": 3205,
      "목": 3206,
      "몫": 3207,
      "몬": 3208,
      "몰": 3209,
      "몸": 3210,
      "몹": 3211,
      "못": 3212,
      "몽": 3213,
      "뫼": 3214,
      "묘": 3215,
      "무": 3216,
      "묵": 3217,
      "묶": 3218,
      "문": 3219,
      "묻": 3220,
      "물": 3221,
      "묽": 3222,
      "뭄": 3223,
      "뭇": 3224,
      "뭉": 3225,
      "뭍": 3226,
      "뭐": 3227,
      "뭔": 3228,
      "뭘": 3229,
      "뭡": 3230,
      "뭣": 3231,
      "뮈": 3232,
      "뮌": 3233,
      "뮐": 3234,
      "뮤": 3235,
      "뮨": 3236,
      "뮬": 3237,
      "뮴": 3238,
      "므": 3239,
      "믄": 3240,
      "믈": 3241,
      "믐": 3242,
      "미": 3243,
      "믹": 3244,
      "민": 3245,
      "믿": 3246,
      "밀": 3247,
      "밈": 3248,
      "밉": 3249,
      "밋": 3250,
      "밌": 3251,
      "밍": 3252,
      "및": 3253,
      "밑": 3254,
      "바": 3255,
      "박": 3256,
      "밖": 3257,
      "반": 3258,
      "받": 3259,
      "발": 3260,
      "밝": 3261,
      "밟": 3262,
      "밤": 3263,
      "밥": 3264,
      "밧": 3265,
      "방": 3266,
      "밭": 3267,
      "배": 3268,
      "백": 3269,
      "밴": 3270,
      "밸": 3271,
      "뱀": 3272,
      "뱃": 3273,
      "뱅": 3274,
      "뱉": 3275,
      "뱌": 3276,
      "버": 3277,
      "벅": 3278,
      "번": 3279,
      "벌": 3280,
      "범": 3281,
      "법": 3282,
      "벗": 3283,
      "벙": 3284,
      "벚": 3285,
      "베": 3286,
      "벡": 3287,
      "벤": 3288,
      "벧": 3289,
      "벨": 3290,
      "벳": 3291,
      "벵": 3292,
      "벼": 3293,
      "벽": 3294,
      "변": 3295,
      "별": 3296,
      "볍": 3297,
      "볏": 3298,
      "볐": 3299,
      "병": 3300,
      "볕": 3301,
      "볜": 3302,
      "보": 3303,
      "복": 3304,
      "볶": 3305,
      "본": 3306,
      "볼": 3307,
      "봄": 3308,
      "봅": 3309,
      "봇": 3310,
      "봉": 3311,
      "봐": 3312,
      "봣": 3313,
      "봤": 3314,
      "봬": 3315,
      "뵈": 3316,
      "뵌": 3317,
      "뵐": 3318,
      "뵙": 3319,
      "부": 3320,
      "북": 3321,
      "분": 3322,
      "불": 3323,
      "붉": 3324,
      "붐": 3325,
      "붓": 3326,
      "붕": 3327,
      "붙": 3328,
      "뷔": 3329,
      "뷰": 3330,
      "뷴": 3331,
      "뷸": 3332,
      "브": 3333,
      "븐": 3334,
      "블": 3335,
      "비": 3336,
      "빅": 3337,
      "빈": 3338,
      "빌": 3339,
      "빔": 3340,
      "빕": 3341,
      "빗": 3342,
      "빙": 3343,
      "빚": 3344,
      "빛": 3345,
      "빠": 3346,
      "빡": 3347,
      "빤": 3348,
      "빨": 3349,
      "빳": 3350,
      "빴": 3351,
      "빵": 3352,
      "빻": 3353,
      "빼": 3354,
      "빽": 3355,
      "뺀": 3356,
      "뺄": 3357,
      "뺌": 3358,
      "뺏": 3359,
      "뺐": 3360,
      "뺑": 3361,
      "뺨": 3362,
      "뻐": 3363,
      "뻑": 3364,
      "뻔": 3365,
      "뻗": 3366,
      "뻘": 3367,
      "뻣": 3368,
      "뻤": 3369,
      "뻥": 3370,
      "뻬": 3371,
      "뼈": 3372,
      "뼉": 3373,
      "뼘": 3374,
      "뼛": 3375,
      "뽀": 3376,
      "뽁": 3377,
      "뽈": 3378,
      "뽐": 3379,
      "뽑": 3380,
      "뽕": 3381,
      "뾰": 3382,
      "뿅": 3383,
      "뿌": 3384,
      "뿍": 3385,
      "뿐": 3386,
      "뿔": 3387,
      "뿜": 3388,
      "뿡": 3389,
      "쁘": 3390,
      "쁜": 3391,
      "쁠": 3392,
      "쁨": 3393,
      "쁩": 3394,
      "삐": 3395,
      "삑": 3396,
      "삥": 3397,
      "사": 3398,
      "삭": 3399,
      "삯": 3400,
      "산": 3401,
      "살": 3402,
      "삶": 3403,
      "삼": 3404,
      "삽": 3405,
      "삿": 3406,
      "샀": 3407,
      "상": 3408,
      "샅": 3409,
      "새": 3410,
      "색": 3411,
      "샌": 3412,
      "샐": 3413,
      "샘": 3414,
      "샛": 3415,
      "샜": 3416,
      "생": 3417,
      "샤": 3418,
      "샥": 3419,
      "샨": 3420,
      "샬": 3421,
      "샴": 3422,
      "샵": 3423,
      "샷": 3424,
      "샹": 3425,
      "섀": 3426,
      "서": 3427,
      "석": 3428,
      "섞": 3429,
      "선": 3430,
      "섣": 3431,
      "설": 3432,
      "섬": 3433,
      "섭": 3434,
      "섯": 3435,
      "섰": 3436,
      "성": 3437,
      "섶": 3438,
      "세": 3439,
      "섹": 3440,
      "센": 3441,
      "셀": 3442,
      "셈": 3443,
      "셉": 3444,
      "셋": 3445,
      "셌": 3446,
      "셍": 3447,
      "셔": 3448,
      "션": 3449,
      "셜": 3450,
      "셤": 3451,
      "셧": 3452,
      "셨": 3453,
      "셩": 3454,
      "셰": 3455,
      "셴": 3456,
      "셸": 3457,
      "소": 3458,
      "속": 3459,
      "솎": 3460,
      "손": 3461,
      "솔": 3462,
      "솜": 3463,
      "솝": 3464,
      "솟": 3465,
      "송": 3466,
      "솥": 3467,
      "쇄": 3468,
      "쇠": 3469,
      "쇤": 3470,
      "쇳": 3471,
      "쇼": 3472,
      "숀": 3473,
      "숄": 3474,
      "숍": 3475,
      "숏": 3476,
      "숑": 3477,
      "수": 3478,
      "숙": 3479,
      "순": 3480,
      "숟": 3481,
      "술": 3482,
      "숨": 3483,
      "숩": 3484,
      "숫": 3485,
      "숭": 3486,
      "숯": 3487,
      "숱": 3488,
      "숲": 3489,
      "숴": 3490,
      "쉐": 3491,
      "쉑": 3492,
      "쉘": 3493,
      "쉬": 3494,
      "쉰": 3495,
      "쉴": 3496,
      "쉼": 3497,
      "쉽": 3498,
      "쉿": 3499,
      "슈": 3500,
      "슉": 3501,
      "슌": 3502,
      "슐": 3503,
      "슘": 3504,
      "슛": 3505,
      "슝": 3506,
      "스": 3507,
      "슥": 3508,
      "슨": 3509,
      "슬": 3510,
      "슭": 3511,
      "슴": 3512,
      "습": 3513,
      "슷": 3514,
      "승": 3515,
      "시": 3516,
      "식": 3517,
      "신": 3518,
      "싣": 3519,
      "실": 3520,
      "싫": 3521,
      "심": 3522,
      "십": 3523,
      "싯": 3524,
      "싱": 3525,
      "싶": 3526,
      "싸": 3527,
      "싹": 3528,
      "싼": 3529,
      "쌀": 3530,
      "쌈": 3531,
      "쌉": 3532,
      "쌌": 3533,
      "쌍": 3534,
      "쌓": 3535,
      "쌔": 3536,
      "쌕": 3537,
      "쌤": 3538,
      "쌩": 3539,
      "써": 3540,
      "썩": 3541,
      "썬": 3542,
      "썰": 3543,
      "썸": 3544,
      "썹": 3545,
      "썼": 3546,
      "썽": 3547,
      "쎄": 3548,
      "쎈": 3549,
      "쏘": 3550,
      "쏙": 3551,
      "쏜": 3552,
      "쏟": 3553,
      "쏠": 3554,
      "쏭": 3555,
      "쏴": 3556,
      "쐈": 3557,
      "쐐": 3558,
      "쐬": 3559,
      "쑤": 3560,
      "쑥": 3561,
      "쑨": 3562,
      "쑹": 3563,
      "쓰": 3564,
      "쓱": 3565,
      "쓴": 3566,
      "쓸": 3567,
      "씀": 3568,
      "씁": 3569,
      "씌": 3570,
      "씨": 3571,
      "씩": 3572,
      "씬": 3573,
      "씰": 3574,
      "씸": 3575,
      "씹": 3576,
      "씻": 3577,
      "씽": 3578,
      "아": 3579,
      "악": 3580,
      "안": 3581,
      "앉": 3582,
      "않": 3583,
      "알": 3584,
      "앎": 3585,
      "앓": 3586,
      "암": 3587,
      "압": 3588,
      "앗": 3589,
      "았": 3590,
      "앙": 3591,
      "앜": 3592,
      "앞": 3593,
      "애": 3594,
      "액": 3595,
      "앤": 3596,
      "앨": 3597,
      "앰": 3598,
      "앱": 3599,
      "앳": 3600,
      "앴": 3601,
      "앵": 3602,
      "야": 3603,
      "약": 3604,
      "얀": 3605,
      "얄": 3606,
      "얇": 3607,
      "얌": 3608,
      "얍": 3609,
      "얏": 3610,
      "양": 3611,
      "얕": 3612,
      "얗": 3613,
      "얘": 3614,
      "어": 3615,
      "억": 3616,
      "언": 3617,
      "얹": 3618,
      "얻": 3619,
      "얼": 3620,
      "얽": 3621,
      "엄": 3622,
      "업": 3623,
      "없": 3624,
      "엇": 3625,
      "었": 3626,
      "엉": 3627,
      "엊": 3628,
      "엌": 3629,
      "엎": 3630,
      "에": 3631,
      "엑": 3632,
      "엔": 3633,
      "엘": 3634,
      "엠": 3635,
      "엡": 3636,
      "엣": 3637,
      "엥": 3638,
      "여": 3639,
      "역": 3640,
      "엮": 3641,
      "연": 3642,
      "열": 3643,
      "엷": 3644,
      "염": 3645,
      "엽": 3646,
      "엾": 3647,
      "엿": 3648,
      "였": 3649,
      "영": 3650,
      "옅": 3651,
      "옆": 3652,
      "옇": 3653,
      "예": 3654,
      "옌": 3655,
      "옐": 3656,
      "옙": 3657,
      "옛": 3658,
      "오": 3659,
      "옥": 3660,
      "온": 3661,
      "올": 3662,
      "옭": 3663,
      "옮": 3664,
      "옳": 3665,
      "옴": 3666,
      "옵": 3667,
      "옷": 3668,
      "옹": 3669,
      "옻": 3670,
      "와": 3671,
      "왁": 3672,
      "완": 3673,
      "왈": 3674,
      "왑": 3675,
      "왓": 3676,
      "왔": 3677,
      "왕": 3678,
      "왜": 3679,
      "왠": 3680,
      "왤": 3681,
      "외": 3682,
      "왼": 3683,
      "요": 3684,
      "욕": 3685,
      "욘": 3686,
      "욜": 3687,
      "욤": 3688,
      "욥": 3689,
      "욧": 3690,
      "용": 3691,
      "욬": 3692,
      "우": 3693,
      "욱": 3694,
      "운": 3695,
      "울": 3696,
      "움": 3697,
      "웁": 3698,
      "웃": 3699,
      "웅": 3700,
      "워": 3701,
      "웍": 3702,
      "원": 3703,
      "월": 3704,
      "웜": 3705,
      "웟": 3706,
      "웠": 3707,
      "웡": 3708,
      "웨": 3709,
      "웩": 3710,
      "웬": 3711,
      "웰": 3712,
      "웸": 3713,
      "웹": 3714,
      "위": 3715,
      "윅": 3716,
      "윈": 3717,
      "윌": 3718,
      "윔": 3719,
      "윕": 3720,
      "윗": 3721,
      "윙": 3722,
      "유": 3723,
      "육": 3724,
      "윤": 3725,
      "율": 3726,
      "윳": 3727,
      "융": 3728,
      "윷": 3729,
      "으": 3730,
      "윽": 3731,
      "은": 3732,
      "을": 3733,
      "읊": 3734,
      "음": 3735,
      "읍": 3736,
      "응": 3737,
      "의": 3738,
      "이": 3739,
      "익": 3740,
      "인": 3741,
      "일": 3742,
      "읽": 3743,
      "잃": 3744,
      "임": 3745,
      "입": 3746,
      "잇": 3747,
      "있": 3748,
      "잉": 3749,
      "잊": 3750,
      "잌": 3751,
      "잎": 3752,
      "자": 3753,
      "작": 3754,
      "잔": 3755,
      "잖": 3756,
      "잘": 3757,
      "잠": 3758,
      "잡": 3759,
      "잣": 3760,
      "잤": 3761,
      "장": 3762,
      "잦": 3763,
      "재": 3764,
      "잭": 3765,
      "잰": 3766,
      "잴": 3767,
      "잼": 3768,
      "잽": 3769,
      "잿": 3770,
      "쟁": 3771,
      "쟈": 3772,
      "쟌": 3773,
      "쟝": 3774,
      "쟤": 3775,
      "저": 3776,
      "적": 3777,
      "전": 3778,
      "절": 3779,
      "젊": 3780,
      "점": 3781,
      "접": 3782,
      "젓": 3783,
      "정": 3784,
      "젖": 3785,
      "제": 3786,
      "젝": 3787,
      "젠": 3788,
      "젤": 3789,
      "젬": 3790,
      "젭": 3791,
      "젯": 3792,
      "져": 3793,
      "젼": 3794,
      "졋": 3795,
      "졌": 3796,
      "졍": 3797,
      "조": 3798,
      "족": 3799,
      "존": 3800,
      "졸": 3801,
      "좀": 3802,
      "좁": 3803,
      "좃": 3804,
      "종": 3805,
      "좆": 3806,
      "좇": 3807,
      "좋": 3808,
      "좌": 3809,
      "좔": 3810,
      "좡": 3811,
      "죄": 3812,
      "죠": 3813,
      "죤": 3814,
      "죵": 3815,
      "주": 3816,
      "죽": 3817,
      "준": 3818,
      "줄": 3819,
      "줌": 3820,
      "줍": 3821,
      "줏": 3822,
      "중": 3823,
      "줘": 3824,
      "줫": 3825,
      "줬": 3826,
      "쥐": 3827,
      "쥔": 3828,
      "쥘": 3829,
      "쥬": 3830,
      "쥰": 3831,
      "쥴": 3832,
      "즁": 3833,
      "즈": 3834,
      "즉": 3835,
      "즌": 3836,
      "즐": 3837,
      "즘": 3838,
      "즙": 3839,
      "증": 3840,
      "지": 3841,
      "직": 3842,
      "진": 3843,
      "질": 3844,
      "짊": 3845,
      "짐": 3846,
      "집": 3847,
      "짓": 3848,
      "징": 3849,
      "짖": 3850,
      "짙": 3851,
      "짚": 3852,
      "짜": 3853,
      "짝": 3854,
      "짠": 3855,
      "짢": 3856,
      "짤": 3857,
      "짧": 3858,
      "짬": 3859,
      "짭": 3860,
      "짰": 3861,
      "짱": 3862,
      "째": 3863,
      "쨋": 3864,
      "쨌": 3865,
      "쨍": 3866,
      "쨔": 3867,
      "쨩": 3868,
      "쩌": 3869,
      "쩍": 3870,
      "쩐": 3871,
      "쩔": 3872,
      "쩜": 3873,
      "쩝": 3874,
      "쩡": 3875,
      "쩨": 3876,
      "쪄": 3877,
      "쪘": 3878,
      "쪼": 3879,
      "쪽": 3880,
      "쫀": 3881,
      "쫄": 3882,
      "쫌": 3883,
      "쫑": 3884,
      "쫒": 3885,
      "쫓": 3886,
      "쫙": 3887,
      "쬐": 3888,
      "쭈": 3889,
      "쭉": 3890,
      "쭐": 3891,
      "쭙": 3892,
      "쭝": 3893,
      "쭤": 3894,
      "쮸": 3895,
      "쯔": 3896,
      "쯤": 3897,
      "쯧": 3898,
      "찌": 3899,
      "찍": 3900,
      "찐": 3901,
      "찔": 3902,
      "찜": 3903,
      "찝": 3904,
      "찡": 3905,
      "찢": 3906,
      "찧": 3907,
      "차": 3908,
      "착": 3909,
      "찬": 3910,
      "찮": 3911,
      "찰": 3912,
      "참": 3913,
      "찹": 3914,
      "찻": 3915,
      "찼": 3916,
      "창": 3917,
      "찾": 3918,
      "채": 3919,
      "책": 3920,
      "챈": 3921,
      "챌": 3922,
      "챔": 3923,
      "챕": 3924,
      "챗": 3925,
      "챘": 3926,
      "챙": 3927,
      "챠": 3928,
      "챱": 3929,
      "처": 3930,
      "척": 3931,
      "천": 3932,
      "철": 3933,
      "첨": 3934,
      "첩": 3935,
      "첫": 3936,
      "청": 3937,
      "체": 3938,
      "첵": 3939,
      "첸": 3940,
      "첼": 3941,
      "쳇": 3942,
      "쳉": 3943,
      "쳐": 3944,
      "쳣": 3945,
      "쳤": 3946,
      "초": 3947,
      "촉": 3948,
      "촌": 3949,
      "촐": 3950,
      "촘": 3951,
      "촛": 3952,
      "총": 3953,
      "촤": 3954,
      "촨": 3955,
      "촬": 3956,
      "촵": 3957,
      "최": 3958,
      "쵸": 3959,
      "추": 3960,
      "축": 3961,
      "춘": 3962,
      "출": 3963,
      "춤": 3964,
      "춥": 3965,
      "춧": 3966,
      "충": 3967,
      "춰": 3968,
      "췄": 3969,
      "췌": 3970,
      "취": 3971,
      "츄": 3972,
      "츠": 3973,
      "측": 3974,
      "츨": 3975,
      "츰": 3976,
      "층": 3977,
      "치": 3978,
      "칙": 3979,
      "친": 3980,
      "칠": 3981,
      "칡": 3982,
      "침": 3983,
      "칩": 3984,
      "칫": 3985,
      "칭": 3986,
      "카": 3987,
      "칵": 3988,
      "칸": 3989,
      "칼": 3990,
      "캄": 3991,
      "캅": 3992,
      "캇": 3993,
      "캉": 3994,
      "캐": 3995,
      "캔": 3996,
      "캘": 3997,
      "캠": 3998,
      "캡": 3999,
      "캣": 4000,
      "캥": 4001,
      "캬": 4002,
      "커": 4003,
      "컥": 4004,
      "컨": 4005,
      "컫": 4006,
      "컬": 4007,
      "컴": 4008,
      "컵": 4009,
      "컷": 4010,
      "컸": 4011,
      "컹": 4012,
      "케": 4013,
      "켄": 4014,
      "켈": 4015,
      "켐": 4016,
      "켓": 4017,
      "켜": 4018,
      "켠": 4019,
      "켤": 4020,
      "켰": 4021,
      "코": 4022,
      "콕": 4023,
      "콘": 4024,
      "콜": 4025,
      "콤": 4026,
      "콥": 4027,
      "콧": 4028,
      "콩": 4029,
      "콰": 4030,
      "콱": 4031,
      "콴": 4032,
      "콸": 4033,
      "쾅": 4034,
      "쾌": 4035,
      "쾨": 4036,
      "쾰": 4037,
      "쿄": 4038,
      "쿠": 4039,
      "쿡": 4040,
      "쿤": 4041,
      "쿨": 4042,
      "쿰": 4043,
      "쿱": 4044,
      "쿵": 4045,
      "쿼": 4046,
      "퀀": 4047,
      "퀄": 4048,
      "퀘": 4049,
      "퀴": 4050,
      "퀵": 4051,
      "퀸": 4052,
      "퀼": 4053,
      "큐": 4054,
      "큘": 4055,
      "크": 4056,
      "큭": 4057,
      "큰": 4058,
      "클": 4059,
      "큼": 4060,
      "큽": 4061,
      "킁": 4062,
      "키": 4063,
      "킥": 4064,
      "킨": 4065,
      "킬": 4066,
      "킴": 4067,
      "킵": 4068,
      "킷": 4069,
      "킹": 4070,
      "타": 4071,
      "탁": 4072,
      "탄": 4073,
      "탈": 4074,
      "탉": 4075,
      "탐": 4076,
      "탑": 4077,
      "탓": 4078,
      "탔": 4079,
      "탕": 4080,
      "태": 4081,
      "택": 4082,
      "탠": 4083,
      "탤": 4084,
      "탬": 4085,
      "탭": 4086,
      "탯": 4087,
      "탰": 4088,
      "탱": 4089,
      "터": 4090,
      "턱": 4091,
      "턴": 4092,
      "털": 4093,
      "텀": 4094,
      "텁": 4095,
      "텃": 4096,
      "텄": 4097,
      "텅": 4098,
      "테": 4099,
      "텍": 4100,
      "텐": 4101,
      "텔": 4102,
      "템": 4103,
      "텝": 4104,
      "텟": 4105,
      "텡": 4106,
      "텨": 4107,
      "텼": 4108,
      "톈": 4109,
      "토": 4110,
      "톡": 4111,
      "톤": 4112,
      "톨": 4113,
      "톰": 4114,
      "톱": 4115,
      "톳": 4116,
      "통": 4117,
      "퇴": 4118,
      "툇": 4119,
      "투": 4120,
      "툭": 4121,
      "툰": 4122,
      "툴": 4123,
      "툼": 4124,
      "퉁": 4125,
      "퉈": 4126,
      "퉤": 4127,
      "튀": 4128,
      "튄": 4129,
      "튈": 4130,
      "튕": 4131,
      "튜": 4132,
      "튠": 4133,
      "튤": 4134,
      "튬": 4135,
      "트": 4136,
      "특": 4137,
      "튼": 4138,
      "튿": 4139,
      "틀": 4140,
      "틈": 4141,
      "틋": 4142,
      "틔": 4143,
      "티": 4144,
      "틱": 4145,
      "틴": 4146,
      "틸": 4147,
      "팀": 4148,
      "팁": 4149,
      "팅": 4150,
      "파": 4151,
      "팍": 4152,
      "팎": 4153,
      "판": 4154,
      "팔": 4155,
      "팜": 4156,
      "팝": 4157,
      "팟": 4158,
      "팠": 4159,
      "팡": 4160,
      "팥": 4161,
      "패": 4162,
      "팩": 4163,
      "팬": 4164,
      "팰": 4165,
      "팸": 4166,
      "팹": 4167,
      "팻": 4168,
      "팽": 4169,
      "퍼": 4170,
      "퍽": 4171,
      "펀": 4172,
      "펄": 4173,
      "펌": 4174,
      "펍": 4175,
      "펐": 4176,
      "펑": 4177,
      "페": 4178,
      "펙": 4179,
      "펜": 4180,
      "펠": 4181,
      "펨": 4182,
      "펩": 4183,
      "펫": 4184,
      "펭": 4185,
      "펴": 4186,
      "편": 4187,
      "펼": 4188,
      "폄": 4189,
      "폈": 4190,
      "평": 4191,
      "폐": 4192,
      "포": 4193,
      "폭": 4194,
      "폰": 4195,
      "폴": 4196,
      "폼": 4197,
      "폿": 4198,
      "퐁": 4199,
      "푀": 4200,
      "표": 4201,
      "푯": 4202,
      "푸": 4203,
      "푹": 4204,
      "푼": 4205,
      "풀": 4206,
      "품": 4207,
      "풋": 4208,
      "풍": 4209,
      "퓌": 4210,
      "퓨": 4211,
      "퓰": 4212,
      "퓸": 4213,
      "프": 4214,
      "픈": 4215,
      "플": 4216,
      "픔": 4217,
      "픕": 4218,
      "피": 4219,
      "픽": 4220,
      "핀": 4221,
      "필": 4222,
      "핌": 4223,
      "핍": 4224,
      "핏": 4225,
      "핑": 4226,
      "하": 4227,
      "학": 4228,
      "한": 4229,
      "할": 4230,
      "핥": 4231,
      "함": 4232,
      "합": 4233,
      "핫": 4234,
      "항": 4235,
      "핳": 4236,
      "해": 4237,
      "핵": 4238,
      "핸": 4239,
      "핼": 4240,
      "햄": 4241,
      "햅": 4242,
      "햇": 4243,
      "했": 4244,
      "행": 4245,
      "햐": 4246,
      "향": 4247,
      "허": 4248,
      "헉": 4249,
      "헌": 4250,
      "헐": 4251,
      "험": 4252,
      "헙": 4253,
      "헛": 4254,
      "헝": 4255,
      "헤": 4256,
      "헥": 4257,
      "헨": 4258,
      "헬": 4259,
      "헴": 4260,
      "헵": 4261,
      "헷": 4262,
      "헹": 4263,
      "헿": 4264,
      "혀": 4265,
      "혁": 4266,
      "현": 4267,
      "혈": 4268,
      "혐": 4269,
      "협": 4270,
      "혓": 4271,
      "혔": 4272,
      "형": 4273,
      "혜": 4274,
      "호": 4275,
      "혹": 4276,
      "혼": 4277,
      "홀": 4278,
      "홈": 4279,
      "홉": 4280,
      "홋": 4281,
      "홍": 4282,
      "홑": 4283,
      "화": 4284,
      "확": 4285,
      "환": 4286,
      "활": 4287,
      "홧": 4288,
      "황": 4289,
      "홰": 4290,
      "홱": 4291,
      "횃": 4292,
      "회": 4293,
      "획": 4294,
      "횟": 4295,
      "횡": 4296,
      "효": 4297,
      "후": 4298,
      "훅": 4299,
      "훈": 4300,
      "훌": 4301,
      "훑": 4302,
      "훔": 4303,
      "훗": 4304,
      "훙": 4305,
      "훠": 4306,
      "훤": 4307,
      "훨": 4308,
      "훼": 4309,
      "휀": 4310,
      "휑": 4311,
      "휘": 4312,
      "휙": 4313,
      "휜": 4314,
      "휠": 4315,
      "휩": 4316,
      "휴": 4317,
      "휼": 4318,
      "흄": 4319,
      "흉": 4320,
      "흐": 4321,
      "흑": 4322,
      "흔": 4323,
      "흘": 4324,
      "흙": 4325,
      "흠": 4326,
      "흡": 4327,
      "흥": 4328,
      "흩": 4329,
      "희": 4330,
      "흰": 4331,
      "히": 4332,
      "힉": 4333,
      "힌": 4334,
      "힐": 4335,
      "힘": 4336,
      "힙": 4337,
      "힛": 4338,
      "힝": 4339,
      "金": 4340,
      "羅": 4341,
      "樂": 4342,
      "落": 4343,
      "亂": 4344,
      "勞": 4345,
      "盧": 4346,
      "老": 4347,
      "魯": 4348,
      "論": 4349,
      "樂": 4350,
      "復": 4351,
      "不": 4352,
      "沈": 4353,
      "兩": 4354,
      "梁": 4355,
      "良": 4356,
      "呂": 4357,
      "女": 4358,
      "歷": 4359,
      "年": 4360,
      "聯": 4361,
      "連": 4362,
      "列": 4363,
      "烈": 4364,
      "靈": 4365,
      "禮": 4366,
      "遼": 4367,
      "龍": 4368,
      "劉": 4369,
      "柳": 4370,
      "流": 4371,
      "類": 4372,
      "六": 4373,
      "陸": 4374,
      "律": 4375,
      "利": 4376,
      "李": 4377,
      "理": 4378,
      "離": 4379,
      "林": 4380,
      "臨": 4381,
      "立": 4382,
      "狀": 4383,
      "茶": 4384,
      "宅": 4385,
      "️": 4386,
      "！": 4387,
      "＂": 4388,
      "％": 4389,
      "＆": 4390,
      "＇": 4391,
      "（": 4392,
      "）": 4393,
      "＊": 4394,
      "＋": 4395,
      "，": 4396,
      "－": 4397,
      "．": 4398,
      "／": 4399,
      "：": 4400,
      "；": 4401,
      "＜": 4402,
      "＝": 4403,
      "＞": 4404,
      "？": 4405,
      "［": 4406,
      "］": 4407,
      "＿": 4408,
      "ｇ": 4409,
      "ｍ": 4410,
      "ｔ": 4411,
      "｜": 4412,
      "～": 4413,
      "｢": 4414,
      "｣": 4415,
      "･": 4416,
      "￣": 4417,
      "￦": 4418,
      "🌟": 4419,
      "🌸": 4420,
      "🌼": 4421,
      "🌿": 4422,
      "🍓": 4423,
      "🍞": 4424,
      "🍫": 4425,
      "🍳": 4426,
      "🍴": 4427,
      "🎁": 4428,
      "🎉": 4429,
      "🎶": 4430,
      "🏃": 4431,
      "🏻": 4432,
      "🏼": 4433,
      "🐶": 4434,
      "🐷": 4435,
      "🐽": 4436,
      "👀": 4437,
      "👈": 4438,
      "👉": 4439,
      "👊": 4440,
      "👋": 4441,
      "👌": 4442,
      "👍": 4443,
      "👏": 4444,
      "👧": 4445,
      "👩": 4446,
      "👶": 4447,
      "💃": 4448,
      "💓": 4449,
      "💕": 4450,
      "💖": 4451,
      "💗": 4452,
      "💙": 4453,
      "💚": 4454,
      "💛": 4455,
      "💜": 4456,
      "💦": 4457,
      "💪": 4458,
      "📌": 4459,
      "🔥": 4460,
      "🖤": 4461,
      "😀": 4462,
      "😁": 4463,
      "😂": 4464,
      "😃": 4465,
      "😄": 4466,
      "😅": 4467,
      "😆": 4468,
      "😉": 4469,
      "😊": 4470,
      "😋": 4471,
      "😌": 4472,
      "😍": 4473,
      "😎": 4474,
      "😏": 4475,
      "😖": 4476,
      "😘": 4477,
      "😙": 4478,
      "😚": 4479,
      "😛": 4480,
      "😝": 4481,
      "😢": 4482,
      "😥": 4483,
      "😭": 4484,
      "😱": 4485,
      "😳": 4486,
      "🙂": 4487,
      "🙄": 4488,
      "🙆": 4489,
      "🙈": 4490,
      "🙊": 4491,
      "🙋": 4492,
      "🙌": 4493,
      "🙏": 4494,
      "🤔": 4495,
      "🤗": 4496,
      "🤣": 4497,
      "🤤": 4498,
      "🤦": 4499,
      "🤩": 4500,
      "🤭": 4501,
      "🥄": 4502,
      "🥰": 4503,
      "🧡": 4504,
      "##천": 4505,
      "##영": 4506,
      "##미": 4507,
      "##u": 4508,
      "##b": 4509,
      "##r": 4510,
      "##i": 4511,
      "##ㆍ": 4512,
      "##ㄷ": 4513,
      "##광": 4514,
      "##유": 4515,
      "##a": 4516,
      "##s": 4517,
      "##l": 4518,
      "##e": 4519,
      "##x": 4520,
      "##ュ": 4521,
      "##ウ": 4522,
      "##チ": 4523,
      "##에": 4524,
      "##버": 4525,
      "##플": 4526,
      "##렉": 4527,
      "##스": 4528,
      "##C": 4529,
      "##o": 4530,
      "##y": 4531,
      "##봉": 4532,
      "##휘": 4533,
      "##이": 4534,
      "##사": 4535,
      "##상": 4536,
      "##게": 4537,
      "##도": 4538,
      "##ナ": 4539,
      "##ム": 4540,
      "##ン": 4541,
      "##о": 4542,
      "##и": 4543,
      "##c": 4544,
      "##Q": 4545,
      "##청": 4546,
      "##대": 4547,
      "##김": 4548,
      "##규": 4549,
      "##창": 4550,
      "##베": 4551,
      "##그": 4552,
      "##ㅠ": 4553,
      "##하": 4554,
      "##루": 4555,
      "##가": 4556,
      "##보": 4557,
      "##육": 4558,
      "##시": 4559,
      "##설": 4560,
      "##O": 4561,
      "##P": 4562,
      "##B": 4563,
      "##K": 4564,
      "##A": 4565,
      "##리": 4566,
      "##얼": 4567,
      "##즘": 4568,
      "##실": 4569,
      "##증": 4570,
      "##란": 4571,
      "##t": 4572,
      "##ㅎ": 4573,
      "##감": 4574,
      "##합": 4575,
      "##니": 4576,
      "##다": 4577,
      "##종": 4578,
      "##효": 4579,
      "##표": 4580,
      "##m": 4581,
      "##n": 4582,
      "##d": 4583,
      "##번": 4584,
      "##경": 4585,
      "##중": 4586,
      "##용": 4587,
      "##자": 4588,
      "##와": 4589,
      "##p": 4590,
      "##죽": 4591,
      "##댔": 4592,
      "##v": 4593,
      "##h": 4594,
      "##N": 4595,
      "##본": 4596,
      "##원": 4597,
      "##만": 4598,
      "##음": 4599,
      "##료": 4600,
      "##f": 4601,
      "##k": 4602,
      "##허": 4603,
      "##우": 4604,
      "##절": 4605,
      "##소": 4606,
      "##비": 4607,
      "##후": 4608,
      "##생": 4609,
      "##의": 4610,
      "##통": 4611,
      "##う": 4612,
      "##し": 4613,
      "##て": 4614,
      "##어": 4615,
      "##체": 4616,
      "##불": 4617,
      "##임": 4618,
      "##금": 4619,
      "##을": 4620,
      "##춘": 4621,
      "##석": 4622,
      "##확": 4623,
      "##장": 4624,
      "##되": 4625,
      "##g": 4626,
      "##z": 4627,
      "##공": 4628,
      "##제": 4629,
      "##를": 4630,
      "##병": 4631,
      "##휴": 4632,
      "##간": 4633,
      "##데": 4634,
      "##부": 4635,
      "##민": 4636,
      "##단": 4637,
      "##질": 4638,
      "##취": 4639,
      "##철": 4640,
      "##화": 4641,
      "##탈": 4642,
      "##테": 4643,
      "##로": 4644,
      "##ã": 4645,
      "##호": 4646,
      "##주": 4647,
      "##프": 4648,
      "##랑": 4649,
      "##더": 4650,
      "##L": 4651,
      "##E": 4652,
      "##G": 4653,
      "##I": 4654,
      "##기": 4655,
      "##ㅋ": 4656,
      "##언": 4657,
      "##고": 4658,
      "##마": 4659,
      "##워": 4660,
      "##진": 4661,
      "##짜": 4662,
      "##S": 4663,
      "##풀": 4664,
      "##토": 4665,
      "##박": 4666,
      "##선": 4667,
      "##알": 4668,
      "##라": 4669,
      "##결": 4670,
      "##키": 4671,
      "##요": 4672,
      "##인": 4673,
      "##품": 4674,
      "##ц": 4675,
      "##е": 4676,
      "##н": 4677,
      "##с": 4678,
      "##к": 4679,
      "##논": 4680,
      "##두": 4681,
      "##출": 4682,
      "##근": 4683,
      "##람": 4684,
      "##입": 4685,
      "##ь": 4686,
      "##류": 4687,
      "##타": 4688,
      "##파": 4689,
      "##메": 4690,
      "##크": 4691,
      "##💕": 4692,
      "##관": 4693,
      "##분": 4694,
      "##야": 4695,
      "##느": 4696,
      "##낌": 4697,
      "##히": 4698,
      "##학": 4699,
      "##정": 4700,
      "##곤": 4701,
      "##R": 4702,
      "##D": 4703,
      "##M": 4704,
      "##а": 4705,
      "##в": 4706,
      "##р": 4707,
      "##л": 4708,
      "##현": 4709,
      "##구": 4710,
      "##속": 4711,
      "##회": 4712,
      "##계": 4713,
      "##법": 4714,
      "##률": 4715,
      "##れ": 4716,
      "##な": 4717,
      "##い": 4718,
      "##명": 4719,
      "##T": 4720,
      "##w": 4721,
      "##ö": 4722,
      "##심": 4723,
      "##き": 4724,
      "##み": 4725,
      "##교": 4726,
      "##성": 4727,
      "##당": 4728,
      "##으": 4729,
      "##섬": 4730,
      "##긴": 4731,
      "##최": 4732,
      "##홍": 4733,
      "##카": 4734,
      "##흐": 4735,
      "##족": 4736,
      "##르": 4737,
      "##즈": 4738,
      "##マ": 4739,
      "##ノ": 4740,
      "##일": 4741,
      "##ド": 4742,
      "##キ": 4743,
      "##ッ": 4744,
      "##록": 4745,
      "##늘": 4746,
      "##채": 4747,
      "##백": 4748,
      "##추": 4749,
      "##판": 4750,
      "##매": 4751,
      "##톡": 4752,
      "##는": 4753,
      "##해": 4754,
      "##건": 4755,
      "##강": 4756,
      "##험": 4757,
      "##등": 4758,
      "##ㅂ": 4759,
      "##지": 4760,
      "##산": 4761,
      "##월": 4762,
      "##엔": 4763,
      "##안": 4764,
      "##운": 4765,
      "##수": 4766,
      "##동": 4767,
      "##남": 4768,
      "##은": 4769,
      "##행": 4770,
      "##잔": 4771,
      "##펑": 4772,
      "##나": 4773,
      "##눔": 4774,
      "##책": 4775,
      "##전": 4776,
      "##목": 4777,
      "##값": 4778,
      "##년": 4779,
      "##별": 4780,
      "##서": 4781,
      "##린": 4782,
      "##H": 4783,
      "##F": 4784,
      "##무": 4785,
      "##노": 4786,
      "##わ": 4787,
      "##м": 4788,
      "##т": 4789,
      "##예": 4790,
      "##술": 4791,
      "##복": 4792,
      "##J": 4793,
      "##X": 4794,
      "##한": 4795,
      "##0": 4796,
      "##7": 4797,
      "##2": 4798,
      "##포": 4799,
      "##탄": 4800,
      "##레": 4801,
      "##권": 4802,
      "##융": 4803,
      "##외": 4804,
      "##디": 4805,
      "##업": 4806,
      "##익": 4807,
      "##칙": 4808,
      "##협": 4809,
      "##j": 4810,
      "##들": 4811,
      "##식": 4812,
      "##냈": 4813,
      "##형": 4814,
      "##례": 4815,
      "##핵": 4816,
      "##태": 4817,
      "##맹": 4818,
      "##ⓐ": 4819,
      "##양": 4820,
      "##평": 4821,
      "##뽀": 4822,
      "##오": 4823,
      "##옹": 4824,
      "##V": 4825,
      "##치": 4826,
      "##1": 4827,
      "##5": 4828,
      "##6": 4829,
      "##ㅅ": 4830,
      "##ㄹ": 4831,
      "##삽": 4832,
      "##벌": 4833,
      "##ㅇ": 4834,
      "##9": 4835,
      "##밀": 4836,
      "##좌": 4837,
      "##훈": 4838,
      "##Y": 4839,
      "##U": 4840,
      "##재": 4841,
      "##배": 4842,
      "##브": 4843,
      "##급": 4844,
      "##징": 4845,
      "##적": 4846,
      "##が": 4847,
      "##め": 4848,
      "##せ": 4849,
      "##ま": 4850,
      "##に": 4851,
      "##저": 4852,
      "##력": 4853,
      "##초": 4854,
      "##연": 4855,
      "##축": 4856,
      "##q": 4857,
      "##ト": 4858,
      "##과": 4859,
      "##층": 4860,
      "##Z": 4861,
      "##í": 4862,
      "##튼": 4863,
      "##범": 4864,
      "##Ⅰ": 4865,
      "##ㅜ": 4866,
      "##귀": 4867,
      "##여": 4868,
      "##국": 4869,
      "##옥": 4870,
      "##역": 4871,
      "##조": 4872,
      "##거": 4873,
      "##립": 4874,
      "##신": 4875,
      "##갑": 4876,
      "##론": 4877,
      "##격": 4878,
      "##려": 4879,
      "##갔": 4880,
      "##🏻": 4881,
      "##👍": 4882,
      "##💃": 4883,
      "##었": 4884,
      "##누": 4885,
      "##아": 4886,
      "##량": 4887,
      "##г": 4888,
      "##д": 4889,
      "##바": 4890,
      "##희": 4891,
      "##ㅏ": 4892,
      "##개": 4893,
      "##혁": 4894,
      "##델": 4895,
      "##애": 4896,
      "##른": 4897,
      "##집": 4898,
      "##갈": 4899,
      "##때": 4900,
      "##먹": 4901,
      "##던": 4902,
      "##8": 4903,
      "##3": 4904,
      "##객": 4905,
      "##열": 4906,
      "##래": 4907,
      "##활": 4908,
      "##능": 4909,
      "##덕": 4910,
      "##총": 4911,
      "##모": 4912,
      "##승": 4913,
      "##트": 4914,
      "##킹": 4915,
      "##싯": 4916,
      "##ひ": 4917,
      "##こ": 4918,
      "##쓰": 4919,
      "##깅": 4920,
      "##볼": 4921,
      "##러": 4922,
      "##ㅍ": 4923,
      "##페": 4924,
      "##티": 4925,
      "##내": 4926,
      "##택": 4927,
      "##했": 4928,
      "##변": 4929,
      "##악": 4930,
      "##굴": 4931,
      "##덮": 4932,
      "##닝": 4933,
      "##듯": 4934,
      "##습": 4935,
      "##윤": 4936,
      "##섭": 4937,
      "##따": 4938,
      "##쟈": 4939,
      "##씨": 4940,
      "##줘": 4941,
      "##각": 4942,
      "##령": 4943,
      "##퐁": 4944,
      "##항": 4945,
      "##세": 4946,
      "##흘": 4947,
      "##팽": 4948,
      "##랙": 4949,
      "##W": 4950,
      "##군": 4951,
      "##발": 4952,
      "##드": 4953,
      "##말": 4954,
      "##락": 4955,
      "##ㅓ": 4956,
      "##ㅗ": 4957,
      "##흥": 4958,
      "##웃": 4959,
      "##겨": 4960,
      "##념": 4961,
      "##코": 4962,
      "##4": 4963,
      "##살": 4964,
      "##방": 4965,
      "##차": 4966,
      "##편": 4967,
      "##문": 4968,
      "##タ": 4969,
      "##フ": 4970,
      "##ー": 4971,
      "##득": 4972,
      "##농": 4973,
      "##망": 4974,
      "##シ": 4975,
      "##テ": 4976,
      "##ィ": 4977,
      "##ル": 4978,
      "##위": 4979,
      "##칩": 4980,
      "##샷": 4981,
      "##몰": 4982,
      "##독": 4983,
      "##슨": 4984,
      "##엘": 4985,
      "##씁": 4986,
      "##쓸": 4987,
      "##달": 4988,
      "##깍": 4989,
      "##é": 4990,
      "##풍": 4991,
      "##있": 4992,
      "##필": 4993,
      "##삼": 4994,
      "##뚜": 4995,
      "##처": 4996,
      "##멱": 4997,
      "##물": 4998,
      "##큐": 4999,
      "##찬": 5000,
      "##죄": 5001,
      "##혀": 5002,
      "##렸": 5003,
      "##직": 5004,
      "##글": 5005,
      "##グ": 5006,
      "##ク": 5007,
      "##난": 5008,
      "##っ": 5009,
      "##た": 5010,
      "##엽": 5011,
      "##챗": 5012,
      "##벽": 5013,
      "##팩": 5014,
      "##약": 5015,
      "##픈": 5016,
      "##ā": 5017,
      "##👊": 5018,
      "##ô": 5019,
      "##싶": 5020,
      "##받": 5021,
      "##궁": 5022,
      "##앙": 5023,
      "##よ": 5024,
      "##룡": 5025,
      "##너": 5026,
      "##클": 5027,
      "##몽": 5028,
      "##쳐": 5029,
      "##온": 5030,
      "##я": 5031,
      "##ラ": 5032,
      "##ロ": 5033,
      "##イ": 5034,
      "##환": 5035,
      "##북": 5036,
      "##까": 5037,
      "##ㅁ": 5038,
      "##ㅊ": 5039,
      "##슬": 5040,
      "##런": 5041,
      "##면": 5042,
      "##몬": 5043,
      "##힘": 5044,
      "##혜": 5045,
      "##춰": 5046,
      "##밥": 5047,
      "##ó": 5048,
      "##련": 5049,
      "##측": 5050,
      "##딩": 5051,
      "##균": 5052,
      "##갰": 5053,
      "##막": 5054,
      "##걸": 5055,
      "##댑": 5056,
      "##응": 5057,
      "##왕": 5058,
      "##겔": 5059,
      "##핑": 5060,
      "##손": 5061,
      "##반": 5062,
      "##닉": 5063,
      "##획": 5064,
      "##맛": 5065,
      "##냄": 5066,
      "##새": 5067,
      "##순": 5068,
      "##렬": 5069,
      "##렀": 5070,
      "##특": 5071,
      "##송": 5072,
      "##럽": 5073,
      "##꼬": 5074,
      "##놔": 5075,
      "##블": 5076,
      "##렌": 5077,
      "##완": 5078,
      "##충": 5079,
      "##녹": 5080,
      "##탐": 5081,
      "##참": 5082,
      "##짝": 5083,
      "##ü": 5084,
      "##픽": 5085,
      "##뚝": 5086,
      "##퓨": 5087,
      "##날": 5088,
      "##봐": 5089,
      "##졍": 5090,
      "##덩": 5091,
      "##й": 5092,
      "##푸": 5093,
      "##존": 5094,
      "##콩": 5095,
      "##깨": 5096,
      "##터": 5097,
      "##암": 5098,
      "##검": 5099,
      "##ブ": 5100,
      "##웁": 5101,
      "##셔": 5102,
      "##칠": 5103,
      "##끼": 5104,
      "##츠": 5105,
      "##ㅡ": 5106,
      "##у": 5107,
      "##숙": 5108,
      "##든": 5109,
      "##흉": 5110,
      "##뿐": 5111,
      "##で": 5112,
      "##す": 5113,
      "##쿠": 5114,
      "##견": 5115,
      "##à": 5116,
      "##함": 5117,
      "##투": 5118,
      "##탁": 5119,
      "##웅": 5120,
      "##싱": 5121,
      "##빅": 5122,
      "##듀": 5123,
      "##올": 5124,
      "##É": 5125,
      "##ば": 5126,
      "##졌": 5127,
      "##덫": 5128,
      "##림": 5129,
      "##닥": 5130,
      "##흔": 5131,
      "##틸": 5132,
      "##콜": 5133,
      "##퇴": 5134,
      "##뇨": 5135,
      "##💜": 5136,
      "##👏": 5137,
      "##ч": 5138,
      "##피": 5139,
      "##뒷": 5140,
      "##찰": 5141,
      "##네": 5142,
      "##못": 5143,
      "##궈": 5144,
      "##캐": 5145,
      "##둔": 5146,
      "##혼": 5147,
      "##캬": 5148,
      "##럼": 5149,
      "##ш": 5150,
      "##흠": 5151,
      "##싸": 5152,
      "##♪": 5153,
      "##♬": 5154,
      "##♩": 5155,
      "##😆": 5156,
      "##님": 5157,
      "##か": 5158,
      "##쿨": 5159,
      "##헌": 5160,
      "##ソ": 5161,
      "##リ": 5162,
      "##は": 5163,
      "##の": 5164,
      "##ㅌ": 5165,
      "##ᆞ": 5166,
      "##ち": 5167,
      "##ゃ": 5168,
      "##ズ": 5169,
      "##넷": 5170,
      "##욬": 5171,
      "##율": 5172,
      "##퍼": 5173,
      "##ä": 5174,
      "##딱": 5175,
      "##デ": 5176,
      "##ス": 5177,
      "##할": 5178,
      "##왔": 5179,
      "##×": 5180,
      "##준": 5181,
      "##잡": 5182,
      "##며": 5183,
      "##ャ": 5184,
      "##떼": 5185,
      "##머": 5186,
      "##レ": 5187,
      "##템": 5188,
      "##넣": 5189,
      "##곗": 5190,
      "##죠": 5191,
      "##끔": 5192,
      "##첩": 5193,
      "##찔": 5194,
      "##략": 5195,
      "##ß": 5196,
      "##륙": 5197,
      "##붕": 5198,
      "##🐶": 5199,
      "##릴": 5200,
      "##쵸": 5201,
      "##줄": 5202,
      "##롭": 5203,
      "##х": 5204,
      "##п": 5205,
      "##ㅈ": 5206,
      "##놓": 5207,
      "##쟁": 5208,
      "##랄": 5209,
      "##렐": 5210,
      "##욕": 5211,
      "##눈": 5212,
      "##🍞": 5213,
      "##랜": 5214,
      "##👧": 5215,
      "##👩": 5216,
      "##커": 5217,
      "##뮤": 5218,
      "##쉬": 5219,
      "##텐": 5220,
      "##왈": 5221,
      "##담": 5222,
      "##뚠": 5223,
      "##ы": 5224,
      "##つ": 5225,
      "##숭": 5226,
      "##팅": 5227,
      "##궤": 5228,
      "##답": 5229,
      "##작": 5230,
      "##앤": 5231,
      "##돼": 5232,
      "##꽥": 5233,
      "##향": 5234,
      "##압": 5235,
      "##빙": 5236,
      "##ジ": 5237,
      "##😄": 5238,
      "##🤣": 5239,
      "##짓": 5240,
      "##폭": 5241,
      "##넛": 5242,
      "##벤": 5243,
      "##ツ": 5244,
      "##エ": 5245,
      "##긔": 5246,
      "##팔": 5247,
      "##싹": 5248,
      "##🌼": 5249,
      "##ㄴ": 5250,
      "##팀": 5251,
      "##틴": 5252,
      "##낭": 5253,
      "##깎": 5254,
      "##맞": 5255,
      "##췄": 5256,
      "##앰": 5257,
      "##헬": 5258,
      "##륵": 5259,
      "##돈": 5260,
      "##깡": 5261,
      "##돌": 5262,
      "##릇": 5263,
      "##🌿": 5264,
      "##ж": 5265,
      "##덴": 5266,
      "##렁": 5267,
      "##귄": 5268,
      "##떡": 5269,
      "##껴": 5270,
      "##져": 5271,
      "##ㅔ": 5272,
      "##슈": 5273,
      "##케": 5274,
      "##골": 5275,
      "##끄": 5276,
      "##😂": 5277,
      "##💚": 5278,
      "##점": 5279,
      "##お": 5280,
      "##も": 5281,
      "##じ": 5282,
      "##션": 5283,
      "##り": 5284,
      "##と": 5285,
      "##さ": 5286,
      "##ん": 5287,
      "##あ": 5288,
      "##액": 5289,
      "##닛": 5290,
      "##폰": 5291,
      "##쇠": 5292,
      "##뇌": 5293,
      "##팬": 5294,
      "##삶": 5295,
      "##ケ": 5296,
      "##웨": 5297,
      "##극": 5298,
      "##뷰": 5299,
      "##ら": 5300,
      "##く": 5301,
      "##샹": 5302,
      "##쇄": 5303,
      "##맥": 5304,
      "##ㄱ": 5305,
      "##렷": 5306,
      "##○": 5307,
      "##쏘": 5308,
      "##굿": 5309,
      "##탕": 5310,
      "##춤": 5311,
      "##랫": 5312,
      "##폐": 5313,
      "##ㅣ": 5314,
      "##멜": 5315,
      "##낙": 5316,
      "##ミ": 5317,
      "##ア": 5318,
      "##🙄": 5319,
      "##😭": 5320,
      "##る": 5321,
      "##쪼": 5322,
      "##롬": 5323,
      "##얌": 5324,
      "##침": 5325,
      "##뭐": 5326,
      "##왜": 5327,
      "##묵": 5328,
      "##븐": 5329,
      "##색": 5330,
      "##뜨": 5331,
      "##짠": 5332,
      "##🎉": 5333,
      "##길": 5334,
      "##뇰": 5335,
      "##쥐": 5336,
      "##똥": 5337,
      "##찼": 5338,
      "##렛": 5339,
      "##ç": 5340,
      "##햄": 5341,
      "##밑": 5342,
      "##캠": 5343,
      "##앗": 5344,
      "##엿": 5345,
      "##밭": 5346,
      "##끓": 5347,
      "##봄": 5348,
      "##モ": 5349,
      "##コ": 5350,
      "##ι": 5351,
      "##α": 5352,
      "##σ": 5353,
      "##τ": 5354,
      "##ω": 5355,
      "##끌": 5356,
      "##뛸": 5357,
      "##척": 5358,
      "##됬": 5359,
      "##삐": 5360,
      "##룻": 5361,
      "##펜": 5362,
      "##밤": 5363,
      "##흑": 5364,
      "##갱": 5365,
      "##솜": 5366,
      "##룸": 5367,
      "##ل": 5368,
      "##و": 5369,
      "##😁": 5370,
      "##😊": 5371,
      "##з": 5372,
      "##뻐": 5373,
      "##툴": 5374,
      "##킷": 5375,
      "##갤": 5376,
      "##💛": 5377,
      "##ダ": 5378,
      "##カ": 5379,
      "##횡": 5380,
      "##잉": 5381,
      "##걀": 5382,
      "##😚": 5383,
      "##황": 5384,
      "##염": 5385,
      "##ε": 5386,
      "##ρ": 5387,
      "##γ": 5388,
      "##ς": 5389,
      "##첨": 5390,
      "##💖": 5391,
      "##ビ": 5392,
      "##オ": 5393,
      "##넴": 5394,
      "##띤": 5395,
      "##そ": 5396,
      "##킨": 5397,
      "##꺽": 5398,
      "##밍": 5399,
      "##б": 5400,
      "##셨": 5401,
      "##옌": 5402,
      "##냠": 5403,
      "##앎": 5404,
      "##냐": 5405,
      "##였": 5406,
      "##졸": 5407,
      "##⑶": 5408,
      "##울": 5409,
      "##곽": 5410,
      "##엇": 5411,
      "##닐": 5412,
      "##퉁": 5413,
      "##늬": 5414,
      "##펀": 5415,
      "##윈": 5416,
      "##끈": 5417,
      "##🌸": 5418,
      "##🍴": 5419,
      "##댐": 5420,
      "##떠": 5421,
      "##걱": 5422,
      "##뉴": 5423,
      "##녀": 5424,
      "##턴": 5425,
      "##꾸": 5426,
      "##솔": 5427,
      "##억": 5428,
      "##댕": 5429,
      "##숄": 5430,
      "##뎅": 5431,
      "##콰": 5432,
      "##닭": 5433,
      "##è": 5434,
      "##둬": 5435,
      "##겟": 5436,
      "##🙏": 5437,
      "##켰": 5438,
      "##빗": 5439,
      "##욱": 5440,
      "##넬": 5441,
      "##횟": 5442,
      "##쁠": 5443,
      "##켄": 5444,
      "##훼": 5445,
      "##촌": 5446,
      "##け": 5447,
      "##え": 5448,
      "##콘": 5449,
      "##낸": 5450,
      "##サ": 5451,
      "##＞": 5452,
      "##ェ": 5453,
      "##꺅": 5454,
      "##꽃": 5455,
      "##왤": 5456,
      "##찌": 5457,
      "##름": 5458,
      "##듭": 5459,
      "##뜰": 5460,
      "##や": 5461,
      "##ろ": 5462,
      "##を": 5463,
      "##헨": 5464,
      "##빌": 5465,
      "##놀": 5466,
      "##셉": 5467,
      "##욜": 5468,
      "##ㅐ": 5469,
      "##롯": 5470,
      "##쨔": 5471,
      "##긍": 5472,
      "##핍": 5473,
      "##먼": 5474,
      "##엄": 5475,
      "##랴": 5476,
      "##겁": 5477,
      "##좋": 5478,
      "##탱": 5479,
      "##읍": 5480,
      "##움": 5481,
      "##틀": 5482,
      "##ㅆ": 5483,
      "##칭": 5484,
      "##Ⅱ": 5485,
      "##쾌": 5486,
      "##썹": 5487,
      "##🍳": 5488,
      "##랗": 5489,
      "##컴": 5490,
      "##빠": 5491,
      "##널": 5492,
      "##룩": 5493,
      "##셈": 5494,
      "##쯔": 5495,
      "##릭": 5496,
      "##같": 5497,
      "##뛰": 5498,
      "##딴": 5499,
      "##쩍": 5500,
      "##링": 5501,
      "##쯤": 5502,
      "##ニ": 5503,
      "##긋": 5504,
      "##납": 5505,
      "##옛": 5506,
      "##접": 5507,
      "##촉": 5508,
      "##얄": 5509,
      "##껏": 5510,
      "##💙": 5511,
      "##닙": 5512,
      "##쭉": 5513,
      "##뼈": 5514,
      "##셰": 5515,
      "##텔": 5516,
      "##캇": 5517,
      "##홀": 5518,
      "##벼": 5519,
      "##잼": 5520,
      "##빛": 5521,
      "##킬": 5522,
      "##센": 5523,
      "##또": 5524,
      "##빈": 5525,
      "##친": 5526,
      "##쩌": 5527,
      "##캣": 5528,
      "##냥": 5529,
      "##∼": 5530,
      "##붐": 5531,
      "##엥": 5532,
      "##찹": 5533,
      "##쌀": 5534,
      "##짱": 5535,
      "##컬": 5536,
      "##높": 5537,
      "##😢": 5538,
      "##늑": 5539,
      "##꽈": 5540,
      "##😱": 5541,
      "##없": 5542,
      "##🤩": 5543,
      "##된": 5544,
      "##써": 5545,
      "##묘": 5546,
      "##겻": 5547,
      "##롱": 5548,
      "##뽕": 5549,
      "##셋": 5550,
      "##맵": 5551,
      "##볶": 5552,
      "##꽁": 5553,
      "##◈": 5554,
      "##맘": 5555,
      "##넥": 5556,
      "##😀": 5557,
      "##뒤": 5558,
      "##헝": 5559,
      "##폴": 5560,
      "##넨": 5561,
      "##옷": 5562,
      "##곡": 5563,
      "##🧡": 5564,
      "##멕": 5565,
      "##깃": 5566,
      "##핀": 5567,
      "##흡": 5568,
      "##삥": 5569,
      "##팎": 5570,
      "##💪": 5571,
      "##착": 5572,
      "##릉": 5573,
      "##뉘": 5574,
      "##🍓": 5575,
      "##땐": 5576,
      "##콕": 5577,
      "##왁": 5578,
      "##ν": 5579,
      "##ο": 5580,
      "##κ": 5581,
      "##η": 5582,
      "##첼": 5583,
      "##녕": 5584,
      "##톤": 5585,
      "##😘": 5586,
      "##쎄": 5587,
      "##힌": 5588,
      "##십": 5589,
      "##😝": 5590,
      "##팡": 5591,
      "##혈": 5592,
      "##잘": 5593,
      "##늄": 5594,
      "##핫": 5595,
      "##킴": 5596,
      "##몸": 5597,
      "##ê": 5598,
      "##だ": 5599,
      "##혹": 5600,
      "##슴": 5601,
      "##둘": 5602,
      "##뿌": 5603,
      "##🏃": 5604,
      "##윅": 5605,
      "##쩜": 5606,
      "##켜": 5607,
      "##쌍": 5608,
      "##쪄": 5609,
      "##멘": 5610,
      "##ョ": 5611,
      "##😍": 5612,
      "##ｍ": 5613,
      "##쥬": 5614,
      "##힐": 5615,
      "##쉴": 5616,
      "##냉": 5617,
      "##패": 5618,
      "##젠": 5619,
      "##▼": 5620,
      "##뤼": 5621,
      "##잇": 5622,
      "##쳤": 5623,
      "##홋": 5624,
      "##텀": 5625,
      "##뱀": 5626,
      "##겼": 5627,
      "##콤": 5628,
      "##샤": 5629,
      "##넸": 5630,
      "##💦": 5631,
      "##넹": 5632,
      "##켓": 5633,
      "##쫀": 5634,
      "##헐": 5635,
      "##랭": 5636,
      "##몇": 5637,
      "##쁘": 5638,
      "##숫": 5639,
      "##괜": 5640,
      "##깔": 5641,
      "##붉": 5642,
      "##삭": 5643,
      "##엌": 5644,
      "##욥": 5645,
      "##핳": 5646,
      "##퀴": 5647,
      "##③": 5648,
      "##슷": 5649,
      "##돕": 5650,
      "##맨": 5651,
      "##옴": 5652,
      "##ᆡ": 5653,
      "##앜": 5654,
      "##엉": 5655,
      "##뇽": 5656,
      "##벨": 5657,
      "##밌": 5658,
      "##빼": 5659,
      "##줌": 5660,
      "##킥": 5661,
      "##랍": 5662,
      "##헿": 5663,
      "##쉼": 5664,
      "##탑": 5665,
      "##쇼": 5666,
      "##캔": 5667,
      "##🐷": 5668,
      "##릎": 5669,
      "##촬": 5670,
      "##딘": 5671,
      "##잭": 5672,
      "##칼": 5673,
      "##헛": 5674,
      "##륜": 5675,
      "##혓": 5676,
      "##뱅": 5677,
      "##쑥": 5678,
      "##쌈": 5679,
      "##ú": 5680,
      "##첫": 5681,
      "##젊": 5682,
      "##햇": 5683,
      "##롤": 5684,
      "##귈": 5685,
      "##ガ": 5686,
      "##プ": 5687,
      "##핏": 5688,
      "##뭇": 5689,
      "##쌤": 5690,
      "##딸": 5691,
      "##솟": 5692,
      "##π": 5693,
      "##놨": 5694,
      "##캉": 5695,
      "##섞": 5696,
      "##둥": 5697,
      "##앨": 5698,
      "##곧": 5699,
      "##릿": 5700,
      "##덱": 5701,
      "##뫼": 5702,
      "##쫓": 5703,
      "##짐": 5704,
      "##럴": 5705,
      "##뭍": 5706,
      "##②": 5707,
      "##멀": 5708,
      "##컨": 5709,
      "##띠": 5710,
      "##좆": 5711,
      "##벙": 5712,
      "##🏼": 5713,
      "##씹": 5714,
      "##째": 5715,
      "##젬": 5716,
      "##겹": 5717,
      "##셀": 5718,
      "##푀": 5719,
      "##굳": 5720,
      "##믿": 5721,
      "##샵": 5722,
      "##☕": 5723,
      "##벗": 5724,
      "##윗": 5725,
      "##겠": 5726,
      "##봤": 5727,
      "##틋": 5728,
      "##😛": 5729,
      "##잎": 5730,
      "##🤗": 5731,
      "##젓": 5732,
      "##좀": 5733,
      "##났": 5734,
      "##갓": 5735,
      "##뽑": 5736,
      "##ا": 5737,
      "##칫": 5738,
      "##펄": 5739,
      "##럭": 5740,
      "##ㄲ": 5741,
      "##톱": 5742,
      "##므": 5743,
      "##쩡": 5744,
      "##쿄": 5745,
      "##뜻": 5746,
      "##헤": 5747,
      "##걍": 5748,
      "##빡": 5749,
      "##잠": 5750,
      "##ポ": 5751,
      "##툰": 5752,
      "##뢰": 5753,
      "##쁨": 5754,
      "##귤": 5755,
      "##셴": 5756,
      "##숟": 5757,
      "##ㅑ": 5758,
      "##넌": 5759,
      "##밋": 5760,
      "##β": 5761,
      "##퀸": 5762,
      "##🍫": 5763,
      "##닿": 5764,
      "##떨": 5765,
      "##넼": 5766,
      "##칸": 5767,
      "##칡": 5768,
      "##푼": 5769,
      "##댁": 5770,
      "##꽉": 5771,
      "##💓": 5772,
      "##꺼": 5773,
      "##괴": 5774,
      "##뤄": 5775,
      "##🙂": 5776,
      "##Ⅲ": 5777,
      "##텅": 5778,
      "##쳉": 5779,
      "##걔": 5780,
      "##샘": 5781,
      "##붙": 5782,
      "##슐": 5783,
      "##쳣": 5784,
      "##춧": 5785,
      "##쯧": 5786,
      "##👀": 5787,
      "##😉": 5788,
      "##ᄒ": 5789,
      "##닼": 5790,
      "##뭉": 5791,
      "##🎶": 5792,
      "##😎": 5793,
      "##🙈": 5794,
      "##컵": 5795,
      "##μ": 5796,
      "##잌": 5797,
      "##â": 5798,
      "##닻": 5799,
      "##겸": 5800,
      "##츄": 5801,
      "##엠": 5802,
      "##👶": 5803,
      "##🤭": 5804,
      "##녁": 5805,
      "##팟": 5806,
      "##겅": 5807,
      "##핌": 5808,
      "##덥": 5809,
      "##В": 5810,
      "##캘": 5811,
      "##덤": 5812,
      "##룰": 5813,
      "##🌟": 5814,
      "##괘": 5815,
      "##갭": 5816,
      "##💗": 5817,
      "##듬": 5818,
      "##홈": 5819,
      "##λ": 5820,
      "##́": 5821,
      "##윽": 5822,
      "##펙": 5823,
      "##ど": 5824,
      "##렵": 5825,
      "##닌": 5826,
      "##왑": 5827,
      "##쭈": 5828,
      "##찮": 5829,
      "##낮": 5830,
      "##됨": 5831,
      "##넘": 5832,
      "##˚": 5833,
      "##썰": 5834,
      "##뭔": 5835,
      "##꾼": 5836,
      "##훤": 5837,
      "##□": 5838,
      "##뿍": 5839,
      "##◇": 5840,
      "##●": 5841,
      "##겜": 5842,
      "##털": 5843,
      "##펠": 5844,
      "##▲": 5845,
      "##랏": 5846,
      "##궐": 5847,
      "##붓": 5848,
      "##얘": 5849,
      "##곱": 5850,
      "##쐬": 5851,
      "##뷔": 5852,
      "##～": 5853,
      "##⑧": 5854,
      "##뤘": 5855,
      "##힛": 5856,
      "##늠": 5857,
      "##벡": 5858,
      "##😋": 5859,
      "##곰": 5860,
      "##탬": 5861,
      "##🤔": 5862,
      "##즙": 5863,
      "##밧": 5864,
      "##튜": 5865,
      "##훌": 5866,
      "##휼": 5867,
      "##얀": 5868,
      "##덜": 5869,
      "##メ": 5870,
      "##띵": 5871,
      "##콧": 5872,
      "##숲": 5873,
      "##꽝": 5874,
      "##딧": 5875,
      "##→": 5876,
      "##룬": 5877,
      "##룹": 5878,
      "##웠": 5879,
      "##큰": 5880,
      "##🙋": 5881,
      "##빨": 5882,
      "##즉": 5883,
      "##혐": 5884,
      "##께": 5885,
      "##깻": 5886,
      "##썽": 5887,
      "##낄": 5888,
      "##웰": 5889,
      "##딜": 5890,
      "##봇": 5891,
      "##ボ": 5892,
      "##젼": 5893,
      "##꿀": 5894,
      "##슘": 5895,
      "##륨": 5896,
      "##━": 5897,
      "##즐": 5898,
      "##갯": 5899,
      "##뎃": 5900,
      "##낚": 5901,
      "##먀": 5902,
      "##🥄": 5903,
      "##ì": 5904,
      "##톨": 5905,
      "##삿": 5906,
      "##땅": 5907,
      "##⑪": 5908,
      "##겐": 5909,
      "##😥": 5910,
      "##괄": 5911,
      "##땀": 5912,
      "##꺄": 5913,
      "##П": 5914,
      "##Н": 5915,
      "##И": 5916,
      "##럿": 5917,
      "##쟤": 5918,
      "##넉": 5919,
      "##엑": 5920,
      "##깁": 5921,
      "##😃": 5922,
      "##셜": 5923,
      "##혔": 5924,
      "##🎁": 5925,
      "##곸": 5926,
      "##멸": 5927,
      "##넜": 5928,
      "##늪": 5929,
      "##찍": 5930,
      "##끝": 5931,
      "##퀄": 5932,
      "##숴": 5933,
      "##꿈": 5934,
      "##뜩": 5935,
      "##꿔": 5936,
      "##탠": 5937,
      "##웟": 5938,
      "##풋": 5939,
      "##섹": 5940,
      "##콥": 5941,
      "##バ": 5942,
      "##🤤": 5943,
      "##곁": 5944,
      "##웬": 5945,
      "##👉": 5946,
      "##👈": 5947,
      "##것": 5948,
      "##뚱": 5949,
      "##훔": 5950,
      "##틱": 5951,
      "##쁜": 5952,
      "##パ": 5953,
      "##θ": 5954,
      "##탓": 5955,
      "##¹": 5956,
      "##쉐": 5957,
      "##😅": 5958,
      "##흰": 5959,
      "##앞": 5960,
      "##🙌": 5961,
      "##🖤": 5962,
      "##찡": 5963,
      "##딤": 5964,
      "##ハ": 5965,
      "##챔": 5966,
      "##섯": 5967,
      "##뀌": 5968,
      "##쏭": 5969,
      "##곳": 5970,
      "##램": 5971,
      "##샴": 5972,
      "##냅": 5973,
      "##밸": 5974,
      "##믈": 5975,
      "##큼": 5976,
      "##굼": 5977,
      "##젤": 5978,
      "##눅": 5979,
      "##옵": 5980,
      "##칵": 5981,
      "##둑": 5982,
      "##팰": 5983,
      "##픔": 5984,
      "##댓": 5985,
      "##🙆": 5986,
      "##죵": 5987,
      "##😳": 5988,
      "##🤦": 5989,
      "##킁": 5990,
      "##랐": 5991,
      "##｜": 5992,
      "##뽈": 5993,
      "##쪽": 5994,
      "##욘": 5995,
      "##멍": 5996,
      "##됴": 5997,
      "##렙": 5998,
      "##쥘": 5999,
      "##뺑": 6000,
      "##깐": 6001,
      "##밖": 6002,
      "##뵈": 6003,
      "##돋": 6004,
      "##았": 6005,
      "##첸": 6006,
      "##쭝": 6007,
      "##꿍": 6008,
      "##렴": 6009,
      "##줍": 6010,
      "##낫": 6011,
      "##㉣": 6012,
      "##끊": 6013,
      "##낱": 6014,
      "##앉": 6015,
      "##톈": 6016,
      "##쿤": 6017,
      "##겄": 6018,
      "##낵": 6019,
      "##룽": 6020,
      "##👌": 6021,
      "##뼛": 6022,
      "##땜": 6023,
      "##촵": 6024,
      "##깽": 6025,
      "##딕": 6026,
      "##깝": 6027,
      "##짚": 6028,
      "##밴": 6029,
      "##△": 6030,
      "##⑷": 6031,
      "##롄": 6032,
      "##벅": 6033,
      "##륭": 6034,
      "##엡": 6035,
      "##😖": 6036,
      "##씰": 6037,
      "##쟝": 6038,
      "##텃": 6039,
      "##잖": 6040,
      "##짤": 6041,
      "##쭐": 6042,
      "##좁": 6043,
      "##😌": 6044,
      "##팝": 6045,
      "##─": 6046,
      "##웩": 6047,
      "##δ": 6048,
      "##갸": 6049,
      "##캄": 6050,
      "##뭄": 6051,
      "##튬": 6052,
      "##낼": 6053,
      "##뇸": 6054,
      "##♡": 6055,
      "##둠": 6056,
      "##맸": 6057,
      "##굉": 6058,
      "##괭": 6059,
      "##녜": 6060,
      "##떤": 6061,
      "##⊙": 6062,
      "##ぬ": 6063,
      "##짭": 6064,
      "##캅": 6065,
      "##쩐": 6066,
      "##ｔ": 6067,
      "##쨩": 6068,
      "##욤": 6069,
      "##믄": 6070,
      "##↓": 6071,
      "##맺": 6072,
      "##튀": 6073,
      "##켈": 6074,
      "##⅓": 6075,
      "##폼": 6076,
      "##ư": 6077,
      "##쌓": 6078,
      "##샨": 6079,
      "##멓": 6080,
      "##딪": 6081,
      "##짖": 6082,
      "##☆": 6083,
      "##★": 6084,
      "##👋": 6085,
      "##쳇": 6086,
      "##씀": 6087,
      "##볏": 6088,
      "##껄": 6089,
      "##댄": 6090,
      "##놈": 6091,
      "##뎈": 6092,
      "##깥": 6093,
      "##쑤": 6094,
      "##넙": 6095,
      "##흙": 6096,
      "##깟": 6097,
      "##꼭": 6098,
      "##А": 6099,
      "##ㅉ": 6100,
      "##겋": 6101,
      "##슥": 6102,
      "##쿵": 6103,
      "##될": 6104,
      "##돔": 6105,
      "##샬": 6106,
      "##눌": 6107,
      "##뿔": 6108,
      "##댜": 6109,
      "##챠": 6110,
      "##뱌": 6111,
      "##뱃": 6112,
      "##텍": 6113,
      "##С": 6114,
      "##닷": 6115,
      "##깜": 6116,
      "##많": 6117,
      "##😏": 6118,
      "##렇": 6119,
      "##️": 6120,
      "##둣": 6121,
      "##꿉": 6122,
      "##눙": 6123,
      "##냇": 6124,
      "##뜯": 6125,
      "##샐": 6126,
      "##됐": 6127,
      "##녘": 6128,
      "##잊": 6129,
      "##Р": 6130,
      "##얏": 6131,
      "##찾": 6132,
      "##씻": 6133,
      "##팥": 6134,
      "##🔥": 6135,
      "##팸": 6136,
      "##뀐": 6137,
      "##늙": 6138,
      "##엣": 6139,
      "##짧": 6140,
      "##싫": 6141,
      "##렘": 6142,
      "##섰": 6143,
      "##밈": 6144,
      "##헉": 6145,
      "##벳": 6146,
      "##젖": 6147,
      "##랬": 6148,
      "##틈": 6149,
      "##쌩": 6150,
      "##갖": 6151,
      "##밟": 6152,
      "##땡": 6153,
      "##즌": 6154,
      "##쟌": 6155,
      "##섀": 6156,
      "##😙": 6157,
      "##텟": 6158,
      "##늦": 6159,
      "##않": 6160,
      "##꼼": 6161,
      "##봣": 6162,
      "##뷸": 6163,
      "##턱": 6164,
      "##빵": 6165,
      "##숏": 6166,
      "##맡": 6167,
      "##얍": 6168,
      "##몹": 6169,
      "##빔": 6170,
      "##겡": 6171,
      "##햐": 6172,
      "##텡": 6173,
      "##³": 6174,
      "##²": 6175,
      "##듣": 6176,
      "##잽": 6177,
      "##싼": 6178,
      "##홉": 6179,
      "##껌": 6180,
      "##앵": 6181,
      "##옻": 6182,
      "##꼴": 6183,
      "##㉢": 6184,
      "##㉠": 6185,
      "##㉡": 6186,
      "##㎏": 6187,
      "##숍": 6188,
      "##셩": 6189,
      "##찜": 6190,
      "##뜬": 6191,
      "##숑": 6192,
      "##텁": 6193,
      "##낯": 6194,
      "##젯": 6195,
      "##톰": 6196,
      "##훠": 6197,
      "##촘": 6198,
      "##핸": 6199,
      "##낀": 6200,
      "##텝": 6201,
      "##묶": 6202,
      "##탤": 6203,
      "##팜": 6204,
      "##뎌": 6205,
      "##뎁": 6206,
      "##닮": 6207,
      "##ㅛ": 6208,
      "##릅": 6209,
      "##뜸": 6210,
      "##윳": 6211,
      "##깊": 6212,
      "##씸": 6213,
      "##빕": 6214,
      "##웡": 6215,
      "##귓": 6216,
      "##훗": 6217,
      "##믐": 6218,
      "##샌": 6219,
      "##챱": 6220,
      "##🥰": 6221,
      "##홧": 6222,
      "##숨": 6223,
      "##넋": 6224,
      "##읽": 6225,
      "##괌": 6226,
      "##쉽": 6227,
      "##튿": 6228,
      "##쮸": 6229,
      "##캡": 6230,
      "##셧": 6231,
      "##쉑": 6232,
      "##왓": 6233,
      "##씬": 6234,
      "##♣": 6235,
      "##슭": 6236,
      "##껑": 6237,
      "##춥": 6238,
      "##뒀": 6239,
      "##ạ": 6240,
      "##멋": 6241,
      "##옆": 6242,
      "##■": 6243,
      "##윙": 6244,
      "##욧": 6245,
      "##솥": 6246,
      "##끗": 6247,
      "##쉰": 6248,
      "##뻔": 6249,
      "##🙊": 6250,
      "##ː": 6251,
      "##뻗": 6252,
      "##삑": 6253,
      "##묻": 6254,
      "##⑴": 6255,
      "##뮌": 6256,
      "##탉": 6257,
      "##팍": 6258,
      "##М": 6259,
      "##찝": 6260,
      "##ơ": 6261,
      "##쥰": 6262,
      "##쩨": 6263,
      "##첵": 6264,
      "##딥": 6265,
      "##맴": 6266,
      "##얗": 6267,
      "##뮈": 6268,
      "##푹": 6269,
      "##뻥": 6270,
      "##퀘": 6271,
      "##썼": 6272,
      "##짬": 6273,
      "##힙": 6274,
      "##°": 6275,
      "##̣": 6276,
      "##̥": 6277,
      "##펴": 6278,
      "##숯": 6279,
      "##쿼": 6280,
      "##쭤": 6281,
      "##맬": 6282,
      "##♥": 6283,
      "##꾀": 6284,
      "##툼": 6285,
      "##갠": 6286,
      "##꿩": 6287,
      "##듐": 6288,
      "##튕": 6289,
      "##썸": 6290,
      "##됏": 6291,
      "##펌": 6292,
      "##ෆ": 6293,
      "##썬": 6294,
      "##섶": 6295,
      "##쌔": 6296,
      "##뻘": 6297,
      "##즁": 6298,
      "##퍽": 6299,
      "##젝": 6300,
      "##＜": 6301,
      "##땋": 6302,
      "##촐": 6303,
      "##찻": 6304,
      "##툇": 6305,
      "##옙": 6306,
      "##겊": 6307,
      "##К": 6308,
      "##윌": 6309,
      "##똑": 6310,
      "##젭": 6311,
      "##뎀": 6312,
      "##믹": 6313,
      "##윷": 6314,
      "##냘": 6315,
      "##촨": 6316,
      "##굽": 6317,
      "##얽": 6318,
      "##흩": 6319,
      "##씽": 6320,
      "##켠": 6321,
      "##´": 6322,
      "##줏": 6323,
      "##뻬": 6324,
      "##왼": 6325,
      "##🐽": 6326,
      "##뺨": 6327,
      "##겉": 6328,
      "##렝": 6329,
      "##큘": 6330,
      "##넓": 6331,
      "##숩": 6332,
      "##뛴": 6333,
      "##쏙": 6334,
      "##잰": 6335,
      "##얇": 6336,
      "##릏": 6337,
      "##◎": 6338,
      "##땠": 6339,
      "##펫": 6340,
      "##뻑": 6341,
      "##폄": 6342,
      "##펨": 6343,
      "##÷": 6344,
      "##굶": 6345,
      "##녔": 6346,
      "##벵": 6347,
      "##졋": 6348,
      "##떵": 6349,
      "##찢": 6350,
      "##┃": 6351,
      "##컥": 6352,
      "##넝": 6353,
      "##굣": 6354,
      "##띄": 6355,
      "##⠀": 6356,
      "##←": 6357,
      "##㏄": 6358,
      "##듦": 6359,
      "##옐": 6360,
      "##㈐": 6361,
      "##㈑": 6362,
      "##뺏": 6363,
      "##팻": 6364,
      "##웍": 6365,
      "##옳": 6366,
      "##핥": 6367,
      "##찐": 6368,
      "##챌": 6369,
      "##샀": 6370,
      "##셸": 6371,
      "##̈": 6372,
      "##줬": 6373,
      "##멩": 6374,
      "##앱": 6375,
      "##팁": 6376,
      "##❣": 6377,
      "##❤": 6378,
      "##껍": 6379,
      "##늉": 6380,
      "##빽": 6381,
      "##뽁": 6382,
      "##쭙": 6383,
      "##헥": 6384,
      "##잣": 6385,
      "##탭": 6386,
      "##냑": 6387,
      "##꽂": 6388,
      "##췌": 6389,
      "##퉤": 6390,
      "##챙": 6391,
      "##댈": 6392,
      "##뒈": 6393,
      "##갇": 6394,
      "##랩": 6395,
      "##및": 6396,
      "##맷": 6397,
      "##☺": 6398,
      "##컷": 6399,
      "##웹": 6400,
      "##닫": 6401,
      "##헷": 6402,
      "##갬": 6403,
      "##훙": 6404,
      "##샛": 6405,
      "##썩": 6406,
      "##돛": 6407,
      "##멤": 6408,
      "##멧": 6409,
      "##낳": 6410,
      "##④": 6411,
      "##⑤": 6412,
      "##뽐": 6413,
      "##ღ": 6414,
      "##Ⅵ": 6415,
      "##쥔": 6416,
      "##쓴": 6417,
      "##멈": 6418,
      "##쿡": 6419,
      "##돗": 6420,
      "##굵": 6421,
      "##텨": 6422,
      "##볕": 6423,
      "##엊": 6424,
      "##꾹": 6425,
      "##긱": 6426,
      "##앳": 6427,
      "##갛": 6428,
      "##빤": 6429,
      "##탔": 6430,
      "##＋": 6431,
      "##＝": 6432,
      "##쩔": 6433,
      "##⑨": 6434,
      "##꽹": 6435,
      "##꼈": 6436,
      "##⑫": 6437,
      "##훨": 6438,
      "##짙": 6439,
      "##옮": 6440,
      "##눕": 6441,
      "##퉈": 6442,
      "##①": 6443,
      "##슌": 6444,
      "##쫌": 6445,
      "##맙": 6446,
      "##좃": 6447,
      "##ⓒ": 6448,
      "##햅": 6449,
      "##≪": 6450,
      "##뚤": 6451,
      "##얻": 6452,
      "##꿨": 6453,
      "##꼿": 6454,
      "##▽": 6455,
      "##๑": 6456,
      "##봅": 6457,
      "##솝": 6458,
      "##슝": 6459,
      "##펍": 6460,
      "##꼽": 6461,
      "##⑦": 6462,
      "##꿰": 6463,
      "##톳": 6464,
      "##랠": 6465,
      "##퀼": 6466,
      "##퓸": 6467,
      "##놉": 6468,
      "##뵌": 6469,
      "##뤽": 6470,
      "##쫄": 6471,
      "##곶": 6472,
      "##캥": 6473,
      "##긁": 6474,
      "##쓱": 6475,
      "##왠": 6476,
      "##빴": 6477,
      "##똬": 6478,
      "##팹": 6479,
      "##쐐": 6480,
      "##ｇ": 6481,
      "##빳": 6482,
      "##듈": 6483,
      "##잴": 6484,
      "##씩": 6485,
      "##훅": 6486,
      "##꼰": 6487,
      "##쉘": 6488,
      "##쾅": 6489,
      "##쥴": 6490,
      "##횃": 6491,
      "##떻": 6492,
      "##잦": 6493,
      "##뺄": 6494,
      "##Ⅳ": 6495,
      "##📌": 6496,
      "##닦": 6497,
      "##딨": 6498,
      "##킵": 6499,
      "##컹": 6500,
      "##㈜": 6501,
      "##낑": 6502,
      "##헵": 6503,
      "##걷": 6504,
      "##뻣": 6505,
      "##휠": 6506,
      "##뷴": 6507,
      "##촤": 6508,
      "##뗏": 6509,
      "##귐": 6510,
      "##✨": 6511,
      "##텄": 6512,
      "##뻤": 6513,
      "##먐": 6514,
      "##맑": 6515,
      "##펩": 6516,
      "##숀": 6517,
      "##쾨": 6518,
      "##ⓑ": 6519,
      "##눠": 6520,
      "##쎈": 6521,
      "##챈": 6522,
      "##낡": 6523,
      "##뿜": 6524,
      "##눗": 6525,
      "##벧": 6526,
      "##뿅": 6527,
      "##펭": 6528,
      "##큭": 6529,
      "##퓌": 6530,
      "##삯": 6531,
      "##꽤": 6532,
      "##⑥": 6533,
      "##◡": 6534,
      "##퓰": 6535,
      "##쏠": 6536,
      "##ị": 6537,
      "##뮴": 6538,
      "##샥": 6539,
      "##홰": 6540,
      "##힝": 6541,
      "##츰": 6542,
      "##↑": 6543,
      "##웜": 6544,
      "##몫": 6545,
      "##▷": 6546,
      "##뜀": 6547,
      "##꿇": 6548,
      "##훑": 6549,
      "##뎐": 6550,
      "##✔": 6551,
      "##쿰": 6552,
      "##빚": 6553,
      "##팠": 6554,
      "##슉": 6555,
      "##넵": 6556,
      "##│": 6557,
      "##푯": 6558,
      "##뮬": 6559,
      "##튠": 6560,
      "##덧": 6561,
      "##씌": 6562,
      "##껀": 6563,
      "##숱": 6564,
      "##±": 6565,
      "##뮐": 6566,
      "##꺾": 6567,
      "##✅": 6568,
      "##₂": 6569,
      "##깼": 6570,
      "##헹": 6571,
      "##∙": 6572,
      "##떴": 6573,
      "##퀀": 6574,
      "##㎥": 6575,
      "##⋅": 6576,
      "##툭": 6577,
      "##쨋": 6578,
      "##✌": 6579,
      "##쫙": 6580,
      "##쇤": 6581,
      "##웸": 6582,
      "##둡": 6583,
      "##폈": 6584,
      "##흄": 6585,
      "##▨": 6586,
      "##₁": 6587,
      "##㉯": 6588,
      "##촛": 6589,
      "##뗀": 6590,
      "##쪘": 6591,
      "##츨": 6592,
      "##닢": 6593,
      "##틔": 6594,
      "##셤": 6595,
      "##벚": 6596,
      "##⇒": 6597,
      "##콱": 6598,
      "##땔": 6599,
      "##◆": 6600,
      "##♤": 6601,
      "##궜": 6602,
      "##쾰": 6603,
      "##헴": 6604,
      "##⑵": 6605,
      "##잿": 6606,
      "##띔": 6607,
      "##폿": 6608,
      "##솎": 6609,
      "##볜": 6610,
      "##Ⅴ": 6611,
      "##퀵": 6612,
      "##쨌": 6613,
      "##뎠": 6614,
      "##￣": 6615,
      "##줫": 6616,
      "##죤": 6617,
      "##㎉": 6618,
      "##휀": 6619,
      "##떄": 6620,
      "##≫": 6621,
      "##섣": 6622,
      "##핼": 6623,
      "##잃": 6624,
      "##뗄": 6625,
      "##끙": 6626,
      "##ㅤ": 6627,
      "##큽": 6628,
      "##뺀": 6629,
      "##뭡": 6630,
      "##쨍": 6631,
      "##튤": 6632,
      "##뾰": 6633,
      "##맏": 6634,
      "##놋": 6635,
      "##└": 6636,
      "##⑩": 6637,
      "##뼉": 6638,
      "##쑨": 6639,
      "##뮨": 6640,
      "##땃": 6641,
      "##❗": 6642,
      "##뀔": 6643,
      "##얹": 6644,
      "##헙": 6645,
      "##똘": 6646,
      "##냔": 6647,
      "##엎": 6648,
      "##쬐": 6649,
      "##ℓ": 6650,
      "##샅": 6651,
      "##탯": 6652,
      "##▶": 6653,
      "##떳": 6654,
      "##쏜": 6655,
      "##옇": 6656,
      "##잤": 6657,
      "##펐": 6658,
      "##㏊": 6659,
      "##맣": 6660,
      "##윔": 6661,
      "##㎝": 6662,
      "##띈": 6663,
      "##뚫": 6664,
      "##쑹": 6665,
      "##콸": 6666,
      "##쁩": 6667,
      "##좡": 6668,
      "##켐": 6669,
      "##갚": 6670,
      "##갗": 6671,
      "##앓": 6672,
      "##볍": 6673,
      "##Đ": 6674,
      "##깬": 6675,
      "##쫑": 6676,
      "##셍": 6677,
      "##챘": 6678,
      "##떫": 6679,
      "##궂": 6680,
      "##쏴": 6681,
      "##₩": 6682,
      "##옅": 6683,
      "##펼": 6684,
      "##홑": 6685,
      "##쩝": 6686,
      "##묽": 6687,
      "##덟": 6688,
      "##㈔": 6689,
      "##쌌": 6690,
      "##뭘": 6691,
      "##엮": 6692,
      "##슛": 6693,
      "##〓": 6694,
      "##☏": 6695,
      "##밝": 6696,
      "##컸": 6697,
      "##밉": 6698,
      "##㎎": 6699,
      "##좔": 6700,
      "##쿱": 6701,
      "##㎞": 6702,
      "##콴": 6703,
      "##㉮": 6704,
      "##얕": 6705,
      "##힉": 6706,
      "##쏟": 6707,
      "##쌉": 6708,
      "##짰": 6709,
      "##뿡": 6710,
      "##뵐": 6711,
      "##엷": 6712,
      "##⭐": 6713,
      "##챕": 6714,
      "##깰": 6715,
      "##☞": 6716,
      "##뉜": 6717,
      "##찧": 6718,
      "##닳": 6719,
      "##↔": 6720,
      "##빻": 6721,
      "##엾": 6722,
      "##뭣": 6723,
      "##샜": 6724,
      "##깄": 6725,
      "##꿎": 6726,
      "##딛": 6727,
      "##￦": 6728,
      "##짊": 6729,
      "##▪": 6730,
      "##랖": 6731,
      "##˝": 6732,
      "##곯": 6733,
      "##㎡": 6734,
      "##➡": 6735,
      "##뱉": 6736,
      "##−": 6737,
      "##뒹": 6738,
      "##탰": 6739,
      "##옭": 6740,
      "##텼": 6741,
      "##겪": 6742,
      "##㈏": 6743,
      "##봬": 6744,
      "##껐": 6745,
      "##몄": 6746,
      "##㎍": 6747,
      "##├": 6748,
      "##멎": 6749,
      "##℃": 6750,
      "##뵙": 6751,
      "##뙤": 6752,
      "##뺌": 6753,
      "##셌": 6754,
      "##낍": 6755,
      "##쇳": 6756,
      "##쫒": 6757,
      "##쉿": 6758,
      "##◀": 6759,
      "##볐": 6760,
      "##┌": 6761,
      "##휙": 6762,
      "##켤": 6763,
      "##♀": 6764,
      "##┬": 6765,
      "##픕": 6766,
      "##짢": 6767,
      "##뢴": 6768,
      "##♂": 6769,
      "##▫": 6770,
      "##좇": 6771,
      "##쌕": 6772,
      "##휩": 6773,
      "##앴": 6774,
      "##끽": 6775,
      "##튄": 6776,
      "##™": 6777,
      "##됩": 6778,
      "##뀜": 6779,
      "##뼘": 6780,
      "##뺐": 6781,
      "##싣": 6782,
      "##윕": 6783,
      "##홱": 6784,
      "##☎": 6785,
      "##컫": 6786,
      "##눴": 6787,
      "##㈎": 6788,
      "##꿋": 6789,
      "##㎜": 6790,
      "##㎖": 6791,
      "##▣": 6792,
      "##곪": 6793,
      "##휜": 6794,
      "##갉": 6795,
      "##㎾": 6796,
      "##㎒": 6797,
      "##㎿": 6798,
      "##휑": 6799,
      "##뗐": 6800,
      "##띨": 6801,
      "##읊": 6802,
      "##땄": 6803,
      "으로": 6804,
      "에서": 6805,
      "한다": 6806,
      "##00": 6807,
      "##니다": 6808,
      "에게": 6809,
      "20": 6810,
      "19": 6811,
      "까지": 6812,
      "지만": 6813,
      "사람": 6814,
      "면서": 6815,
      "라고": 6816,
      "다는": 6817,
      "아니": 6818,
      "대한": 6819,
      "우리": 6820,
      "된다": 6821,
      "는데": 6822,
      "라는": 6823,
      "다고": 6824,
      "습니다": 6825,
      "때문": 6826,
      "그러": 6827,
      "지난": 6828,
      "201": 6829,
      "위해": 6830,
      "200": 6831,
      "한국": 6832,
      "생각": 6833,
      "부터": 6834,
      "10": 6835,
      "보다": 6836,
      "지역": 6837,
      "그리": 6838,
      "문제": 6839,
      "자신": 6840,
      "경우": 6841,
      "그런": 6842,
      "사업": 6843,
      "이나": 6844,
      "통해": 6845,
      "시간": 6846,
      "사회": 6847,
      "대해": 6848,
      "기업": 6849,
      "해야": 6850,
      "아이": 6851,
      "따라": 6852,
      "시장": 6853,
      "다른": 6854,
      "미국": 6855,
      "함께": 6856,
      "하나": 6857,
      "그렇": 6858,
      "관계": 6859,
      "이상": 6860,
      "정부": 6861,
      "대표": 6862,
      "가지": 6863,
      "세계": 6864,
      "가능": 6865,
      "교육": 6866,
      "시작": 6867,
      "지금": 6868,
      "서울": 6869,
      "그리고": 6870,
      "경기": 6871,
      "가장": 6872,
      "사실": 6873,
      "처럼": 6874,
      "경제": 6875,
      "이런": 6876,
      "그러나": 6877,
      "도록": 6878,
      "그래": 6879,
      "만들": 6880,
      "필요": 6881,
      "12": 6882,
      "위원": 6883,
      "는다": 6884,
      "정도": 6885,
      "사용": 6886,
      "연구": 6887,
      "프로": 6888,
      "일본": 6889,
      "##지만": 6890,
      "11": 6891,
      "들어": 6892,
      "다시": 6893,
      "중국": 6894,
      "어요": 6895,
      "지원": 6896,
      "해서": 6897,
      "문화": 6898,
      "위한": 6899,
      "이번": 6900,
      "으면": 6901,
      "##통령": 6902,
      "대통령": 6903,
      "대학": 6904,
      "하지만": 6905,
      "모두": 6906,
      "이후": 6907,
      "관련": 6908,
      "##er": 6909,
      "이제": 6910,
      "으며": 6911,
      "다음": 6912,
      "정치": 6913,
      "투자": 6914,
      "밝혔": 6915,
      "상황": 6916,
      "어서": 6917,
      "국가": 6918,
      "사이": 6919,
      "##니까": 6920,
      "학교": 6921,
      "의원": 6922,
      "개발": 6923,
      "15": 6924,
      "계획": 6925,
      "모든": 6926,
      "현재": 6927,
      "어떤": 6928,
      "다가": 6929,
      "199": 6930,
      "기술": 6931,
      "이렇": 6932,
      "입니다": 6933,
      "마음": 6934,
      "18": 6935,
      "30": 6936,
      "거나": 6937,
      "특히": 6938,
      "결과": 6939,
      "그것": 6940,
      "국민": 6941,
      "활동": 6942,
      "많이": 6943,
      "후보": 6944,
      "##on": 6945,
      "ㅋㅋ": 6946,
      "영화": 6947,
      "##스트": 6948,
      "국내": 6949,
      "조사": 6950,
      "이렇게": 6951,
      "이야": 6952,
      "과정": 6953,
      "지난해": 6954,
      "진행": 6955,
      "중요": 6956,
      "도시": 6957,
      "새로": 6958,
      "최근": 6959,
      "산업": 6960,
      "전문": 6961,
      "대상": 6962,
      "다양": 6963,
      "관리": 6964,
      "동안": 6965,
      "민주": 6966,
      "나타": 6967,
      "이용": 6968,
      "정보": 6969,
      "이야기": 6970,
      "는지": 6971,
      "올해": 6972,
      "##부터": 6973,
      "##in": 6974,
      "선수": 6975,
      "회사": 6976,
      "##주의": 6977,
      "기록": 6978,
      "이미": 6979,
      "학생": 6980,
      "정책": 6981,
      "##대로": 6982,
      "여러": 6983,
      "스타": 6984,
      "너무": 6985,
      "나라": 6986,
      "평가": 6987,
      "사랑": 6988,
      "처음": 6989,
      "여기": 6990,
      "어떻": 6991,
      "또한": 6992,
      "보이": 6993,
      "##000": 6994,
      "이유": 6995,
      "운영": 6996,
      "모습": 6997,
      "당시": 6998,
      "자기": 6999,
      "그래서": 7000,
      "결정": 7001,
      "##라고": 7002,
      "##an": 7003,
      "바로": 7004,
      "##or": 7005,
      "##시아": 7006,
      "의미": 7007,
      "16": 7008,
      "자리": 7009,
      "생활": 7010,
      "내용": 7011,
      "금융": 7012,
      "설명": 7013,
      "이어": 7014,
      "인간": 7015,
      "여성": 7016,
      "다면": 7017,
      "돌아": 7018,
      "운동": 7019,
      "아무": 7020,
      "없이": 7021,
      "##비스": 7022,
      "13": 7023,
      "한다는": 7024,
      "방송": 7025,
      "시키": 7026,
      "제품": 7027,
      "합니다": 7028,
      "국제": 7029,
      "주장": 7030,
      "그녀": 7031,
      "새로운": 7032,
      "못하": 7033,
      "관계자": 7034,
      "방법": 7035,
      "##어나": 7036,
      "14": 7037,
      "역사": 7038,
      "이날": 7039,
      "이러": 7040,
      "환경": 7041,
      "오늘": 7042,
      "17": 7043,
      "##운데": 7044,
      "참여": 7045,
      "어야": 7046,
      "최고": 7047,
      "감독": 7048,
      "업체": 7049,
      "##en": 7050,
      "현대": 7051,
      "같이": 7052,
      "지방": 7053,
      "서비스": 7054,
      "예정": 7055,
      "북한": 7056,
      "사건": 7057,
      "라며": 7058,
      "선거": 7059,
      "계속": 7060,
      "추진": 7061,
      "규모": 7062,
      "삼성": 7063,
      "가운데": 7064,
      "시대": 7065,
      "기관": 7066,
      "##레이": 7067,
      "기준": 7068,
      "여자": 7069,
      "경찰": 7070,
      "발전": 7071,
      "나오": 7072,
      "이름": 7073,
      "물론": 7074,
      "만큼": 7075,
      "어떻게": 7076,
      "25": 7077,
      "중심": 7078,
      "교수": 7079,
      "구성": 7080,
      "생산": 7081,
      "시민": 7082,
      "부분": 7083,
      "##으며": 7084,
      "##머니": 7085,
      "가격": 7086,
      "조선": 7087,
      "경쟁": 7088,
      "직접": 7089,
      "소리": 7090,
      "발생": 7091,
      "따르": 7092,
      "##랜드": 7093,
      "회장": 7094,
      "상태": 7095,
      "준비": 7096,
      "관심": 7097,
      "어느": 7098,
      "성장": 7099,
      "198": 7100,
      "##인다": 7101,
      "발표": 7102,
      "아닌": 7103,
      "대회": 7104,
      "##ar": 7105,
      "제공": 7106,
      "부산": 7107,
      "어려": 7108,
      "상대": 7109,
      "기대": 7110,
      "그런데": 7111,
      "알려": 7112,
      "##ti": 7113,
      "##al": 7114,
      "국회": 7115,
      "100": 7116,
      "일반": 7117,
      "역시": 7118,
      "포함": 7119,
      "대구": 7120,
      "보여": 7121,
      "효과": 7122,
      "##리아": 7123,
      "판매": 7124,
      "개인": 7125,
      "위원회": 7126,
      "일부": 7127,
      "얘기": 7128,
      "전체": 7129,
      "변화": 7130,
      "성공": 7131,
      "분석": 7132,
      "자유": 7133,
      "무엇": 7134,
      "##es": 7135,
      "이라고": 7136,
      "프로그": 7137,
      "확인": 7138,
      "또는": 7139,
      "노동": 7140,
      "마련": 7141,
      "작품": 7142,
      "요구": 7143,
      "인터": 7144,
      "떨어": 7145,
      "로서": 7146,
      "ㅋㅋㅋ": 7147,
      "인지": 7148,
      "자연": 7149,
      "아직": 7150,
      "이해": 7151,
      "구조": 7152,
      "##버지": 7153,
      "가족": 7154,
      "수준": 7155,
      "그렇게": 7156,
      "센터": 7157,
      "은행": 7158,
      "행사": 7159,
      "프로그램": 7160,
      "50": 7161,
      "경영": 7162,
      "고객": 7163,
      "더라": 7164,
      "전국": 7165,
      "인데": 7166,
      "친구": 7167,
      "모르": 7168,
      "공동": 7169,
      "더욱": 7170,
      "기간": 7171,
      "시설": 7172,
      "자동": 7173,
      "존재": 7174,
      "영향": 7175,
      "인가": 7176,
      "얼마": 7177,
      "단체": 7178,
      "입장": 7179,
      "대해서": 7180,
      "실제": 7181,
      "위해서": 7182,
      "이것": 7183,
      "증가": 7184,
      "소비": 7185,
      "정말": 7186,
      "니까": 7187,
      "방식": 7188,
      "결국": 7189,
      "상품": 7190,
      "최대": 7191,
      "특별": 7192,
      "21": 7193,
      "주민": 7194,
      "지적": 7195,
      "조직": 7196,
      "달러": 7197,
      "노력": 7198,
      "지나": 7199,
      "남자": 7200,
      "한편": 7201,
      "건설": 7202,
      "대부": 7203,
      "얼굴": 7204,
      "가치": 7205,
      "24": 7206,
      "해도": 7207,
      "피해": 7208,
      "라면": 7209,
      "분야": 7210,
      "역할": 7211,
      "제도": 7212,
      "##진다": 7213,
      "이루": 7214,
      "활용": 7215,
      "세상": 7216,
      "나가": 7217,
      "확대": 7218,
      "강조": 7219,
      "책임": 7220,
      "과학": 7221,
      "회의": 7222,
      "마다": 7223,
      "##거리": 7224,
      "정신": 7225,
      "건강": 7226,
      "인사": 7227,
      "대로": 7228,
      "당신": 7229,
      "##he": 7230,
      "사고": 7231,
      "대부분": 7232,
      "전략": 7233,
      "어린": 7234,
      "유지": 7235,
      "강화": 7236,
      "선택": 7237,
      "22": 7238,
      "기능": 7239,
      "배우": 7240,
      "그룹": 7241,
      "먼저": 7242,
      "현실": 7243,
      "##이트": 7244,
      "중앙": 7245,
      "자체": 7246,
      "공개": 7247,
      "만나": 7248,
      "시즌": 7249,
      "한다고": 7250,
      "전망": 7251,
      "행정": 7252,
      "사진": 7253,
      "40": 7254,
      "는가": 7255,
      "시스": 7256,
      "찾아": 7257,
      "을까": 7258,
      "미래": 7259,
      "조금": 7260,
      "아버지": 7261,
      "안전": 7262,
      "못했": 7263,
      "로부터": 7264,
      "능력": 7265,
      "외국": 7266,
      "##전히": 7267,
      "주택": 7268,
      "23": 7269,
      "라도": 7270,
      "병원": 7271,
      "인천": 7272,
      "표현": 7273,
      "경험": 7274,
      "하루": 7275,
      "기자": 7276,
      "##다는": 7277,
      "##소리": 7278,
      "음악": 7279,
      "해결": 7280,
      "밖에": 7281,
      "공사": 7282,
      "여행": 7283,
      "예상": 7284,
      "인정": 7285,
      "서로": 7286,
      "보험": 7287,
      "##이스": 7288,
      "기존": 7289,
      "관광": 7290,
      "전쟁": 7291,
      "게임": 7292,
      "목표": 7293,
      "비롯": 7294,
      "의해": 7295,
      "공간": 7296,
      "정상": 7297,
      "누구": 7298,
      "직원": 7299,
      "드러": 7300,
      "시스템": 7301,
      "해외": 7302,
      "개선": 7303,
      "올라": 7304,
      "197": 7305,
      "마을": 7306,
      "광주": 7307,
      "려고": 7308,
      "자동차": 7309,
      "따라서": 7310,
      "어디": 7311,
      "보인다": 7312,
      "오후": 7313,
      "아요": 7314,
      "머리": 7315,
      "나온": 7316,
      "위치": 7317,
      "계약": 7318,
      "거래": 7319,
      "현장": 7320,
      "주요": 7321,
      "못한": 7322,
      "기본": 7323,
      "지도": 7324,
      "아파": 7325,
      "고려": 7326,
      "##없이": 7327,
      "개월": 7328,
      "내려": 7329,
      "위기": 7330,
      "이전": 7331,
      "수사": 7332,
      "##BS": 7333,
      "실시": 7334,
      "방문": 7335,
      "아들": 7336,
      "##ic": 7337,
      "아서": 7338,
      "열린": 7339,
      "##너지": 7340,
      "26": 7341,
      "적용": 7342,
      "위원장": 7343,
      "27": 7344,
      "그램": 7345,
      "해당": 7346,
      "마지": 7347,
      "거리": 7348,
      "##is": 7349,
      "##민국": 7350,
      "반대": 7351,
      "지속": 7352,
      "추가": 7353,
      "설치": 7354,
      "28": 7355,
      "예술": 7356,
      "대비": 7357,
      "제작": 7358,
      "전화": 7359,
      "아야": 7360,
      "기회": 7361,
      "엄마": 7362,
      "단계": 7363,
      "거의": 7364,
      "대한민국": 7365,
      "으로써": 7366,
      "##마트": 7367,
      "아주": 7368,
      "행동": 7369,
      "마지막": 7370,
      "이사": 7371,
      "려는": 7372,
      "적극": 7373,
      "장관": 7374,
      "예산": 7375,
      "으로서": 7376,
      "상승": 7377,
      "##it": 7378,
      "도움": 7379,
      "업무": 7380,
      "통합": 7381,
      "유럽": 7382,
      "프랑": 7383,
      "치료": 7384,
      "##어난": 7385,
      "발견": 7386,
      "공연": 7387,
      "느냐": 7388,
      "바람": 7389,
      "들어가": 7390,
      "상당": 7391,
      "언론": 7392,
      "감사": 7393,
      "판단": 7394,
      "검찰": 7395,
      "작업": 7396,
      "영국": 7397,
      "동시": 7398,
      "집중": 7399,
      "리그": 7400,
      "행위": 7401,
      "아파트": 7402,
      "##동안": 7403,
      "작가": 7404,
      "##학교": 7405,
      "##스로": 7406,
      "대신": 7407,
      "차이": 7408,
      "매우": 7409,
      "바라": 7410,
      "부담": 7411,
      "공격": 7412,
      "##자리": 7413,
      "선생": 7414,
      "민주당": 7415,
      "자료": 7416,
      "수익": 7417,
      "비판": 7418,
      "보호": 7419,
      "선정": 7420,
      "사장": 7421,
      "##으나": 7422,
      "우선": 7423,
      "##나라": 7424,
      "달리": 7425,
      "각각": 7426,
      "음식": 7427,
      "어머니": 7428,
      "의사": 7429,
      "브랜드": 7430,
      "세요": 7431,
      "##at": 7432,
      "드라": 7433,
      "조성": 7434,
      "보내": 7435,
      "협력": 7436,
      "시켜": 7437,
      "문학": 7438,
      "의견": 7439,
      "처리": 7440,
      "과거": 7441,
      "내년": 7442,
      "조정": 7443,
      "스스로": 7444,
      "사무": 7445,
      "무슨": 7446,
      "확보": 7447,
      "##el": 7448,
      "그냥": 7449,
      "##디어": 7450,
      "그때": 7451,
      "단지": 7452,
      "독일": 7453,
      "TV": 7454,
      "만든": 7455,
      "29": 7456,
      "행복": 7457,
      "주변": 7458,
      "평균": 7459,
      "차지": 7460,
      "##리스": 7461,
      "결혼": 7462,
      "그림": 7463,
      "비용": 7464,
      "지구": 7465,
      "전문가": 7466,
      "부족": 7467,
      "##om": 7468,
      "공급": 7469,
      "이르": 7470,
      "주인": 7471,
      "출신": 7472,
      "관한": 7473,
      "인터넷": 7474,
      "움직": 7475,
      "더라도": 7476,
      "보도": 7477,
      "기억": 7478,
      "나왔": 7479,
      "##른다": 7480,
      "안정": 7481,
      "가까": 7482,
      "위험": 7483,
      "목소리": 7484,
      "형태": 7485,
      "공부": 7486,
      "인식": 7487,
      "목적": 7488,
      "196": 7489,
      "글로": 7490,
      "으나": 7491,
      "순간": 7492,
      "자금": 7493,
      "프랑스": 7494,
      "제대로": 7495,
      "진짜": 7496,
      "누리": 7497,
      "전자": 7498,
      "전통": 7499,
      "##린다": 7500,
      "근데": 7501,
      "스러": 7502,
      "이익": 7503,
      "부모": 7504,
      "수출": 7505,
      "어렵": 7506,
      "제시": 7507,
      "분위": 7508,
      "언제": 7509,
      "의식": 7510,
      "말씀": 7511,
      "통신": 7512,
      "에너지": 7513,
      "##전자": 7514,
      "스럽": 7515,
      "복지": 7516,
      "##ol": 7517,
      "보였": 7518,
      "2010": 7519,
      "지지": 7520,
      "거든": 7521,
      "모델": 7522,
      "시기": 7523,
      "대책": 7524,
      "글로벌": 7525,
      "인기": 7526,
      "디자": 7527,
      "##가지": 7528,
      "매출": 7529,
      "최초": 7530,
      "영업": 7531,
      "##ing": 7532,
      "비교": 7533,
      "2000": 7534,
      "분위기": 7535,
      "규정": 7536,
      "2012": 7537,
      "주식": 7538,
      "도입": 7539,
      "환자": 7540,
      "반면": 7541,
      "그대로": 7542,
      "분명": 7543,
      "교통": 7544,
      "나이": 7545,
      "지요": 7546,
      "노래": 7547,
      "앞서": 7548,
      "방안": 7549,
      "종합": 7550,
      "60": 7551,
      "대전": 7552,
      "전시": 7553,
      "신문": 7554,
      "제기": 7555,
      "우승": 7556,
      "그럼": 7557,
      "소비자": 7558,
      "우려": 7559,
      "오히": 7560,
      "롯데": 7561,
      "오히려": 7562,
      "LG": 7563,
      "체험": 7564,
      "이뤄": 7565,
      "얼마나": 7566,
      "가구": 7567,
      "##am": 7568,
      "느낌": 7569,
      "##st": 7570,
      "시행": 7571,
      "아래": 7572,
      "생명": 7573,
      "방향": 7574,
      "소설": 7575,
      "의료": 7576,
      "##이어": 7577,
      "차례": 7578,
      "공장": 7579,
      "등장": 7580,
      "충분": 7581,
      "핵심": 7582,
      "제주": 7583,
      "기다": 7584,
      "스마트": 7585,
      "예요": 7586,
      "따른": 7587,
      "##tion": 7588,
      "31": 7589,
      "논의": 7590,
      "개최": 7591,
      "고자": 7592,
      "축구": 7593,
      "장애": 7594,
      "##ou": 7595,
      "비해": 7596,
      "참가": 7597,
      "설립": 7598,
      "지식": 7599,
      "인상": 7600,
      "##레스": 7601,
      "소개": 7602,
      "인물": 7603,
      "일정": 7604,
      "가정": 7605,
      "2014": 7606,
      "소속": 7607,
      "한테": 7608,
      "피부": 7609,
      "검사": 7610,
      "높이": 7611,
      "2011": 7612,
      "광고": 7613,
      "현상": 7614,
      "시절": 7615,
      "이동": 7616,
      "가진": 7617,
      "올림": 7618,
      "질문": 7619,
      "##어지": 7620,
      "수도": 7621,
      "연결": 7622,
      "##re": 7623,
      "##아들": 7624,
      "세기": 7625,
      "기획": 7626,
      "마치": 7627,
      "인해": 7628,
      "중소": 7629,
      "유명": 7630,
      "카드": 7631,
      "장기": 7632,
      "다르": 7633,
      "전혀": 7634,
      "2009": 7635,
      "SK": 7636,
      "##이터": 7637,
      "전기": 7638,
      "2008": 7639,
      "부문": 7640,
      "##il": 7641,
      "더니": 7642,
      "기사": 7643,
      "잖아": 7644,
      "2013": 7645,
      "으로부터": 7646,
      "거기": 7647,
      "개혁": 7648,
      "조건": 7649,
      "아름": 7650,
      "신청": 7651,
      "##한다": 7652,
      "도로": 7653,
      "네요": 7654,
      "민족": 7655,
      "##기업": 7656,
      "2015": 7657,
      "드라마": 7658,
      "대화": 7659,
      "사상": 7660,
      "잘못": 7661,
      "참석": 7662,
      "가져": 7663,
      "유치": 7664,
      "아침": 7665,
      "인도": 7666,
      "차량": 7667,
      "##아가": 7668,
      "에선": 7669,
      "희망": 7670,
      "오전": 7671,
      "연기": 7672,
      "##라인": 7673,
      "정당": 7674,
      "담당": 7675,
      "공식": 7676,
      "청소": 7677,
      "업계": 7678,
      "힘들": 7679,
      "진출": 7680,
      "올림픽": 7681,
      "스포": 7682,
      "시험": 7683,
      "사례": 7684,
      "이게": 7685,
      "지난달": 7686,
      "개념": 7687,
      "각종": 7688,
      "재정": 7689,
      "건물": 7690,
      "부동": 7691,
      "대출": 7692,
      "성과": 7693,
      "##et": 7694,
      "디자인": 7695,
      "바이": 7696,
      "이곳": 7697,
      "체계": 7698,
      "##nd": 7699,
      "##BC": 7700,
      "공공": 7701,
      "그만": 7702,
      "혁신": 7703,
      "합의": 7704,
      "아시아": 7705,
      "펀드": 7706,
      "내부": 7707,
      "##이션": 7708,
      "시청": 7709,
      "주목": 7710,
      "출시": 7711,
      "의회": 7712,
      "인구": 7713,
      "아마": 7714,
      "자본": 7715,
      "##무원": 7716,
      "출연": 7717,
      "소득": 7718,
      "걱정": 7719,
      "훈련": 7720,
      "##인트": 7721,
      "졸업": 7722,
      "나타났": 7723,
      "정확": 7724,
      "재판": 7725,
      "본부": 7726,
      "다니": 7727,
      "혐의": 7728,
      "체제": 7729,
      "나무": 7730,
      "교사": 7731,
      "##이지": 7732,
      "수요": 7733,
      "사라": 7734,
      "70": 7735,
      "##이크": 7736,
      "경기도": 7737,
      "인제": 7738,
      "협의": 7739,
      "세대": 7740,
      "##ul": 7741,
      "단순": 7742,
      "수입": 7743,
      "기반": 7744,
      "원인": 7745,
      "##스터": 7746,
      "구체": 7747,
      "준다": 7748,
      "of": 7749,
      "대형": 7750,
      "연합": 7751,
      "논란": 7752,
      "러시아": 7753,
      "어린이": 7754,
      "스포츠": 7755,
      "버리": 7756,
      "청와": 7757,
      "가입": 7758,
      "청와대": 7759,
      "고민": 7760,
      "대응": 7761,
      "남편": 7762,
      "오래": 7763,
      "일단": 7764,
      "부동산": 7765,
      "자원": 7766,
      "무대": 7767,
      "자산": 7768,
      "요즘": 7769,
      "부정": 7770,
      "반응": 7771,
      "습니까": 7772,
      "평화": 7773,
      "195": 7774,
      "교회": 7775,
      "주제": 7776,
      "감소": 7777,
      "독립": 7778,
      "##ch": 7779,
      "비슷": 7780,
      "지정": 7781,
      "구축": 7782,
      "차원": 7783,
      "실제로": 7784,
      "형성": 7785,
      "##므로": 7786,
      "전달": 7787,
      "승리": 7788,
      "선보": 7789,
      "느끼": 7790,
      "##어들": 7791,
      "조치": 7792,
      "거든요": 7793,
      "듯이": 7794,
      "이하": 7795,
      "에요": 7796,
      "가슴": 7797,
      "영어": 7798,
      "항공": 7799,
      "여름": 7800,
      "보고": 7801,
      "전환": 7802,
      "청년": 7803,
      "남성": 7804,
      "공원": 7805,
      "경남": 7806,
      "수상": 7807,
      "나와": 7808,
      "반영": 7809,
      "검토": 7810,
      "고등": 7811,
      "모양": 7812,
      "선물": 7813,
      "초등": 7814,
      "이끌": 7815,
      "불과": 7816,
      "2007": 7817,
      "주로": 7818,
      "했으며": 7819,
      "으니": 7820,
      "감정": 7821,
      "아내": 7822,
      "인생": 7823,
      "194": 7824,
      "##라이": 7825,
      "수행": 7826,
      "다만": 7827,
      "##디오": 7828,
      "어려운": 7829,
      "월드": 7830,
      "자세": 7831,
      "##반기": 7832,
      "기념": 7833,
      "언어": 7834,
      "울산": 7835,
      "하늘": 7836,
      "본격": 7837,
      "증권": 7838,
      "분양": 7839,
      "지하": 7840,
      "만드": 7841,
      "##수록": 7842,
      "제외": 7843,
      "일상": 7844,
      "그동안": 7845,
      "부르": 7846,
      "선발": 7847,
      "라이": 7848,
      "등록": 7849,
      "##le": 7850,
      "마찬": 7851,
      "성적": 7852,
      "금리": 7853,
      "한다면": 7854,
      "##20": 7855,
      "군사": 7856,
      "35": 7857,
      "기초": 7858,
      "마찬가지": 7859,
      "##자기": 7860,
      "고용": 7861,
      "국정": 7862,
      "2016": 7863,
      "프리": 7864,
      "개정": 7865,
      "맛있": 7866,
      "회복": 7867,
      "혹은": 7868,
      "나타나": 7869,
      "해요": 7870,
      "넘어": 7871,
      "어도": 7872,
      "확실": 7873,
      "여전히": 7874,
      "받아들": 7875,
      "제한": 7876,
      "우수": 7877,
      "떠나": 7878,
      "분기": 7879,
      "여부": 7880,
      "지켜": 7881,
      "소재": 7882,
      "지급": 7883,
      "부인": 7884,
      "일어나": 7885,
      "파악": 7886,
      "최종": 7887,
      "학습": 7888,
      "투표": 7889,
      "현지": 7890,
      "이론": 7891,
      "으면서": 7892,
      "신경": 7893,
      "500": 7894,
      "해석": 7895,
      "##우스": 7896,
      "대학교": 7897,
      "대중": 7898,
      "80": 7899,
      "주도": 7900,
      "집단": 7901,
      "규제": 7902,
      "활성": 7903,
      "협회": 7904,
      "사망": 7905,
      "노조": 7906,
      "학년": 7907,
      "연속": 7908,
      "##어났": 7909,
      "##운드": 7910,
      "외국인": 7911,
      "대선": 7912,
      "정권": 7913,
      "통일": 7914,
      "구매": 7915,
      "코스": 7916,
      "살펴": 7917,
      "시켰": 7918,
      "보장": 7919,
      "추천": 7920,
      "##스크": 7921,
      "공항": 7922,
      "실패": 7923,
      "그게": 7924,
      "박근": 7925,
      "이미지": 7926,
      "보수": 7927,
      "공정": 7928,
      "##드시": 7929,
      "시도": 7930,
      "반드시": 7931,
      "시킨": 7932,
      "포인트": 7933,
      "전했": 7934,
      "혼자": 7935,
      "야구": 7936,
      "자주": 7937,
      "임금": 7938,
      "비율": 7939,
      "요청": 7940,
      "오른": 7941,
      "공무원": 7942,
      "만족": 7943,
      "작용": 7944,
      "정리": 7945,
      "갈등": 7946,
      "영상": 7947,
      "종교": 7948,
      "올리": 7949,
      "법원": 7950,
      "대체": 7951,
      "의지": 7952,
      "고요": 7953,
      "민간": 7954,
      "일으": 7955,
      "가르": 7956,
      "화장": 7957,
      "박근혜": 7958,
      "동물": 7959,
      "속도": 7960,
      "변호": 7961,
      "약속": 7962,
      "노인": 7963,
      "아름다": 7964,
      "일자리": 7965,
      "제안": 7966,
      "려면": 7967,
      "거쳐": 7968,
      "제조": 7969,
      "##다고": 7970,
      "남북": 7971,
      "식품": 7972,
      "건축": 7973,
      "보통": 7974,
      "권력": 7975,
      "이거": 7976,
      "오르": 7977,
      "##은행": 7978,
      "세력": 7979,
      "협상": 7980,
      "특징": 7981,
      "스타일": 7982,
      "보유": 7983,
      "겨울": 7984,
      "외교": 7985,
      "##as": 7986,
      "매일": 7987,
      "달라": 7988,
      "뉴스": 7989,
      "##ed": 7990,
      "정의": 7991,
      "므로": 7992,
      "당연": 7993,
      "축제": 7994,
      "특정": 7995,
      "요소": 7996,
      "연구원": 7997,
      "훨씬": 7998,
      "미술": 7999,
      "영역": 8000,
      "지배": 8001,
      "항상": 8002,
      "도전": 8003,
      "홍보": 8004,
      "성격": 8005,
      "버스": 8006,
      "최소": 8007,
      "철학": 8008,
      "불구": 8009,
      "통한": 8010,
      "호텔": 8011,
      "KBS": 8012,
      "경북": 8013,
      "##od": 8014,
      "회원": 8015,
      "2006": 8016,
      "방침": 8017,
      "재미": 8018,
      "the": 8019,
      "스트": 8020,
      "내놓": 8021,
      "선언": 8022,
      "께서": 8023,
      "##스타": 8024,
      "나서": 8025,
      "알려졌": 8026,
      "절차": 8027,
      "변경": 8028,
      "원칙": 8029,
      "저녁": 8030,
      "진정": 8031,
      "불안": 8032,
      "심리": 8033,
      "유통": 8034,
      "하이": 8035,
      "##요일": 8036,
      "은데": 8037,
      "##ㅋㅋ": 8038,
      "죽음": 8039,
      "그리스": 8040,
      "바다": 8041,
      "중소기업": 8042,
      "하락": 8043,
      "##페인": 8044,
      "강력": 8045,
      "바라보": 8046,
      "사항": 8047,
      "특성": 8048,
      "마리": 8049,
      "토론": 8050,
      "소통": 8051,
      "그러니까": 8052,
      "둘러": 8053,
      "체육": 8054,
      "000": 8055,
      "##스코": 8056,
      "수술": 8057,
      "전해": 8058,
      "혁명": 8059,
      "굉장": 8060,
      "갑자기": 8061,
      "빠져": 8062,
      "in": 8063,
      "##어진": 8064,
      "원장": 8065,
      "만약": 8066,
      "기분": 8067,
      "설계": 8068,
      "조차": 8069,
      "시각": 8070,
      "##러스": 8071,
      "##다가": 8072,
      "창조": 8073,
      "불러": 8074,
      "총리": 8075,
      "물질": 8076,
      "실적": 8077,
      "절대": 8078,
      "스러운": 8079,
      "나누": 8080,
      "엄청": 8081,
      "인수": 8082,
      "대답": 8083,
      "2017": 8084,
      "접근": 8085,
      "소유": 8086,
      "신고": 8087,
      "고개": 8088,
      "하나님": 8089,
      "##프트": 8090,
      "유리": 8091,
      "바탕": 8092,
      "자치": 8093,
      "근로": 8094,
      "사태": 8095,
      "수원": 8096,
      "경쟁력": 8097,
      "더불": 8098,
      "마케": 8099,
      "청소년": 8100,
      "봉사": 8101,
      "열리": 8102,
      "여야": 8103,
      "삼성전자": 8104,
      "회담": 8105,
      "직장": 8106,
      "그래도": 8107,
      "의혹": 8108,
      "측면": 8109,
      "근무": 8110,
      "##ation": 8111,
      "##리카": 8112,
      "재산": 8113,
      "내리": 8114,
      "사전": 8115,
      "무역": 8116,
      "불법": 8117,
      "골프": 8118,
      "창업": 8119,
      "2018": 8120,
      "프로젝": 8121,
      "강원": 8122,
      "빨리": 8123,
      "취업": 8124,
      "태도": 8125,
      "언급": 8126,
      "수업": 8127,
      "45": 8128,
      "촬영": 8129,
      "불리": 8130,
      "36": 8131,
      "차별": 8132,
      "알아": 8133,
      "으려": 8134,
      "자녀": 8135,
      "장소": 8136,
      "소식": 8137,
      "주의": 8138,
      "고통": 8139,
      "돌아가": 8140,
      "법인": 8141,
      "##us": 8142,
      "마케팅": 8143,
      "통과": 8144,
      "굉장히": 8145,
      "여론": 8146,
      "프로젝트": 8147,
      "##나무": 8148,
      "2005": 8149,
      "덧붙": 8150,
      "##ent": 8151,
      "인력": 8152,
      "대사": 8153,
      "작년": 8154,
      "33": 8155,
      "됩니다": 8156,
      "주문": 8157,
      "는데요": 8158,
      "범죄": 8159,
      "구속": 8160,
      "중단": 8161,
      "초기": 8162,
      "유일": 8163,
      "일까": 8164,
      "심사": 8165,
      "시리": 8166,
      "근거": 8167,
      "아프": 8168,
      "생기": 8169,
      "신뢰": 8170,
      "된다는": 8171,
      "거부": 8172,
      "##ac": 8173,
      "출발": 8174,
      "제일": 8175,
      "타이": 8176,
      "지키": 8177,
      "##니스": 8178,
      "##의원": 8179,
      "누가": 8180,
      "32": 8181,
      "쇼핑": 8182,
      "원래": 8183,
      "포기": 8184,
      "계기": 8185,
      "달성": 8186,
      "193": 8187,
      "김정": 8188,
      "조합": 8189,
      "약간": 8190,
      "##이드": 8191,
      "올랐": 8192,
      "완성": 8193,
      "확정": 8194,
      "MBC": 8195,
      "부부": 8196,
      "for": 8197,
      "심각": 8198,
      "드리": 8199,
      "완전히": 8200,
      "과제": 8201,
      "표정": 8202,
      "1000": 8203,
      "대하": 8204,
      "인근": 8205,
      "잠시": 8206,
      "300": 8207,
      "본다": 8208,
      "나온다": 8209,
      "안타": 8210,
      "##ro": 8211,
      "##니아": 8212,
      "세월": 8213,
      "효율": 8214,
      "##심히": 8215,
      "교과": 8216,
      "향후": 8217,
      "의한": 8218,
      "이란": 8219,
      "제출": 8220,
      "지사": 8221,
      "등급": 8222,
      "연금": 8223,
      "커피": 8224,
      "금액": 8225,
      "외부": 8226,
      "발언": 8227,
      "이탈": 8228,
      "동일": 8229,
      "브라": 8230,
      "##무리": 8231,
      "컴퓨": 8232,
      "##ㅠㅠ": 8233,
      "##서관": 8234,
      "화학": 8235,
      "온라인": 8236,
      "본인": 8237,
      "가리": 8238,
      "다리": 8239,
      "비중": 8240,
      "금지": 8241,
      "바꾸": 8242,
      "2004": 8243,
      "신용": 8244,
      "해양": 8245,
      "달려": 8246,
      "으니까": 8247,
      "나섰": 8248,
      "변호사": 8249,
      "법률": 8250,
      "향해": 8251,
      "실천": 8252,
      "우주": 8253,
      "바뀌": 8254,
      "강한": 8255,
      "텔레": 8256,
      "저희": 8257,
      "노동자": 8258,
      "이때": 8259,
      "주가": 8260,
      "살아": 8261,
      "장면": 8262,
      "소송": 8263,
      "전형": 8264,
      "전남": 8265,
      "레이": 8266,
      "베이": 8267,
      "잖아요": 8268,
      "상담": 8269,
      "가량": 8270,
      "임대": 8271,
      "나머": 8272,
      "마시": 8273,
      "요리": 8274,
      "재단": 8275,
      "가득": 8276,
      "예방": 8277,
      "느껴": 8278,
      "수용": 8279,
      "형식": 8280,
      "나머지": 8281,
      "눈물": 8282,
      "철도": 8283,
      "오랜": 8284,
      "##다보": 8285,
      "계열": 8286,
      "앞두": 8287,
      "시리즈": 8288,
      "그랬": 8289,
      "할인": 8290,
      "컴퓨터": 8291,
      "박사": 8292,
      "90": 8293,
      "##벤트": 8294,
      "헌법": 8295,
      "여러분": 8296,
      "당국": 8297,
      "스마트폰": 8298,
      "##거운": 8299,
      "시킬": 8300,
      "배치": 8301,
      "카페": 8302,
      "도착": 8303,
      "의무": 8304,
      "미치": 8305,
      "이벤트": 8306,
      "혜택": 8307,
      "했으나": 8308,
      "마무리": 8309,
      "강남": 8310,
      "특수": 8311,
      "전력": 8312,
      "밝혀": 8313,
      "리더": 8314,
      "주인공": 8315,
      "전투": 8316,
      "데이터": 8317,
      "연구소": 8318,
      "2002": 8319,
      "로운": 8320,
      "가수": 8321,
      "##텐츠": 8322,
      "상상": 8323,
      "##ur": 8324,
      "케이": 8325,
      "5000": 8326,
      "당선": 8327,
      "창출": 8328,
      "지수": 8329,
      "버렸": 8330,
      "그럴": 8331,
      "34": 8332,
      "열심히": 8333,
      "자격": 8334,
      "완전": 8335,
      "미디어": 8336,
      "수학": 8337,
      "권리": 8338,
      "플레이": 8339,
      "떨어지": 8340,
      "기다리": 8341,
      "고등학교": 8342,
      "매년": 8343,
      "The": 8344,
      "독자": 8345,
      "상징": 8346,
      "충분히": 8347,
      "배경": 8348,
      "##ag": 8349,
      "##학생": 8350,
      "부여": 8351,
      "중간": 8352,
      "38": 8353,
      "펼쳐": 8354,
      "그러면": 8355,
      "부장": 8356,
      "들여": 8357,
      "전용": 8358,
      "km": 8359,
      "통화": 8360,
      "라인": 8361,
      "##id": 8362,
      "매장": 8363,
      "전반": 8364,
      "놀라": 8365,
      "학부": 8366,
      "인터뷰": 8367,
      "요인": 8368,
      "##ig": 8369,
      "식사": 8370,
      "동아": 8371,
      "아도": 8372,
      "직업": 8373,
      "의장": 8374,
      "투입": 8375,
      "겁니다": 8376,
      "태양": 8377,
      "그린": 8378,
      "##고기": 8379,
      "체결": 8380,
      "평소": 8381,
      "할지": 8382,
      "2003": 8383,
      "아빠": 8384,
      "KT": 8385,
      "부상": 8386,
      "서울시": 8387,
      "향상": 8388,
      "작성": 8389,
      "##라도": 8390,
      "연장": 8391,
      "이른": 8392,
      "and": 8393,
      "연대": 8394,
      "신규": 8395,
      "을지": 8396,
      "자는": 8397,
      "메시": 8398,
      "덧붙였": 8399,
      "집행": 8400,
      "출전": 8401,
      "인한": 8402,
      "상호": 8403,
      "##화점": 8404,
      "아무리": 8405,
      "연출": 8406,
      "흔들": 8407,
      "뭔가": 8408,
      "어려움": 8409,
      "네트": 8410,
      "채용": 8411,
      "월드컵": 8412,
      "의하": 8413,
      "논리": 8414,
      "종류": 8415,
      "미리": 8416,
      "긍정": 8417,
      "나선": 8418,
      "##ad": 8419,
      "한나라": 8420,
      "통해서": 8421,
      "실험": 8422,
      "한나라당": 8423,
      "확산": 8424,
      "공유": 8425,
      "동의": 8426,
      "이어지": 8427,
      "빠르": 8428,
      "국방": 8429,
      "국립": 8430,
      "웃음": 8431,
      "인권": 8432,
      "전하": 8433,
      "괜찮": 8434,
      "구입": 8435,
      "기구": 8436,
      "설정": 8437,
      "콘텐츠": 8438,
      "벗어나": 8439,
      "수석": 8440,
      "시점": 8441,
      "구나": 8442,
      "패션": 8443,
      "진단": 8444,
      "사정": 8445,
      "기계": 8446,
      "뉴욕": 8447,
      "부대": 8448,
      "복합": 8449,
      "투자자": 8450,
      "보상": 8451,
      "국회의원": 8452,
      "물건": 8453,
      "매력": 8454,
      "주말": 8455,
      "무기": 8456,
      "문재": 8457,
      "반복": 8458,
      "사과": 8459,
      "꾸준": 8460,
      "폭력": 8461,
      "걸쳐": 8462,
      "아닐": 8463,
      "위하": 8464,
      "사이트": 8465,
      "알리": 8466,
      "육성": 8467,
      "불편": 8468,
      "맞춰": 8469,
      "37": 8470,
      "학원": 8471,
      "##간다": 8472,
      "수단": 8473,
      "한계": 8474,
      "야당": 8475,
      "실현": 8476,
      "철저": 8477,
      "기울": 8478,
      "토지": 8479,
      "아름다운": 8480,
      "흐름": 8481,
      "출판": 8482,
      "그거": 8483,
      "휴대": 8484,
      "##난다": 8485,
      "연계": 8486,
      "종목": 8487,
      "위반": 8488,
      "선진": 8489,
      "판결": 8490,
      "부지": 8491,
      "##바일": 8492,
      "기여": 8493,
      "구분": 8494,
      "순위": 8495,
      "예비": 8496,
      "##일보": 8497,
      "당하": 8498,
      "구간": 8499,
      "구역": 8500,
      "마이": 8501,
      "교육청": 8502,
      "모바일": 8503,
      "나갈": 8504,
      "국토": 8505,
      "점점": 8506,
      "구요": 8507,
      "나중": 8508,
      "도와": 8509,
      "채권": 8510,
      "살펴보": 8511,
      "##워크": 8512,
      "스토": 8513,
      "##란드": 8514,
      "균형": 8515,
      "올려": 8516,
      "다며": 8517,
      "보고서": 8518,
      "표시": 8519,
      "##ec": 8520,
      "똑같": 8521,
      "자랑": 8522,
      "디지": 8523,
      "확장": 8524,
      "가을": 8525,
      "수많": 8526,
      "농업": 8527,
      "와서": 8528,
      "보건": 8529,
      "대변": 8530,
      "55": 8531,
      "비밀": 8532,
      "입주": 8533,
      "지상": 8534,
      "비행": 8535,
      "생태": 8536,
      "장치": 8537,
      "##em": 8538,
      "고양": 8539,
      "할머니": 8540,
      "무료": 8541,
      "고기": 8542,
      "명령": 8543,
      "아닌가": 8544,
      "소장": 8545,
      "적절": 8546,
      "결코": 8547,
      "극복": 8548,
      "든지": 8549,
      "이명": 8550,
      "제국": 8551,
      "연주": 8552,
      "교체": 8553,
      "청구": 8554,
      "의도": 8555,
      "증거": 8556,
      "단위": 8557,
      "시인": 8558,
      "##반도": 8559,
      "통제": 8560,
      "마저": 8561,
      "시선": 8562,
      "된다고": 8563,
      "갖추": 8564,
      "봐야": 8565,
      "는다는": 8566,
      "줄이": 8567,
      "지시": 8568,
      "추정": 8569,
      "모아": 8570,
      "정비": 8571,
      "백화점": 8572,
      "##un": 8573,
      "무리": 8574,
      "주체": 8575,
      "의심": 8576,
      "48": 8577,
      "추구": 8578,
      "허용": 8579,
      "디지털": 8580,
      "편지": 8581,
      "2001": 8582,
      "##ot": 8583,
      "고속": 8584,
      "위협": 8585,
      "노선": 8586,
      "에스": 8587,
      "관객": 8588,
      "계산": 8589,
      "##페이지": 8590,
      "그곳": 8591,
      "가까운": 8592,
      "범위": 8593,
      "당장": 8594,
      "홈페이지": 8595,
      "간단": 8596,
      "메시지": 8597,
      "실장": 8598,
      "모집": 8599,
      "아동": 8600,
      "운용": 8601,
      "불가": 8602,
      "수정": 8603,
      "누군": 8604,
      "경향": 8605,
      "동기": 8606,
      "과연": 8607,
      "기타": 8608,
      "긴장": 8609,
      "상당히": 8610,
      "발행": 8611,
      "총선": 8612,
      "과장": 8613,
      "오픈": 8614,
      "이달": 8615,
      "이탈리아": 8616,
      "충격": 8617,
      "운전": 8618,
      "진보": 8619,
      "폐지": 8620,
      "분리": 8621,
      "##ula": 8622,
      "정규": 8623,
      "가까이": 8624,
      "##ter": 8625,
      "인하": 8626,
      "연간": 8627,
      "39": 8628,
      "물리": 8629,
      "메이": 8630,
      "크리스": 8631,
      "절반": 8632,
      "##환경": 8633,
      "기독": 8634,
      "form": 8635,
      "세트": 8636,
      "했었": 8637,
      "면적": 8638,
      "두려": 8639,
      "장비": 8640,
      "전년": 8641,
      "맛집": 8642,
      "떠올": 8643,
      "그건": 8644,
      "뿌리": 8645,
      "크기": 8646,
      "##가락": 8647,
      "진실": 8648,
      "편의": 8649,
      "점검": 8650,
      "강의": 8651,
      "아기": 8652,
      "##um": 8653,
      "민주주의": 8654,
      "다섯": 8655,
      "피해자": 8656,
      "원내": 8657,
      "모임": 8658,
      "전부": 8659,
      "네트워크": 8660,
      "베트": 8661,
      "움직이": 8662,
      "예전": 8663,
      "바닥": 8664,
      "방지": 8665,
      "중학교": 8666,
      "191": 8667,
      "다이": 8668,
      "모른다": 8669,
      "전개": 8670,
      "반발": 8671,
      "지점": 8672,
      "요금": 8673,
      "한반도": 8674,
      "##다면": 8675,
      "분류": 8676,
      "취임": 8677,
      "늘어나": 8678,
      "동생": 8679,
      "해소": 8680,
      "자율": 8681,
      "로마": 8682,
      "따뜻": 8683,
      "IT": 8684,
      "ㅎㅎ": 8685,
      "교류": 8686,
      "수수": 8687,
      "모여": 8688,
      "자극": 8689,
      "42": 8690,
      "formula": 8691,
      "완화": 8692,
      "고급": 8693,
      "궁금": 8694,
      "인재": 8695,
      "들어갔": 8696,
      "세금": 8697,
      "원자": 8698,
      "##럼프": 8699,
      "총장": 8700,
      "새롭": 8701,
      "65": 8702,
      "##ow": 8703,
      "안보": 8704,
      "즐기": 8705,
      "이건": 8706,
      "김영": 8707,
      "아르": 8708,
      "대우": 8709,
      "제거": 8710,
      "다이어": 8711,
      "##르크": 8712,
      "자식": 8713,
      "생긴": 8714,
      "돌려": 8715,
      "개국": 8716,
      "공약": 8717,
      "창원": 8718,
      "부처": 8719,
      "근대": 8720,
      "출마": 8721,
      "다소": 8722,
      "유형": 8723,
      "합리": 8724,
      "보조": 8725,
      "정기": 8726,
      "##메라": 8727,
      "대단": 8728,
      "데뷔": 8729,
      "마침": 8730,
      "결론": 8731,
      "명예": 8732,
      "최저": 8733,
      "일제": 8734,
      "미사": 8735,
      "벌이": 8736,
      "소프트": 8737,
      "##산물": 8738,
      "왜냐": 8739,
      "1990": 8740,
      "내일": 8741,
      "메뉴": 8742,
      "41": 8743,
      "별로": 8744,
      "흘러": 8745,
      "예수": 8746,
      "192": 8747,
      "43": 8748,
      "캐릭": 8749,
      "공기": 8750,
      "가로": 8751,
      "기원": 8752,
      "강하": 8753,
      "인증": 8754,
      "슈퍼": 8755,
      "2020": 8756,
      "고향": 8757,
      "기독교": 8758,
      "어쩌": 8759,
      "결합": 8760,
      "공단": 8761,
      "어깨": 8762,
      "상관": 8763,
      "주일": 8764,
      "경주": 8765,
      "유사": 8766,
      "비난": 8767,
      "지자": 8768,
      "단어": 8769,
      "##러운": 8770,
      "임명": 8771,
      "실력": 8772,
      "실질": 8773,
      "밝히": 8774,
      "들어오": 8775,
      "주차": 8776,
      "입학": 8777,
      "싸움": 8778,
      "비상": 8779,
      "코리아": 8780,
      "예측": 8781,
      "캐릭터": 8782,
      "그걸": 8783,
      "끝나": 8784,
      "문자": 8785,
      "상처": 8786,
      "학자": 8787,
      "지도자": 8788,
      "지휘": 8789,
      "정체": 8790,
      "국장": 8791,
      "부품": 8792,
      "공동체": 8793,
      "활약": 8794,
      "##어날": 8795,
      "투쟁": 8796,
      "둘째": 8797,
      "##os": 8798,
      "천만": 8799,
      "나아가": 8800,
      "번호": 8801,
      "움직임": 8802,
      "무시": 8803,
      "어떠": 8804,
      "관광객": 8805,
      "장점": 8806,
      "연습": 8807,
      "관점": 8808,
      "도서관": 8809,
      "나요": 8810,
      "통하": 8811,
      "베트남": 8812,
      "최선": 8813,
      "강제": 8814,
      "어울": 8815,
      "75": 8816,
      "근본": 8817,
      "경계": 8818,
      "편성": 8819,
      "질환": 8820,
      "자전": 8821,
      "면은": 8822,
      "나올": 8823,
      "후반": 8824,
      "힘든": 8825,
      "채널": 8826,
      "##ay": 8827,
      "벌써": 8828,
      "식당": 8829,
      "이내": 8830,
      "으므로": 8831,
      "트럼프": 8832,
      "만난": 8833,
      "희생": 8834,
      "응답": 8835,
      "블랙": 8836,
      "점수": 8837,
      "세우": 8838,
      "##말로": 8839,
      "동료": 8840,
      "44": 8841,
      "이성": 8842,
      "부드": 8843,
      "부탁": 8844,
      "끌어": 8845,
      "공감": 8846,
      "어찌": 8847,
      "인민": 8848,
      "빠른": 8849,
      "따로": 8850,
      "완벽": 8851,
      "##라스": 8852,
      "거듭": 8853,
      "##란다": 8854,
      "##ve": 8855,
      "이래": 8856,
      "덕분": 8857,
      "투어": 8858,
      "공천": 8859,
      "오늘날": 8860,
      "역량": 8861,
      "1999": 8862,
      "해졌": 8863,
      "공화": 8864,
      "투수": 8865,
      "에게서": 8866,
      "할까": 8867,
      "기부": 8868,
      "멤버": 8869,
      "이기": 8870,
      "탄생": 8871,
      "##ir": 8872,
      "##비아": 8873,
      "충남": 8874,
      "클럽": 8875,
      "품질": 8876,
      "St": 8877,
      "1998": 8878,
      "수립": 8879,
      "누군가": 8880,
      "개편": 8881,
      "한데": 8882,
      "##아지": 8883,
      "별도": 8884,
      "스테": 8885,
      "처벌": 8886,
      "46": 8887,
      "##ers": 8888,
      "사업자": 8889,
      "그려": 8890,
      "손해": 8891,
      "새벽": 8892,
      "재료": 8893,
      "게다가": 8894,
      "복잡": 8895,
      "회견": 8896,
      "지자체": 8897,
      "거대": 8898,
      "정해": 8899,
      "매각": 8900,
      "이명박": 8901,
      "박물": 8902,
      "동원": 8903,
      "배출": 8904,
      "평생": 8905,
      "##리오": 8906,
      "형사": 8907,
      "소녀": 8908,
      "##og": 8909,
      "파괴": 8910,
      "SBS": 8911,
      "주년": 8912,
      "였으며": 8913,
      "표준": 8914,
      "##구요": 8915,
      "앨범": 8916,
      "필수": 8917,
      "올렸": 8918,
      "조용": 8919,
      "단일": 8920,
      "머물": 8921,
      "아닙": 8922,
      "##르트": 8923,
      "연극": 8924,
      "지분": 8925,
      "어제": 8926,
      "##ess": 8927,
      "챔피": 8928,
      "문재인": 8929,
      "전면": 8930,
      "들려": 8931,
      "##ri": 8932,
      "이외": 8933,
      "##사자": 8934,
      "거주": 8935,
      "군대": 8936,
      "애플": 8937,
      "##공사": 8938,
      "안내": 8939,
      "47": 8940,
      "승부": 8941,
      "협약": 8942,
      "이웃": 8943,
      "세워": 8944,
      "2019": 8945,
      "1997": 8946,
      "국무": 8947,
      "##ce": 8948,
      "한화": 8949,
      "시위": 8950,
      "##리트": 8951,
      "3000": 8952,
      "올라가": 8953,
      "대리": 8954,
      "거짓": 8955,
      "카메라": 8956,
      "파리": 8957,
      "그만큼": 8958,
      "다루": 8959,
      "내세": 8960,
      "##메달": 8961,
      "제목": 8962,
      "대안": 8963,
      "##회장": 8964,
      "친환경": 8965,
      "동네": 8966,
      "관람": 8967,
      "실수": 8968,
      "감안": 8969,
      "보냈": 8970,
      "##준다": 8971,
      "도덕": 8972,
      "분명히": 8973,
      "선고": 8974,
      "근로자": 8975,
      "이자": 8976,
      "홈런": 8977,
      "눈길": 8978,
      "임시": 8979,
      "꾸준히": 8980,
      "박물관": 8981,
      "뛰어": 8982,
      "스페인": 8983,
      "가스": 8984,
      "처분": 8985,
      "황제": 8986,
      "49": 8987,
      "통계": 8988,
      "발달": 8989,
      "한국인": 8990,
      "데이": 8991,
      "주위": 8992,
      "발굴": 8993,
      "52": 8994,
      "개입": 8995,
      "400": 8996,
      "공모": 8997,
      "초대": 8998,
      "집안": 8999,
      "##oc": 9000,
      "물러": 9001,
      "자전거": 9002,
      "미소": 9003,
      "언제나": 9004,
      "군요": 9005,
      "직후": 9006,
      "저축": 9007,
      "##TA": 9008,
      "##어져": 9009,
      "##오르": 9010,
      "원리": 9011,
      "프리미": 9012,
      "통상": 9013,
      "유도": 9014,
      "##하면": 9015,
      "다수": 9016,
      "비즈": 9017,
      "내렸": 9018,
      "##op": 9019,
      "진입": 9020,
      "영양": 9021,
      "아이디어": 9022,
      "51": 9023,
      "양성": 9024,
      "정원": 9025,
      "후원": 9026,
      "건너": 9027,
      "언니": 9028,
      "좋아": 9029,
      "In": 9030,
      "##시오": 9031,
      "##리어": 9032,
      "대법": 9033,
      "돼야": 9034,
      "보증": 9035,
      "부채": 9036,
      "갖춘": 9037,
      "감각": 9038,
      "현대차": 9039,
      "##ut": 9040,
      "석유": 9041,
      "알려져": 9042,
      "소년": 9043,
      "맞추": 9044,
      "법안": 9045,
      "발휘": 9046,
      "서울대": 9047,
      "유가": 9048,
      "사실상": 9049,
      "연락": 9050,
      "승인": 9051,
      "팀장": 9052,
      "더라고": 9053,
      "이승": 9054,
      "##ap": 9055,
      "비록": 9056,
      "화려": 9057,
      "옮겨": 9058,
      "##아버지": 9059,
      "##버스": 9060,
      "공산": 9061,
      "구단": 9062,
      "학부모": 9063,
      "신설": 9064,
      "포항": 9065,
      "조기": 9066,
      "진다": 9067,
      "운행": 9068,
      "아무런": 9069,
      "개방": 9070,
      "##프라": 9071,
      "키우": 9072,
      "출범": 9073,
      "시티": 9074,
      "##센트": 9075,
      "권한": 9076,
      "저자": 9077,
      "질서": 9078,
      "성분": 9079,
      "수능": 9080,
      "극장": 9081,
      "깊이": 9082,
      "CE": 9083,
      "오리": 9084,
      "고서": 9085,
      "멀리": 9086,
      "나눠": 9087,
      "짜리": 9088,
      "다녀": 9089,
      "공포": 9090,
      "사내": 9091,
      "고교": 9092,
      "작전": 9093,
      "대기": 9094,
      "아까": 9095,
      "촉구": 9096,
      "자면": 9097,
      "아울": 9098,
      "버린": 9099,
      "냄새": 9100,
      "전공": 9101,
      "KB": 9102,
      "기도": 9103,
      "##뮤니": 9104,
      "바르": 9105,
      "하고": 9106,
      "매체": 9107,
      "인류": 9108,
      "커뮤니": 9109,
      "캠프": 9110,
      "타임": 9111,
      "여유": 9112,
      "부자": 9113,
      "경상": 9114,
      "그저": 9115,
      "너무나": 9116,
      "그날": 9117,
      "신체": 9118,
      "윤리": 9119,
      "이재": 9120,
      "원전": 9121,
      "##대표": 9122,
      "조절": 9123,
      "불만": 9124,
      "허가": 9125,
      "허리": 9126,
      "53": 9127,
      "##지어": 9128,
      "당연히": 9129,
      "190": 9130,
      "건립": 9131,
      "폭발": 9132,
      "혹시": 9133,
      "투명": 9134,
      "떨어져": 9135,
      "학과": 9136,
      "지내": 9137,
      "서구": 9138,
      "지닌": 9139,
      "역대": 9140,
      "사무실": 9141,
      "미군": 9142,
      "1980": 9143,
      "주거": 9144,
      "생겼": 9145,
      "떨어진": 9146,
      "##로스": 9147,
      "##피스": 9148,
      "손실": 9149,
      "##학자": 9150,
      "사유": 9151,
      "시내": 9152,
      "테이": 9153,
      "설득": 9154,
      "##회사": 9155,
      "일종": 9156,
      "걸어": 9157,
      "생존": 9158,
      "만났": 9159,
      "방어": 9160,
      "그러므로": 9161,
      "##바로": 9162,
      "이스": 9163,
      "본질": 9164,
      "흥미": 9165,
      "편집": 9166,
      "못해": 9167,
      "개별": 9168,
      "뮤지": 9169,
      "놀이": 9170,
      "훌륭": 9171,
      "54": 9172,
      "어른": 9173,
      "조각": 9174,
      "기에": 9175,
      "나갔": 9176,
      "광역": 9177,
      "에이": 9178,
      "검증": 9179,
      "습관": 9180,
      "업종": 9181,
      "생겨": 9182,
      "현금": 9183,
      "개성": 9184,
      "수비": 9185,
      "가졌": 9186,
      "Ch": 9187,
      "종이": 9188,
      "날씨": 9189,
      "엄청난": 9190,
      "이른바": 9191,
      "취지": 9192,
      "##케이션": 9193,
      "오빠": 9194,
      "성인": 9195,
      "보안": 9196,
      "논문": 9197,
      "초반": 9198,
      "라디오": 9199,
      "부회장": 9200,
      "다행": 9201,
      "뛰어난": 9202,
      "1996": 9203,
      "점차": 9204,
      "물량": 9205,
      "담배": 9206,
      "계층": 9207,
      "대장": 9208,
      "선호": 9209,
      "옛날": 9210,
      "악화": 9211,
      "첨단": 9212,
      "제정": 9213,
      "주관": 9214,
      "증상": 9215,
      "접수": 9216,
      "곳곳": 9217,
      "기소": 9218,
      "치열": 9219,
      "150": 9220,
      "추세": 9221,
      "1995": 9222,
      "왜냐하면": 9223,
      "56": 9224,
      "취소": 9225,
      "부서": 9226,
      "상반기": 9227,
      "아예": 9228,
      "동반": 9229,
      "##ood": 9230,
      "보낸": 9231,
      "빠지": 9232,
      "혼란": 9233,
      "##im": 9234,
      "다이어트": 9235,
      "첫째": 9236,
      "클래": 9237,
      "고정": 9238,
      "안녕": 9239,
      "상업": 9240,
      "일찍": 9241,
      "유기": 9242,
      "그니까": 9243,
      "측정": 9244,
      "##어졌": 9245,
      "강원도": 9246,
      "열정": 9247,
      "화면": 9248,
      "심지어": 9249,
      "도쿄": 9250,
      "인공": 9251,
      "신화": 9252,
      "위안": 9253,
      "아쉬": 9254,
      "자고": 9255,
      "소방": 9256,
      "합격": 9257,
      "고위": 9258,
      "느낄": 9259,
      "감동": 9260,
      "화재": 9261,
      "남녀": 9262,
      "비즈니스": 9263,
      "##러리": 9264,
      "포스코": 9265,
      "하반기": 9266,
      "규칙": 9267,
      "여인": 9268,
      "내게": 9269,
      "동부": 9270,
      "당했": 9271,
      "기기": 9272,
      "관찰": 9273,
      "운명": 9274,
      "경선": 9275,
      "텐데": 9276,
      "##ie": 9277,
      "##터리": 9278,
      "득점": 9279,
      "비전": 9280,
      "바꿔": 9281,
      "이랑": 9282,
      "제재": 9283,
      "반도": 9284,
      "화장품": 9285,
      "형제": 9286,
      "스트레스": 9287,
      "설비": 9288,
      "##으니": 9289,
      "복귀": 9290,
      "아우": 9291,
      "의문": 9292,
      "상장": 9293,
      "59": 9294,
      "미사일": 9295,
      "##and": 9296,
      "몰랐": 9297,
      "##⠀⠀": 9298,
      "엔진": 9299,
      "화제": 9300,
      "조심": 9301,
      "풍부": 9302,
      "##드리": 9303,
      "##다른": 9304,
      "지니": 9305,
      "발사": 9306,
      "줄어들": 9307,
      "유엔": 9308,
      "지하철": 9309,
      "돌파": 9310,
      "신라": 9311,
      "타자": 9312,
      "네네": 9313,
      "즐길": 9314,
      "활발": 9315,
      "끊임": 9316,
      "당초": 9317,
      "압박": 9318,
      "상대방": 9319,
      "취하": 9320,
      "살아가": 9321,
      "실행": 9322,
      "개막": 9323,
      "##티브": 9324,
      "돌아오": 9325,
      "나타내": 9326,
      "사법": 9327,
      "서민": 9328,
      "##ity": 9329,
      "광장": 9330,
      "축소": 9331,
      "최대한": 9332,
      "심장": 9333,
      "알려진": 9334,
      "주력": 9335,
      "경력": 9336,
      "부진": 9337,
      "의존": 9338,
      "매수": 9339,
      "단독": 9340,
      "식물": 9341,
      "##다란": 9342,
      "깨끗": 9343,
      "대변인": 9344,
      "법정": 9345,
      "85": 9346,
      "학문": 9347,
      "판사": 9348,
      "##나다": 9349,
      "걸음": 9350,
      "참고": 9351,
      "못할": 9352,
      "다운": 9353,
      "컬러": 9354,
      "던지": 9355,
      "공통": 9356,
      "결승": 9357,
      "64": 9358,
      "녹색": 9359,
      "선배": 9360,
      "순수": 9361,
      "소화": 9362,
      "증명": 9363,
      "##마자": 9364,
      "키워": 9365,
      "크림": 9366,
      "가게": 9367,
      "##비전": 9368,
      "챔피언": 9369,
      "생물": 9370,
      "단기": 9371,
      "자라": 9372,
      "전제": 9373,
      "근처": 9374,
      "전날": 9375,
      "협의회": 9376,
      "양식": 9377,
      "라운드": 9378,
      "세종": 9379,
      "용어": 9380,
      "불교": 9381,
      "거두": 9382,
      "숫자": 9383,
      "택시": 9384,
      "단순히": 9385,
      "세포": 9386,
      "매매": 9387,
      "57": 9388,
      "오염": 9389,
      "달하": 9390,
      "58": 9391,
      "흐르": 9392,
      "인정받": 9393,
      "맞춤": 9394,
      "점심": 9395,
      "영원": 9396,
      "검색": 9397,
      "파트": 9398,
      "##세대": 9399,
      "돼지": 9400,
      "모자": 9401,
      "저항": 9402,
      "완료": 9403,
      "저지": 9404,
      "편안": 9405,
      "##다니": 9406,
      "매달": 9407,
      "신호": 9408,
      "드러내": 9409,
      "명확": 9410,
      "순환": 9411,
      "분노": 9412,
      "##웨어": 9413,
      "밝힌": 9414,
      "원내대표": 9415,
      "해방": 9416,
      "재무": 9417,
      "이슈": 9418,
      "고대": 9419,
      "살인": 9420,
      "재미있": 9421,
      "##ww": 9422,
      "##세요": 9423,
      "지향": 9424,
      "자꾸": 9425,
      "파이": 9426,
      "흔히": 9427,
      "시원": 9428,
      "이사장": 9429,
      "##공업": 9430,
      "취재": 9431,
      "서류": 9432,
      "www": 9433,
      "여건": 9434,
      "교과서": 9435,
      "구하": 9436,
      "자살": 9437,
      "연예": 9438,
      "살리": 9439,
      "나쁜": 9440,
      "채택": 9441,
      "두산": 9442,
      "아울러": 9443,
      "수십": 9444,
      "여당": 9445,
      "선박": 9446,
      "바란다": 9447,
      "로써": 9448,
      "끝내": 9449,
      "스님": 9450,
      "집회": 9451,
      "이뤄지": 9452,
      "합병": 9453,
      "장군": 9454,
      "초청": 9455,
      "노무": 9456,
      "자마자": 9457,
      "공직": 9458,
      "소중": 9459,
      "인원": 9460,
      "육아": 9461,
      "사원": 9462,
      "찾아가": 9463,
      "받아들이": 9464,
      "이행": 9465,
      "파견": 9466,
      "##ia": 9467,
      "여수": 9468,
      "대학원": 9469,
      "경고": 9470,
      "##ra": 9471,
      "남부": 9472,
      "피하": 9473,
      "이루어지": 9474,
      "취득": 9475,
      "해운": 9476,
      "목숨": 9477,
      "성향": 9478,
      "연말": 9479,
      "1994": 9480,
      "호흡": 9481,
      "com": 9482,
      "위주": 9483,
      "무상": 9484,
      "신분": 9485,
      "퍼센트": 9486,
      "사령": 9487,
      "충청": 9488,
      "스토리": 9489,
      "임원": 9490,
      "발매": 9491,
      "지위": 9492,
      "협정": 9493,
      "대학생": 9494,
      "##교육": 9495,
      "용기": 9496,
      "인프라": 9497,
      "조작": 9498,
      "노출": 9499,
      "##th": 9500,
      "##IA": 9501,
      "번역": 9502,
      "펼치": 9503,
      "##어도": 9504,
      "되게": 9505,
      "기아": 9506,
      "##구나": 9507,
      "대가": 9508,
      "프레": 9509,
      "##으면": 9510,
      "획득": 9511,
      "신세": 9512,
      "호주": 9513,
      "브라질": 9514,
      "독서": 9515,
      "어쨌": 9516,
      "사단": 9517,
      "맥주": 9518,
      "의학": 9519,
      "제약": 9520,
      "차단": 9521,
      "마주": 9522,
      "매입": 9523,
      "변동": 9524,
      "런던": 9525,
      "문장": 9526,
      "견해": 9527,
      "가난": 9528,
      "정치인": 9529,
      "자아": 9530,
      "해진": 9531,
      "걸리": 9532,
      "농민": 9533,
      "비리": 9534,
      "##서트": 9535,
      "점유": 9536,
      "63": 9537,
      "본사": 9538,
      "솔직": 9539,
      "보관": 9540,
      "PC": 9541,
      "실업": 9542,
      "##직원": 9543,
      "전세": 9544,
      "사기": 9545,
      "연수": 9546,
      "물가": 9547,
      "조언": 9548,
      "잠재": 9549,
      "시사": 9550,
      "질병": 9551,
      "문제점": 9552,
      "천안": 9553,
      "포장": 9554,
      "##웨이": 9555,
      "##은이": 9556,
      "전북": 9557,
      "02": 9558,
      "캐나다": 9559,
      "호소": 9560,
      "만화": 9561,
      "66": 9562,
      "회계": 9563,
      "##친다": 9564,
      "관측": 9565,
      "상위": 9566,
      "##란히": 9567,
      "총회": 9568,
      "녀석": 9569,
      "꺼내": 9570,
      "감시": 9571,
      "##NS": 9572,
      "CEO": 9573,
      "미안": 9574,
      "청장": 9575,
      "드러나": 9576,
      "아이템": 9577,
      "적합": 9578,
      "가끔": 9579,
      "수영": 9580,
      "떨어졌": 9581,
      "면접": 9582,
      "방해": 9583,
      "##주시": 9584,
      "가동": 9585,
      "스피": 9586,
      "##플레이": 9587,
      "독특": 9588,
      "작곡": 9589,
      "조명": 9590,
      "백성": 9591,
      "특허": 9592,
      "몰라": 9593,
      "유니": 9594,
      "오랫": 9595,
      "사물": 9596,
      "텔레비전": 9597,
      "99": 9598,
      "##카드": 9599,
      "개봉": 9600,
      "무릎": 9601,
      "일대": 9602,
      "홍콩": 9603,
      "도심": 9604,
      "나름": 9605,
      "정식": 9606,
      "저렴": 9607,
      "일어난": 9608,
      "줘야": 9609,
      "정지": 9610,
      "심의": 9611,
      "교환": 9612,
      "대립": 9613,
      "성남": 9614,
      "부위": 9615,
      "기지": 9616,
      "84": 9617,
      "보존": 9618,
      "진술": 9619,
      "애니": 9620,
      "심판": 9621,
      "당한": 9622,
      "피아": 9623,
      "커다란": 9624,
      "소문": 9625,
      "##총리": 9626,
      "침체": 9627,
      "에어": 9628,
      "아프리카": 9629,
      "서양": 9630,
      "##워서": 9631,
      "사라지": 9632,
      "느꼈": 9633,
      "사퇴": 9634,
      "페이스": 9635,
      "경비": 9636,
      "충돌": 9637,
      "연방": 9638,
      "##이너": 9639,
      "##조합": 9640,
      "평등": 9641,
      "과목": 9642,
      "정하": 9643,
      "지주": 9644,
      "부과": 9645,
      "브리": 9646,
      "##니어": 9647,
      "할아버지": 9648,
      "##으로": 9649,
      "이틀": 9650,
      "지대": 9651,
      "01": 9652,
      "스위": 9653,
      "예고": 9654,
      "수시": 9655,
      "자네": 9656,
      "늘리": 9657,
      "는다고": 9658,
      "전원": 9659,
      "소수": 9660,
      "토대": 9661,
      "72": 9662,
      "로봇": 9663,
      "03": 9664,
      "만남": 9665,
      "김치": 9666,
      "선출": 9667,
      "바이오": 9668,
      "오랫동안": 9669,
      "그리스도": 9670,
      "답변": 9671,
      "에서부터": 9672,
      "무려": 9673,
      "##스티": 9674,
      "각자": 9675,
      "개통": 9676,
      "마감": 9677,
      "즐거": 9678,
      "202": 9679,
      "상인": 9680,
      "배제": 9681,
      "상하": 9682,
      "들어서": 9683,
      "파크": 9684,
      "커지": 9685,
      "주주": 9686,
      "결제": 9687,
      "공학": 9688,
      "61": 9689,
      "##담회": 9690,
      "김성": 9691,
      "초점": 9692,
      "박정": 9693,
      "고구": 9694,
      "프리미엄": 9695,
      "학기": 9696,
      "아트": 9697,
      "##해서": 9698,
      "강사": 9699,
      "정착": 9700,
      "며칠": 9701,
      "예약": 9702,
      "이념": 9703,
      "계열사": 9704,
      "콘서트": 9705,
      "직전": 9706,
      "##남도": 9707,
      "무한": 9708,
      "##일리": 9709,
      "시청자": 9710,
      "신한": 9711,
      "인용": 9712,
      "대결": 9713,
      "테마": 9714,
      "동양": 9715,
      "은퇴": 9716,
      "농촌": 9717,
      "오바": 9718,
      "95": 9719,
      "지나치": 9720,
      "##마디": 9721,
      "몰려": 9722,
      "호남": 9723,
      "트리": 9724,
      "이정": 9725,
      "마침내": 9726,
      "##ea": 9727,
      "객관": 9728,
      "대북": 9729,
      "잠깐": 9730,
      "고소": 9731,
      "간다": 9732,
      "아무것": 9733,
      "장사": 9734,
      "하우스": 9735,
      "적자": 9736,
      "잇따": 9737,
      "부실": 9738,
      "창의": 9739,
      "중대": 9740,
      "성능": 9741,
      "무서": 9742,
      "왼쪽": 9743,
      "교육감": 9744,
      "풍경": 9745,
      "문서": 9746,
      "이라": 9747,
      "경기장": 9748,
      "밴드": 9749,
      "마르": 9750,
      "더라구요": 9751,
      "공주": 9752,
      "거론": 9753,
      "계급": 9754,
      "고문": 9755,
      "목사": 9756,
      "##조건": 9757,
      "600": 9758,
      "무렵": 9759,
      "##뜨리": 9760,
      "보완": 9761,
      "##로운": 9762,
      "포럼": 9763,
      "하여": 9764,
      "가시": 9765,
      "음반": 9766,
      "대구시": 9767,
      "한정": 9768,
      "##까요": 9769,
      "지명": 9770,
      "출입": 9771,
      "교실": 9772,
      "FTA": 9773,
      "연맹": 9774,
      "일으키": 9775,
      "##도로": 9776,
      "바른": 9777,
      "개설": 9778,
      "미니": 9779,
      "내내": 9780,
      "##로그": 9781,
      "모으": 9782,
      "62": 9783,
      "아니면": 9784,
      "환율": 9785,
      "무게": 9786,
      "늘어난": 9787,
      "신앙": 9788,
      "조화": 9789,
      "지표": 9790,
      "아라": 9791,
      "에다": 9792,
      "조례": 9793,
      "원하": 9794,
      "유대": 9795,
      "테크": 9796,
      "뮤지컬": 9797,
      "만일": 9798,
      "보일": 9799,
      "##연히": 9800,
      "연관": 9801,
      "간담회": 9802,
      "노트": 9803,
      "네이": 9804,
      "##레이드": 9805,
      "##철수": 9806,
      "교장": 9807,
      "반도체": 9808,
      "타격": 9809,
      "실내": 9810,
      "고전": 9811,
      "1970": 9812,
      "묘사": 9813,
      "대처": 9814,
      "겨우": 9815,
      "68": 9816,
      "대만": 9817,
      "명칭": 9818,
      "접촉": 9819,
      "##머리": 9820,
      "테러": 9821,
      "마트": 9822,
      "긴급": 9823,
      "189": 9824,
      "도망": 9825,
      "신학": 9826,
      "부사": 9827,
      "수수료": 9828,
      "디스": 9829,
      "위대": 9830,
      "어쩔": 9831,
      "선임": 9832,
      "농협": 9833,
      "욕망": 9834,
      "##에도": 9835,
      "용인": 9836,
      "더라고요": 9837,
      "진화": 9838,
      "FC": 9839,
      "추억": 9840,
      "1992": 9841,
      "증시": 9842,
      "보급": 9843,
      "1993": 9844,
      "IC": 9845,
      "제주도": 9846,
      "부당": 9847,
      "돌리": 9848,
      "평창": 9849,
      "정서": 9850,
      "상임": 9851,
      "영향력": 9852,
      "지출": 9853,
      "끼리": 9854,
      "개정안": 9855,
      "연령": 9856,
      "절감": 9857,
      "오른쪽": 9858,
      "마당": 9859,
      "냐는": 9860,
      "##마스": 9861,
      "맞이": 9862,
      "영혼": 9863,
      "변하": 9864,
      "배려": 9865,
      "군인": 9866,
      "데리": 9867,
      "응원": 9868,
      "미세": 9869,
      "유학": 9870,
      "폐기": 9871,
      "일치": 9872,
      "수치": 9873,
      "건조": 9874,
      "##ab": 9875,
      "##려야": 9876,
      "사안": 9877,
      "67": 9878,
      "대폭": 9879,
      "노무현": 9880,
      "확신": 9881,
      "장난": 9882,
      "융합": 9883,
      "오바마": 9884,
      "깨달": 9885,
      "실무": 9886,
      "끝난": 9887,
      "창작": 9888,
      "간부": 9889,
      "침해": 9890,
      "못한다": 9891,
      "##iv": 9892,
      "노사": 9893,
      "##ew": 9894,
      "배당": 9895,
      "휴가": 9896,
      "구성원": 9897,
      "들어간": 9898,
      "일어났": 9899,
      "담보": 9900,
      "외환": 9901,
      "소련": 9902,
      "진료": 9903,
      "수집": 9904,
      "코치": 9905,
      "감염": 9906,
      "##스토": 9907,
      "해군": 9908,
      "주간": 9909,
      "기름": 9910,
      "권위": 9911,
      "김종": 9912,
      "수리": 9913,
      "블루": 9914,
      "문명": 9915,
      "천연": 9916,
      "캠페인": 9917,
      "촉진": 9918,
      "벤처": 9919,
      "근육": 9920,
      "호기": 9921,
      "화성": 9922,
      "된다면": 9923,
      "유출": 9924,
      "적어도": 9925,
      "미만": 9926,
      "무조건": 9927,
      "스케": 9928,
      "만날": 9929,
      "손가락": 9930,
      "##ion": 9931,
      "유아": 9932,
      "느라": 9933,
      "건데": 9934,
      "비서": 9935,
      "좌우": 9936,
      "고령": 9937,
      "여겨": 9938,
      "들이": 9939,
      "##지사": 9940,
      "뜨거운": 9941,
      "바람직": 9942,
      "임기": 9943,
      "고도": 9944,
      "유로": 9945,
      "협조": 9946,
      "끊임없이": 9947,
      "입법": 9948,
      "to": 9949,
      "열차": 9950,
      "보편": 9951,
      "엘리": 9952,
      "##레기": 9953,
      "현안": 9954,
      "눈치": 9955,
      "4000": 9956,
      "플러스": 9957,
      "##FA": 9958,
      "##ED": 9959,
      "불렀": 9960,
      "##러지": 9961,
      "##가스": 9962,
      "편리": 9963,
      "단장": 9964,
      "식민": 9965,
      "죽이": 9966,
      "이중": 9967,
      "답니다": 9968,
      "와인": 9969,
      "주최": 9970,
      "##카이": 9971,
      "푸드": 9972,
      "장식": 9973,
      "십시오": 9974,
      "직무": 9975,
      "몰아": 9976,
      "구청": 9977,
      "어쨌든": 9978,
      "구상": 9979,
      "이슬": 9980,
      "지혜": 9981,
      "통증": 9982,
      "그래요": 9983,
      "단속": 9984,
      "동맹": 9985,
      "법무": 9986,
      "병사": 9987,
      "지진": 9988,
      "##문화": 9989,
      "걸려": 9990,
      "손님": 9991,
      "국내외": 9992,
      "정확히": 9993,
      "취급": 9994,
      "집계": 9995,
      "농가": 9996,
      "최우": 9997,
      "는다면": 9998,
      "키로": 9999,
      "무너": 10000,
      "군수": 10001,
      "선사": 10002,
      "익숙": 10003,
      "적응": 10004,
      "냐고": 10005,
      "ㅠㅠ": 10006,
      "아닙니다": 10007,
      "선두": 10008,
      "수록": 10009,
      "당사자": 10010,
      "한마디": 10011,
      "CJ": 10012,
      "느낀": 10013,
      "마사": 10014,
      "##ard": 10015,
      "드러났": 10016,
      "리더십": 10017,
      "세웠": 10018,
      "##카오": 10019,
      "마이크": 10020,
      "아웃": 10021,
      "널리": 10022,
      "소위": 10023,
      "쓰레기": 10024,
      "싸우": 10025,
      "성명": 10026,
      "곧바로": 10027,
      "저장": 10028,
      "안철수": 10029,
      "라서": 10030,
      "흡수": 10031,
      "구제": 10032,
      "그치": 10033,
      "##바닥": 10034,
      "도구": 10035,
      "논쟁": 10036,
      "플랫": 10037,
      "74": 10038,
      "쉬운": 10039,
      "수주": 10040,
      "##ist": 10041,
      "대법원": 10042,
      "그럼에도": 10043,
      "자문": 10044,
      "제자": 10045,
      "고유": 10046,
      "나눔": 10047,
      "구미": 10048,
      "금메달": 10049,
      "신선": 10050,
      "양국": 10051,
      "벌어지": 10052,
      "71": 10053,
      "73": 10054,
      "이스라": 10055,
      "##권자": 10056,
      "황금": 10057,
      "신기": 10058,
      "깜짝": 10059,
      "##북도": 10060,
      "없애": 10061,
      "중공업": 10062,
      "유발": 10063,
      "북부": 10064,
      "항목": 10065,
      "빼앗": 10066,
      "종료": 10067,
      "초과": 10068,
      "##단지": 10069,
      "77": 10070,
      "지리": 10071,
      "사로": 10072,
      "고생": 10073,
      "시범": 10074,
      "파워": 10075,
      "연설": 10076,
      "감성": 10077,
      "고발": 10078,
      "지켜보": 10079,
      "가계": 10080,
      "상가": 10081,
      "이스라엘": 10082,
      "스파": 10083,
      "1991": 10084,
      "적당": 10085,
      "대강": 10086,
      "찬성": 10087,
      "온도": 10088,
      "##건설": 10089,
      "선진국": 10090,
      "되돌": 10091,
      "부활": 10092,
      "경찰서": 10093,
      "도대": 10094,
      "분쟁": 10095,
      "남쪽": 10096,
      "kr": 10097,
      "청약": 10098,
      "체포": 10099,
      "남기": 10100,
      "120": 10101,
      "유행": 10102,
      "신부": 10103,
      "서부": 10104,
      "주자": 10105,
      "##러진": 10106,
      "기쁨": 10107,
      "즉시": 10108,
      "컨설": 10109,
      "SNS": 10110,
      "통치": 10111,
      "올린": 10112,
      "패배": 10113,
      "인문": 10114,
      "800": 10115,
      "국정원": 10116,
      "파업": 10117,
      "결의": 10118,
      "비디오": 10119,
      "그대": 10120,
      "학회": 10121,
      "도대체": 10122,
      "기후": 10123,
      "라면서": 10124,
      "추석": 10125,
      "자본주의": 10126,
      "불가피": 10127,
      "##나이": 10128,
      "김태": 10129,
      "음성": 10130,
      "스키": 10131,
      "살짝": 10132,
      "일자": 10133,
      "오직": 10134,
      "훼손": 10135,
      "일시": 10136,
      "해명": 10137,
      "민원": 10138,
      "내린": 10139,
      "고맙": 10140,
      "취약": 10141,
      "##시다": 10142,
      "싱글": 10143,
      "선보이": 10144,
      "이주": 10145,
      "이혼": 10146,
      "복원": 10147,
      "동력": 10148,
      "퇴직": 10149,
      "수백": 10150,
      "유치원": 10151,
      "##ell": 10152,
      "뒤집": 10153,
      "상실": 10154,
      "김해": 10155,
      "문화재": 10156,
      "재능": 10157,
      "태어나": 10158,
      "욕구": 10159,
      "구현": 10160,
      "다름": 10161,
      "였으나": 10162,
      "박람": 10163,
      "명품": 10164,
      "그렇지만": 10165,
      "의해서": 10166,
      "전주": 10167,
      "##영상": 10168,
      "GS": 10169,
      "강점": 10170,
      "조달": 10171,
      "영웅": 10172,
      "입지": 10173,
      "평양": 10174,
      "선도": 10175,
      "신속": 10176,
      "한때": 10177,
      "열렸": 10178,
      "확실히": 10179,
      "어려워": 10180,
      "가볍": 10181,
      "비정": 10182,
      "##ep": 10183,
      "거치": 10184,
      "트렌": 10185,
      "주행": 10186,
      "열린다": 10187,
      "이어졌": 10188,
      "젊은이": 10189,
      "집권": 10190,
      "스크": 10191,
      "든다": 10192,
      "최소한": 10193,
      "알아보": 10194,
      "급증": 10195,
      "상무": 10196,
      "가공": 10197,
      "출산": 10198,
      "여의": 10199,
      "76": 10200,
      "베스트": 10201,
      "강연": 10202,
      "변수": 10203,
      "입증": 10204,
      "참조": 10205,
      "현행": 10206,
      "가상": 10207,
      "전후": 10208,
      "계시": 10209,
      "결심": 10210,
      "줄어": 10211,
      "재건": 10212,
      "섬유": 10213,
      "##힌다": 10214,
      "마법": 10215,
      "아저": 10216,
      "사로잡": 10217,
      "고양이": 10218,
      "뚜렷": 10219,
      "한지": 10220,
      "한참": 10221,
      "69": 10222,
      "박지": 10223,
      "거짓말": 10224,
      "트위": 10225,
      "과일": 10226,
      "농구": 10227,
      "##거렸": 10228,
      "장학": 10229,
      "88": 10230,
      "##다리": 10231,
      "##래도": 10232,
      "여서": 10233,
      "##우드": 10234,
      "에겐": 10235,
      "멈추": 10236,
      "메이저": 10237,
      "어두": 10238,
      "의정": 10239,
      "재생": 10240,
      "밀려": 10241,
      "동남": 10242,
      "입시": 10243,
      "##ST": 10244,
      "휴식": 10245,
      "##생활": 10246,
      "김대": 10247,
      "과도": 10248,
      "한번": 10249,
      "기금": 10250,
      "때로": 10251,
      "공헌": 10252,
      "아저씨": 10253,
      "일방": 10254,
      "아시": 10255,
      "##ㅋㅋㅋㅋ": 10256,
      "용역": 10257,
      "이민": 10258,
      "아마도": 10259,
      "아메": 10260,
      "##낸다": 10261,
      "들어왔": 10262,
      "청문": 10263,
      "서명": 10264,
      "시계": 10265,
      "테이블": 10266,
      "##항공": 10267,
      "정성": 10268,
      "극단": 10269,
      "야권": 10270,
      "소형": 10271,
      "아닐까": 10272,
      "모색": 10273,
      "빠진": 10274,
      "##ver": 10275,
      "국방부": 10276,
      "소스": 10277,
      "민중": 10278,
      "##천시": 10279,
      "폐쇄": 10280,
      "장르": 10281,
      "음료": 10282,
      "나타난": 10283,
      "의자": 10284,
      "칭찬": 10285,
      "가방": 10286,
      "급격": 10287,
      "##온다": 10288,
      "침대": 10289,
      "바위": 10290,
      "천천": 10291,
      "입구": 10292,
      "더군": 10293,
      "수지": 10294,
      "고마": 10295,
      "리라": 10296,
      "코드": 10297,
      "임직원": 10298,
      "공화국": 10299,
      "남겨": 10300,
      "진주": 10301,
      "1988": 10302,
      "소프트웨어": 10303,
      "어울리": 10304,
      "차관": 10305,
      "존중": 10306,
      "조지": 10307,
      "05": 10308,
      "천천히": 10309,
      "한가": 10310,
      "기상": 10311,
      "이용자": 10312,
      "##브리": 10313,
      "몇몇": 10314,
      "품목": 10315,
      "##ill": 10316,
      "여섯": 10317,
      "담긴": 10318,
      "후기": 10319,
      "##art": 10320,
      "이리": 10321,
      "진리": 10322,
      "가만": 10323,
      "비행기": 10324,
      "##TV": 10325,
      "경매": 10326,
      "타인": 10327,
      "연봉": 10328,
      "물류": 10329,
      "1987": 10330,
      "아가": 10331,
      "##스탄": 10332,
      "좋아하": 10333,
      "##그룹": 10334,
      "미친": 10335,
      "복수": 10336,
      "종종": 10337,
      "6000": 10338,
      "셋째": 10339,
      "청사": 10340,
      "진영": 10341,
      "동영상": 10342,
      "믿음": 10343,
      "입찰": 10344,
      "1989": 10345,
      "미술관": 10346,
      "지연": 10347,
      "통보": 10348,
      "플라": 10349,
      "##어버": 10350,
      "##est": 10351,
      "##tic": 10352,
      "영화제": 10353,
      "가질": 10354,
      "00": 10355,
      "굳이": 10356,
      "78": 10357,
      "기운": 10358,
      "어쩌면": 10359,
      "원정": 10360,
      "태어났": 10361,
      "아무래도": 10362,
      "인연": 10363,
      "로스": 10364,
      "배상": 10365,
      "법칙": 10366,
      "화물": 10367,
      "텔레콤": 10368,
      "학급": 10369,
      "국어": 10370,
      "흔적": 10371,
      "구도": 10372,
      "노후": 10373,
      "##시코": 10374,
      "구글": 10375,
      "전해졌": 10376,
      "유산": 10377,
      "양산": 10378,
      "한쪽": 10379,
      "축하": 10380,
      "너희": 10381,
      "장수": 10382,
      "신중": 10383,
      "주기": 10384,
      "그쳤": 10385,
      "##ak": 10386,
      "거절": 10387,
      "##메이션": 10388,
      "8000": 10389,
      "북쪽": 10390,
      "예금": 10391,
      "돌아왔": 10392,
      "타당": 10393,
      "떠오르": 10394,
      "충족": 10395,
      "빌려": 10396,
      "소외": 10397,
      "진지": 10398,
      "부딪": 10399,
      "합류": 10400,
      "화장실": 10401,
      "당부": 10402,
      "일기": 10403,
      "데려": 10404,
      "부작": 10405,
      "중반": 10406,
      "붕괴": 10407,
      "변신": 10408,
      "##ff": 10409,
      "사회주의": 10410,
      "선전": 10411,
      "##나마": 10412,
      "현황": 10413,
      "계좌": 10414,
      "요건": 10415,
      "커뮤니케이션": 10416,
      "##스턴": 10417,
      "연료": 10418,
      "케이블": 10419,
      "##워하": 10420,
      "동해": 10421,
      "각국": 10422,
      "붙여": 10423,
      "오프": 10424,
      "필리": 10425,
      "올바": 10426,
      "마크": 10427,
      "무사": 10428,
      "안팎": 10429,
      "영입": 10430,
      "구원": 10431,
      "양상": 10432,
      "갈수록": 10433,
      "속하": 10434,
      "##디션": 10435,
      "엑스": 10436,
      "트위터": 10437,
      "비정규": 10438,
      "저기": 10439,
      "메르": 10440,
      "징역": 10441,
      "지도부": 10442,
      "시달": 10443,
      "산하": 10444,
      "심하": 10445,
      "##퍼스": 10446,
      "공인": 10447,
      "급여": 10448,
      "대행": 10449,
      "준공": 10450,
      "동작": 10451,
      "편하": 10452,
      "육군": 10453,
      "점포": 10454,
      "블록": 10455,
      "가요": 10456,
      "채무": 10457,
      "##ame": 10458,
      "박람회": 10459,
      "비정규직": 10460,
      "골목": 10461,
      "모니": 10462,
      "세운": 10463,
      "98": 10464,
      "가르치": 10465,
      "둘러싼": 10466,
      "푸른": 10467,
      "순서": 10468,
      "자국": 10469,
      "대륙": 10470,
      "돼요": 10471,
      "김정은": 10472,
      "##트리": 10473,
      "대개": 10474,
      "우울": 10475,
      "대대": 10476,
      "쳐다보": 10477,
      "700": 10478,
      "성립": 10479,
      "포르": 10480,
      "새끼": 10481,
      "출근": 10482,
      "주부": 10483,
      "들어와": 10484,
      "레드": 10485,
      "##라리": 10486,
      "이닝": 10487,
      "##uc": 10488,
      "시킨다": 10489,
      "조항": 10490,
      "1960": 10491,
      "원주": 10492,
      "교황": 10493,
      "높여": 10494,
      "진학": 10495,
      "워낙": 10496,
      "무용": 10497,
      "체육관": 10498,
      "파티": 10499,
      "간접": 10500,
      "아카": 10501,
      "##EC": 10502,
      "주차장": 10503,
      "무척": 10504,
      "마디": 10505,
      "필자": 10506,
      "경영자": 10507,
      "##ip": 10508,
      "안심": 10509,
      "중동": 10510,
      "을까요": 10511,
      "##our": 10512,
      "이걸": 10513,
      "대목": 10514,
      "일원": 10515,
      "세이": 10516,
      "진흥": 10517,
      "교육부": 10518,
      "색깔": 10519,
      "금속": 10520,
      "##레인": 10521,
      "중도": 10522,
      "도내": 10523,
      "지나가": 10524,
      "유동": 10525,
      "임무": 10526,
      "평범": 10527,
      "전당": 10528,
      "챙겨": 10529,
      "관료": 10530,
      "치르": 10531,
      "무장": 10532,
      "환영": 10533,
      "##증권": 10534,
      "참가자": 10535,
      "향한": 10536,
      "신입": 10537,
      "저런": 10538,
      "탄핵": 10539,
      "비타": 10540,
      "압력": 10541,
      "영남": 10542,
      "구별": 10543,
      "영장": 10544,
      "AI": 10545,
      "스튜": 10546,
      "승진": 10547,
      "로드": 10548,
      "지냈": 10549,
      "후배": 10550,
      "발전소": 10551,
      "구경": 10552,
      "맞서": 10553,
      "받아들여": 10554,
      "비로": 10555,
      "담겨": 10556,
      "철강": 10557,
      "드릴": 10558,
      "엄격": 10559,
      "##리스트": 10560,
      "##산업": 10561,
      "고리": 10562,
      "##ob": 10563,
      "매출액": 10564,
      "앞장": 10565,
      "일관": 10566,
      "중구": 10567,
      "환상": 10568,
      "학술": 10569,
      "##시장": 10570,
      "갤럭": 10571,
      "공략": 10572,
      "재개": 10573,
      "기법": 10574,
      "##eg": 10575,
      "종시": 10576,
      "가벼": 10577,
      "동화": 10578,
      "KIA": 10579,
      "갤럭시": 10580,
      "휴대폰": 10581,
      "실정": 10582,
      "##all": 10583,
      "전설": 10584,
      "총괄": 10585,
      "##ine": 10586,
      "파일": 10587,
      "체크": 10588,
      "cm": 10589,
      "태평": 10590,
      "본래": 10591,
      "##ang": 10592,
      "격차": 10593,
      "태어난": 10594,
      "전시회": 10595,
      "장악": 10596,
      "클래식": 10597,
      "용품": 10598,
      "깨닫": 10599,
      "넘어가": 10600,
      "보여준다": 10601,
      "비평": 10602,
      "입술": 10603,
      "패턴": 10604,
      "그릇": 10605,
      "82": 10606,
      "재배": 10607,
      "PD": 10608,
      "81": 10609,
      "유력": 10610,
      "예선": 10611,
      "공제": 10612,
      "파트너": 10613,
      "Pr": 10614,
      "도달": 10615,
      "신인": 10616,
      "뷰티": 10617,
      "마친": 10618,
      "될지": 10619,
      "충북": 10620,
      "주석": 10621,
      "공작": 10622,
      "오스트": 10623,
      "잡지": 10624,
      "##회의": 10625,
      "보험료": 10626,
      "관념": 10627,
      "가사": 10628,
      "상생": 10629,
      "재벌": 10630,
      "##스키": 10631,
      "세부": 10632,
      "십니까": 10633,
      "섭취": 10634,
      "강요": 10635,
      "박스": 10636,
      "해고": 10637,
      "베이징": 10638,
      "##ok": 10639,
      "충실": 10640,
      "##PG": 10641,
      "치즈": 10642,
      "st": 10643,
      "##덜란드": 10644,
      "해안": 10645,
      "##ub": 10646,
      "화이트": 10647,
      "민감": 10648,
      "오해": 10649,
      "과세": 10650,
      "##덩이": 10651,
      "##어진다": 10652,
      "방사": 10653,
      "네덜란드": 10654,
      "쏟아": 10655,
      "계절": 10656,
      "으려고": 10657,
      "정수": 10658,
      "침묵": 10659,
      "체력": 10660,
      "##50": 10661,
      "쓰이": 10662,
      "##총장": 10663,
      "##운동": 10664,
      "날아": 10665,
      "초래": 10666,
      "붙잡": 10667,
      "셔서": 10668,
      "랜드": 10669,
      "테스트": 10670,
      "상사": 10671,
      "계단": 10672,
      "김동": 10673,
      "여지": 10674,
      "관세": 10675,
      "소요": 10676,
      "이종": 10677,
      "188": 10678,
      "나설": 10679,
      "##30": 10680,
      "넘치": 10681,
      "##디아": 10682,
      "우유": 10683,
      "86": 10684,
      "애니메이션": 10685,
      "7000": 10686,
      "심한": 10687,
      "마땅": 10688,
      "탈출": 10689,
      "부각": 10690,
      "멕시코": 10691,
      "길이": 10692,
      "벌였": 10693,
      "스티": 10694,
      "어리": 10695,
      "180": 10696,
      "틀림": 10697,
      "사드": 10698,
      "도중": 10699,
      "떠났": 10700,
      "메모": 10701,
      "이젠": 10702,
      "79": 10703,
      "이슬람": 10704,
      "영광": 10705,
      "고구려": 10706,
      "스페": 10707,
      "유권자": 10708,
      "##CC": 10709,
      "##시마": 10710,
      "개척": 10711,
      "하여금": 10712,
      "손상": 10713,
      "동구": 10714,
      "매주": 10715,
      "홀로": 10716,
      "합동": 10717,
      "살려": 10718,
      "카카오": 10719,
      "##게요": 10720,
      "엔터": 10721,
      "여객": 10722,
      "어둠": 10723,
      "배달": 10724,
      "출장": 10725,
      "먹스": 10726,
      "정작": 10727,
      "줄여": 10728,
      "개헌": 10729,
      "적발": 10730,
      "개시": 10731,
      "조약": 10732,
      "두드": 10733,
      "선교": 10734,
      "경찰청": 10735,
      "##거래": 10736,
      "확충": 10737,
      "##들이": 10738,
      "역전": 10739,
      "불행": 10740,
      "97": 10741,
      "진심": 10742,
      "사이버": 10743,
      "명단": 10744,
      "대거": 10745,
      "조합원": 10746,
      "향하": 10747,
      "의뢰": 10748,
      "매니": 10749,
      "포스트": 10750,
      "아나": 10751,
      "으시": 10752,
      "베르": 10753,
      "진로": 10754,
      "반성": 10755,
      "온갖": 10756,
      "##싱턴": 10757,
      "페이스북": 10758,
      "부끄": 10759,
      "87": 10760,
      "탄소": 10761,
      "전지": 10762,
      "시정": 10763,
      "완공": 10764,
      "##바이": 10765,
      "추적": 10766,
      "##컨대": 10767,
      "##하여": 10768,
      "한층": 10769,
      "대상자": 10770,
      "눈앞": 10771,
      "공중": 10772,
      "바깥": 10773,
      "스런": 10774,
      "실망": 10775,
      "그분": 10776,
      "김현": 10777,
      "96": 10778,
[...]
