[PAD]
[UNK]
[CLS]
[SEP]
[MASK]
[unused0]
[unused1]
[unused2]
[unused3]
[unused4]
[unused5]
[unused6]
[unused7]
[unused8]
[unused9]
[unused10]
[unused11]
[unused12]
[unused13]
[unused14]
[unused15]
[unused16]
[unused17]
[unused18]
[unused19]
[unused20]
[unused21]
[unused22]
[unused23]
[unused24]
[unused25]
[unused26]
[unused27]
[unused28]
[unused29]
[unused30]
[unused31]
[unused32]
[unused33]
[unused34]
[unused35]
[unused36]
[unused37]
[unused38]
[unused39]
[unused40]
[unused41]
[unused42]
[unused43]
[unused44]
[unused45]
[unused46]
[unused47]
[unused48]
[unused49]
[unused50]
[unused51]
[unused52]
[unused53]
[unused54]
[unused55]
[unused56]
[unused57]
[unused58]
[unused59]
[unused60]
[unused61]
[unused62]
[unused63]
[unused64]
[unused65]
[unused66]
[unused67]
[unused68]
[unused69]
[unused70]
[unused71]
[unused72]
[unused73]
[unused74]
[unused75]
[unused76]
[unused77]
[unused78]
[unused79]
[unused80]
[unused81]
[unused82]
[unused83]
[unused84]
[unused85]
[unused86]
[unused87]
[unused88]
[unused89]
[unused90]
[unused91]
[unused92]
[unused93]
[unused94]
[unused95]
[unused96]
[unused97]
[unused98]
[unused99]
[unused100]
[unused101]
[unused102]
[unused103]
[unused104]
[unused105]
[unused106]
[unused107]
[unused108]
[unused109]
[unused110]
[unused111]
[unused112]
[unused113]
[unused114]
[unused115]
[unused116]
[unused117]
[unused118]
[unused119]
[unused120]
[unused121]
[unused122]
[unused123]
[unused124]
[unused125]
[unused126]
[unused127]
[unused128]
[unused129]
[unused130]
[unused131]
[unused132]
[unused133]
[unused134]
[unused135]
[unused136]
[unused137]
[unused138]
[unused139]
[unused140]
[unused141]
[unused142]
[unused143]
[unused144]
[unused145]
[unused146]
[unused147]
[unused148]
[unused149]
[unused150]
[unused151]
[unused152]
[unused153]
[unused154]
[unused155]
[unused156]
[unused157]
[unused158]
[unused159]
[unused160]
[unused161]
[unused162]
[unused163]
[unused164]
[unused165]
[unused166]
[unused167]
[unused168]
[unused169]
[unused170]
[unused171]
[unused172]
[unused173]
[unused174]
[unused175]
[unused176]
[unused177]
[unused178]
[unused179]
[unused180]
[unused181]
[unused182]
[unused183]
[unused184]
[unused185]
[unused186]
[unused187]
[unused188]
[unused189]
[unused190]
[unused191]
[unused192]
[unused193]
[unused194]
[unused195]
[unused196]
[unused197]
[unused198]
[unused199]
[unused200]
[unused201]
[unused202]
[unused203]
[unused204]
[unused205]
[unused206]
[unused207]
[unused208]
[unused209]
[unused210]
[unused211]
[unused212]
[unused213]
[unused214]
[unused215]
[unused216]
[unused217]
[unused218]
[unused219]
[unused220]
[unused221]
[unused222]
[unused223]
[unused224]
[unused225]
[unused226]
[unused227]
[unused228]
[unused229]
[unused230]
[unused231]
[unused232]
[unused233]
[unused234]
[unused235]
[unused236]
[unused237]
[unused238]
[unused239]
[unused240]
[unused241]
[unused242]
[unused243]
[unused244]
[unused245]
[unused246]
[unused247]
[unused248]
[unused249]
[unused250]
[unused251]
[unused252]
[unused253]
[unused254]
[unused255]
[unused256]
[unused257]
[unused258]
[unused259]
[unused260]
[unused261]
[unused262]
[unused263]
[unused264]
[unused265]
[unused266]
[unused267]
[unused268]
[unused269]
[unused270]
[unused271]
[unused272]
[unused273]
[unused274]
[unused275]
[unused276]
[unused277]
[unused278]
[unused279]
[unused280]
[unused281]
[unused282]
[unused283]
[unused284]
[unused285]
[unused286]
[unused287]
[unused288]
[unused289]
[unused290]
[unused291]
[unused292]
[unused293]
[unused294]
[unused295]
[unused296]
[unused297]
[unused298]
[unused299]
[unused300]
[unused301]
[unused302]
[unused303]
[unused304]
[unused305]
[unused306]
[unused307]
[unused308]
[unused309]
[unused310]
[unused311]
[unused312]
[unused313]
[unused314]
[unused315]
[unused316]
[unused317]
[unused318]
[unused319]
[unused320]
[unused321]
[unused322]
[unused323]
[unused324]
[unused325]
[unused326]
[unused327]
[unused328]
[unused329]
[unused330]
[unused331]
[unused332]
[unused333]
[unused334]
[unused335]
[unused336]
[unused337]
[unused338]
[unused339]
[unused340]
[unused341]
[unused342]
[unused343]
[unused344]
[unused345]
[unused346]
[unused347]
[unused348]
[unused349]
[unused350]
[unused351]
[unused352]
[unused353]
[unused354]
[unused355]
[unused356]
[unused357]
[unused358]
[unused359]
[unused360]
[unused361]
[unused362]
[unused363]
[unused364]
[unused365]
[unused366]
[unused367]
[unused368]
[unused369]
[unused370]
[unused371]
[unused372]
[unused373]
[unused374]
[unused375]
[unused376]
[unused377]
[unused378]
[unused379]
[unused380]
[unused381]
[unused382]
[unused383]
[unused384]
[unused385]
[unused386]
[unused387]
[unused388]
[unused389]
[unused390]
[unused391]
[unused392]
[unused393]
[unused394]
[unused395]
[unused396]
[unused397]
[unused398]
[unused399]
[unused400]
[unused401]
[unused402]
[unused403]
[unused404]
[unused405]
[unused406]
[unused407]
[unused408]
[unused409]
[unused410]
[unused411]
[unused412]
[unused413]
[unused414]
[unused415]
[unused416]
[unused417]
[unused418]
[unused419]
[unused420]
[unused421]
[unused422]
[unused423]
[unused424]
[unused425]
[unused426]
[unused427]
[unused428]
[unused429]
[unused430]
[unused431]
[unused432]
[unused433]
[unused434]
[unused435]
[unused436]
[unused437]
[unused438]
[unused439]
[unused440]
[unused441]
[unused442]
[unused443]
[unused444]
[unused445]
[unused446]
[unused447]
[unused448]
[unused449]
[unused450]
[unused451]
[unused452]
[unused453]
[unused454]
[unused455]
[unused456]
[unused457]
[unused458]
[unused459]
[unused460]
[unused461]
[unused462]
[unused463]
[unused464]
[unused465]
[unused466]
[unused467]
[unused468]
[unused469]
[unused470]
[unused471]
[unused472]
[unused473]
[unused474]
[unused475]
[unused476]
[unused477]
[unused478]
[unused479]
[unused480]
[unused481]
[unused482]
[unused483]
[unused484]
[unused485]
[unused486]
[unused487]
[unused488]
[unused489]
[unused490]
[unused491]
[unused492]
[unused493]
[unused494]
[unused495]
[unused496]
[unused497]
[unused498]
[unused499]
!
"
#
$
%
&
'
(
)
*
+
,
-
.
/
0
1
2
3
4
5
6
7
8
9
:
;
<
=
>
?
@
A
B
C
D
E
F
G
H
I
J
K
L
M
N
O
P
Q
R
S
T
U
V
W
X
Y
Z
[
\
]
^
_
`
a
b
c
d
e
f
g
h
i
j
k
l
m
n
o
p
q
r
s
t
u
v
w
x
y
z
{
|
}
~
§
«
°
±
²
³
´
·
¹
»
É
×
ß
à
â
ã
ä
ç
è
é
ê
ì
í
ó
ô
ö
÷
ú
ü
ā
Đ
ơ
ư
ː
˚
˝
́
̈
̣
̥
α
β
γ
δ
ε
η
θ
ι
κ
λ
μ
ν
ο
π
ρ
ς
σ
τ
ω
А
В
И
К
М
Н
П
Р
С
а
б
в
г
д
е
ж
з
и
й
к
л
м
н
о
п
р
с
т
у
х
ц
ч
ш
ы
ь
я
ا
ل
و
ෆ
๑
ღ
ᄒ
ᆞ
ᆡ
ạ
ị
–
—
―
‘
’
“
”
†
•
․
‥
…
‧
′
※
‼
₁
₂
₩
℃
ℓ
™
⅓
Ⅰ
Ⅱ
Ⅲ
Ⅳ
Ⅴ
Ⅵ
←
↑
→
↓
↔
⇒
−
∙
∼
≪
≫
⊙
⋅
①
②
③
④
⑤
⑥
⑦
⑧
⑨
⑩
⑪
⑫
⑴
⑵
⑶
⑷
ⓐ
ⓑ
ⓒ
─
━
│
┃
┌
└
├
┬
■
□
▣
▨
▪
▫
▲
△
▶
▷
▼
▽
◀
◆
◇
◈
○
◎
●
◡
★
☆
☎
☏
☕
☞
☺
♀
♂
♡
♣
♤
♥
♩
♪
♬
✅
✌
✔
✨
❗
❣
❤
➡
⠀
⭐
、
。
〃
〈
〉
《
》
「
」
『
』
【
】
〓
〔
〕
〜
〰
あ
い
う
え
お
か
が
き
く
け
こ
さ
し
じ
す
せ
そ
た
だ
ち
っ
つ
て
で
と
ど
な
に
ぬ
の
は
ば
ひ
ま
み
め
も
ゃ
や
よ
ら
り
る
れ
ろ
わ
を
ん
ア
ィ
イ
ウ
ェ
エ
オ
カ
ガ
キ
ク
グ
ケ
コ
サ
シ
ジ
ス
ズ
ソ
タ
ダ
チ
ッ
ツ
テ
デ
ト
ド
ナ
ニ
ノ
ハ
バ
パ
ビ
フ
ブ
プ
ボ
ポ
マ
ミ
ム
メ
モ
ャ
ュ
ョ
ラ
リ
ル
レ
ロ
ン
・
ー
ㄱ
ㄲ
ㄴ
ㄷ
ㄹ
ㅁ
ㅂ
ㅅ
ㅆ
ㅇ
ㅈ
ㅉ
ㅊ
ㅋ
ㅌ
ㅍ
ㅎ
ㅏ
ㅐ
ㅑ
ㅓ
ㅔ
ㅗ
ㅛ
ㅜ
ㅠ
ㅡ
ㅣ
ㅤ
ㆍ
㈎
㈏
㈐
㈑
㈔
㈜
㉠
㉡
㉢
㉣
㉮
㉯
㎉
㎍
㎎
㎏
㎒
㎓
㎖
㎛
㎜
㎝
㎞
㎡
㎢
㎥
㎾
㎿
㏄
㏈
㏊
一
丁
七
丈
三
上
下
不
丑
且
世
丘
丙
东
丞
中
丸
丹
主
乃
久
之
乎
乘
乙
九
也
乡
乳
乾
亂
了
事
二
于
云
互
五
井
亞
亡
交
亥
亦
亨
享
京
亭
亮
人
仁
今
介
仕
他
付
仙
代
令
以
仰
仲
件
任
企
伊
伏
伐
休
会
伯
似
伽
但
位
低
住
佐
何
余
佛
作
佳
使
來
例
侍
供
依
侯
侵
便
係
俊
俗
保
信
修
倂
倉
個
倍
候
借
値
倫
倭
假
偉
偏
停
健
傅
備
傳
債
傷
僉
像
僕
僞
僧
價
儀
儒
償
優
允
元
兄
充
兆
先
光
克
免
兒
入
內
全
兩
兪
八
公
六
共
兵
其
具
典
兼
内
冊
再
冠
冬
凉
凡
凶
出
刀
分
切
刊
刑
列
初
判
別
利
到
制
券
刺
刻
則
前
剛
副
割
創
劃
劇
劉
劍
力
功
加
助
勇
勒
動
務
勝
勞
勢
勤
勳
勿
包
化
北
匠
区
區
十
千
升
午
半
卑
卒
卓
協
南
博
卜
占
卦
卯
印
危
却
卷
卽
卿
厚
原
去
县
參
又
及
友
反
叔
取
受
叢
口
古
句
只
召
可
台
史
右
司
各
合
吉
同
名
后
吏
向
君
否
吳
吾
呂
告
周
味
呼
命
和
咸
哀
品
哉
員
哲
唐
唯
唱
商
問
啓
善
喜
喪
單
嘉
嘗
器
嚴
四
回
因
固
国
圈
國
圍
園
圓
圖
團
土
在
圭
地
址
坂
均
坊
坐
坡
坤
坪
型
城
域
執
基
堂
堅
堯
報
場
塔
塘
塚
塵
境
墓
增
墨
壁
壇
壤
士
壬
壯
壽
夏
夕
外
多
夜
夢
大
天
太
夫
央
失
夷
奇
奈
奉
奎
奏
契
女
奴
好
如
妃
妄
妓
妙
妻
始
姓
委
姜
姬
威
娘
婚
婢
婦
子
孔
字
存
孝
孟
季
孤
学
孫
學
宇
守
安
宋
完
宏
宗
官
宙
定
宜
客
宣
室
宮
宰
害
家
容
宿
寂
寄
寅
密
富
寒
察
寡
實
寧
審
寫
寬
寶
寺
封
射
將
專
尉
尊
尋
對
導
小
少
尙
就
尹
尺
尼
尾
局
居
屈
屋
展
層
履
屬
屯
山
岐
岡
岩
岳
岸
峯
峰
峴
島
崇
崎
崔
嶺
巖
川
州
巡
工
左
巨
巫
差
己
已
巳
巴
市
布
希
帖
帝
帥
師
席
帶
常
幕
干
平
年
幸
幹
幻
幼
幽
幾
庄
床
序
底
店
庚
府
度
座
庫
庭
庵
庶
康
庸
廉
廟
廢
廣
廳
延
廷
建
式
弓
引
弗
弘
弟
弱
張
强
弼
彈
彌
形
彦
彩
彭
影
役
彼
往
征
待
律
後
徐
徒
得
從
御
復
微
徵
德
徽
心
必
忌
忍
志
忘
忠
念
忽
怒
思
急
性
怨
怪
恐
恒
恨
恩
恭
息
悅
悟
患
悲
情
惑
惟
惠
惡
惱
想
意
愚
愛
感
愼
慈
態
慕
慧
慶
慾
憂
憲
應
懷
懿
戊
戌
成
我
戒
或
戦
戰
戱
戴
戶
房
所
手
才
打
扶
批
承
技
投
抗
折
招
拜
持
指
振
授
掌
排
接
推
提
揚
換
援
損
摠
摩
撫
播
撰
擇
擊
操
擔
據
擧
支
收
改
攻
放
政
故
效
敍
敎
敏
救
敗
敢
散
敦
敬
整
敵
數
文
斗
料
斯
新
斷
方
於
施
旅
族
旗
旣
日
旨
早
旭
昇
昌
明
易
星
映
春
昭
是
時
晉
晋
晩
普
景
智
暗
暴
曆
曉
曰
曲
更
書
曹
曺
曾
最
會
月
有
朋
服
朔
望
朝
期
木
未
末
本
朱
朴
李
材
村
杖
杜
束
条
東
松
板
林
果
枝
某
染
柔
柱
柳
査
校
株
核
根
格
桂
桃
案
桑
桓
梁
梅
條
梵
棄
森
植
楊
楚
業
極
榮
構
槪
樂
樓
標
樞
模
樣
樹
橋
機
橫
檀
檢
權
次
欲
欽
款
歌
歐
止
正
此
步
武
歲
歷
歸
死
殊
殘
段
殷
殺
殿
毅
母
每
毒
比
毛
氏
民
氣
水
氷
永
求
汗
汝
江
池
決
沈
沒
沙
河
油
治
況
泉
法
波
泥
注
泰
泳
洋
洙
洛
洞
津
洪
洲
活
派
流
浙
浦
浩
浪
浮
海
消
涉
淑
淨
淫
淮
深
淳
淵
混
淸
清
減
渡
港
湖
湯
源
準
溪
溫
滅
滿
漁
演
漢
潛
潤
潭
潮
澤
濟
濤
灣
火
災
炎
炳
烈
烏
焉
無
然
煙
煥
照
煩
熊
熙
熟
熱
燈
燕
營
燮
爭
爲
父
爾
片
版
牙
牛
牧
物
特
犬
犯
狀
狂
狗
猶
獄
獨
獸
獻
玄
率
玉
王
珍
珠
班
現
球
理
琴
瑞
環
甘
甚
生
産
用
甫
田
由
甲
申
男
町
界
留
略
番
異
畵
當
畿
疏
疑
疾
病
症
痛
癸
登
發
白
百
的
皆
皇
皮
益
盛
盜
盟
盡
監
盤
盧
目
直
相
省
看
眞
真
眠
眼
着
督
矣
知
短
石
砂
砲
破
硏
碑
碧
碩
確
磁
磨
示
社
祀
祐
祖
祝
神
祠
祥
票
祭
祿
禁
禍
福
禪
禮
禹
秀
私
秉
秋
科
秘
租
秦
秩
移
稅
程
種
稱
稷
稿
穀
穆
積
穴
究
空
窓
窮
立
章
童
端
競
竹
笑
符
第
筆
等
答
策
箕
算
管
節
範
篇
簡
簿
籍
米
精
系
紀
約
紅
紋
納
純
紙
級
素
紫
細
紹
終
組
結
給
統
絲
絶
經
綠
維
綱
網
線
緣
編
縣
總
織
繼
續
罪
置
罰
署
羅
羊
美
群
義
羽
翁
翊
習
翰
翼
老
考
者
而
耕
耳
耶
聖
聞
聯
聲
職
聽
肅
肉
育
背
胎
胡
能
脈
脫
腸
腹
臣
臨
自
至
致
臺
與
興
舊
舌
舍
舜
舞
舟
航
般
船
良
色
芝
花
芳
苑
若
苦
英
茂
范
茶
草
荒
荷
莊
莫
菊
菜
菩
華
菴
萬
落
葉
著
葛
董
葬
蒙
蒼
蓋
蓮
蔡
蕭
薄
薛
薩
藏
藝
藤
藥
藩
蘇
蘭
虎
處
虛
虞
號
蛇
蜀
融
血
衆
行
衍
術
街
衛
衡
衣
表
袁
被
裁
裕
補
裝
裵
製
複
襄
西
要
覇
見
規
視
親
覺
覽
觀
角
解
觸
言
計
討
訓
託
記
訟
訥
訪
設
許
訴
註
評
詞
試
詩
話
誌
認
語
誠
誤
說
課
調
談
請
論
諫
諸
謀
謂
謙
講
謝
證
識
譜
警
譯
議
護
讀
變
讓
谷
豆
豊
象
豪
豫
貞
負
財
貢
貧
貨
貪
貫
責
貴
買
貸
費
賀
賃
資
賊
賓
賜
賞
賠
賢
賣
賤
賦
質
贈
贊
赤
赫
走
起
超
越
趙
足
路
身
車
軍
軒
載
輔
輕
輝
輪
輯
輸
輿
轉
辛
辨
辭
辯
辰
農
迎
近
述
迷
追
退
送
逆
通
速
造
連
進
逸
遂
遇
遊
運
過
道
達
違
遠
適
遷
選
遺
遼
避
還
邊
邑
那
邦
邪
邱
郎
郞
郡
部
郭
都
鄕
鄧
鄭
酉
配
酒
醫
釋
里
重
野
量
金
釜
鉉
銀
銅
銘
錄
錢
錦
錫
錯
鍾
鎬
鎭
鏡
鐘
鐵
鑑
镇
長
門
開
閑
間
閔
閣
關
阪
阮
防
阿
陀
附
降
限
院
陣
除
陰
陳
陵
陶
陸
陽
隆
隊
階
際
障
隨
險
隱
雄
雅
集
雖
雙
雜
離
難
雨
雪
雲
電
需
震
露
靈
靑
青
靖
靜
非
面
革
韓
音
韻
頂
項
順
須
頌
領
頭
題
額
顔
願
類
顧
顯
風
飛
食
飮
飯
養
餘
館
首
香
馬
駐
騎
驗
驛
骨
體
高
鬪
鬼
魂
魏
魔
魚
魯
鮮
鳥
鳳
鳴
鴻
鶴
鷄
鹽
鹿
麗
麟
麻
黃
黎
黑
默
點
黨
鼎
鼓
齊
齋
齒
齡
龍
龙
龜
가
각
간
갇
갈
갉
감
갑
값
갓
갔
강
갖
갗
같
갚
갛
개
객
갠
갤
갬
갭
갯
갰
갱
갸
걀
걍
걔
거
걱
건
걷
걸
검
겁
것
겄
겅
겉
겊
겋
게
겐
겔
겜
겟
겠
겡
겨
격
겪
견
결
겸
겹
겻
겼
경
곁
계
곗
고
곡
곤
곧
골
곪
곯
곰
곱
곳
공
곶
곸
과
곽
관
괄
괌
광
괘
괜
괭
괴
굉
교
굣
구
국
군
굳
굴
굵
굶
굼
굽
굿
궁
궂
궈
권
궐
궜
궤
귀
귄
귈
귐
귓
규
균
귤
그
극
근
글
긁
금
급
긋
긍
긔
기
긱
긴
길
김
깁
깃
깄
깅
깊
까
깍
깎
깐
깔
깜
깝
깟
깡
깥
깨
깬
깰
깻
깼
깽
꺄
꺅
꺼
꺽
꺾
껀
껄
껌
껍
껏
껐
껑
께
껴
꼈
꼬
꼭
꼰
꼴
꼼
꼽
꼿
꽁
꽂
꽃
꽈
꽉
꽝
꽤
꽥
꽹
꾀
꾸
꾹
꾼
꿀
꿇
꿈
꿉
꿋
꿍
꿎
꿔
꿨
꿩
꿰
뀌
뀐
뀔
뀜
끄
끈
끊
끌
끓
끔
끗
끙
끝
끼
끽
낀
낄
낌
낍
낑
나
낙
낚
난
날
낡
남
납
낫
났
낭
낮
낯
낱
낳
내
낵
낸
낼
냄
냅
냇
냈
냉
냐
냑
냔
냘
냠
냥
너
넉
넋
넌
널
넓
넘
넙
넛
넜
넝
넣
네
넥
넨
넬
넴
넵
넷
넸
넹
넼
녀
녁
년
념
녔
녕
녘
녜
노
녹
논
놀
놈
놉
놋
농
높
놓
놔
놨
뇌
뇨
뇰
뇸
뇽
누
눅
눈
눌
눔
눕
눗
눙
눠
눴
뉘
뉜
뉴
늄
늉
느
늑
는
늘
늙
늠
능
늦
늪
늬
니
닉
닌
닐
님
닙
닛
닝
닢
다
닥
닦
단
닫
달
닭
닮
닳
담
답
닷
당
닻
닼
닿
대
댁
댄
댈
댐
댑
댓
댔
댕
댜
더
덕
던
덜
덟
덤
덥
덧
덩
덫
덮
데
덱
덴
델
뎀
뎁
뎃
뎅
뎈
뎌
뎐
뎠
도
독
돈
돋
돌
돔
돕
돗
동
돛
돼
됏
됐
되
된
될
됨
됩
됬
됴
두
둑
둔
둘
둠
둡
둣
둥
둬
뒀
뒈
뒤
뒷
뒹
듀
듈
듐
드
득
든
듣
들
듦
듬
듭
듯
등
디
딕
딘
딛
딜
딤
딥
딧
딨
딩
딪
따
딱
딴
딸
땀
땃
땄
땅
땋
때
땐
땔
땜
땠
땡
떄
떠
떡
떤
떨
떫
떳
떴
떵
떻
떼
뗀
뗄
뗏
뗐
또
똑
똘
똥
똬
뙤
뚜
뚝
뚠
뚤
뚫
뚱
뛰
뛴
뛸
뜀
뜨
뜩
뜬
뜯
뜰
뜸
뜻
띄
띈
띌
띔
띠
띤
띨
띵
라
락
란
랄
람
랍
랏
랐
랑
랖
랗
래
랙
랜
랠
램
랩
랫
랬
랭
랴
략
량
러
럭
런
럴
럼
럽
럿
렀
렁
렇
레
렉
렌
렐
렘
렙
렛
렝
려
력
련
렬
렴
렵
렷
렸
령
례
롄
로
록
론
롤
롬
롭
롯
롱
뢰
뢴
료
룡
루
룩
룬
룰
룸
룹
룻
룽
뤄
뤘
뤼
뤽
류
륙
륜
률
륨
륭
르
륵
른
를
름
릅
릇
릉
릎
릏
리
릭
린
릴
림
립
릿
링
마
막
만
많
맏
말
맑
맘
맙
맛
망
맞
맡
맣
매
맥
맨
맬
맴
맵
맷
맸
맹
맺
먀
먐
머
먹
먼
멀
멈
멋
멍
멎
멓
메
멕
멘
멜
멤
멧
멩
며
멱
면
멸
몄
명
몇
모
목
몫
몬
몰
몸
몹
못
몽
뫼
묘
무
묵
묶
문
묻
물
묽
뭄
뭇
뭉
뭍
뭐
뭔
뭘
뭡
뭣
뮈
뮌
뮐
뮤
뮨
뮬
뮴
므
믄
믈
믐
미
믹
민
믿
밀
밈
밉
밋
밌
밍
및
밑
바
박
밖
반
받
발
밝
밟
밤
밥
밧
방
밭
배
백
밴
밸
뱀
뱃
뱅
뱉
뱌
버
벅
번
벌
범
법
벗
벙
벚
베
벡
벤
벧
벨
벳
벵
벼
벽
변
별
볍
볏
볐
병
볕
볜
보
복
볶
본
볼
봄
봅
봇
봉
봐
봣
봤
봬
뵈
뵌
뵐
뵙
부
북
분
불
붉
붐
붓
붕
붙
뷔
뷰
뷴
뷸
브
븐
블
비
빅
빈
빌
빔
빕
빗
빙
빚
빛
빠
빡
빤
빨
빳
빴
빵
빻
빼
빽
뺀
뺄
뺌
뺏
뺐
뺑
뺨
뻐
뻑
뻔
뻗
뻘
뻣
뻤
뻥
뻬
뼈
뼉
뼘
뼛
뽀
뽁
뽈
뽐
뽑
뽕
뾰
뿅
뿌
뿍
뿐
뿔
뿜
뿡
쁘
쁜
쁠
쁨
쁩
삐
삑
삥
사
삭
삯
산
살
삶
삼
삽
삿
샀
상
샅
새
색
샌
샐
샘
샛
샜
생
샤
샥
샨
샬
샴
샵
샷
샹
섀
서
석
섞
선
섣
설
섬
섭
섯
섰
성
섶
세
섹
센
셀
셈
셉
셋
셌
셍
셔
션
셜
셤
셧
셨
셩
셰
셴
셸
소
속
솎
손
솔
솜
솝
솟
송
솥
쇄
쇠
쇤
쇳
쇼
숀
숄
숍
숏
숑
수
숙
순
숟
술
숨
숩
숫
숭
숯
숱
숲
숴
쉐
쉑
쉘
쉬
쉰
쉴
쉼
쉽
쉿
슈
슉
슌
슐
슘
슛
슝
스
슥
슨
슬
슭
슴
습
슷
승
시
식
신
싣
실
싫
심
십
싯
싱
싶
싸
싹
싼
쌀
쌈
쌉
쌌
쌍
쌓
쌔
쌕
쌤
쌩
써
썩
썬
썰
썸
썹
썼
썽
쎄
쎈
쏘
쏙
쏜
쏟
쏠
쏭
쏴
쐈
쐐
쐬
쑤
쑥
쑨
쑹
쓰
쓱
쓴
쓸
씀
씁
씌
씨
씩
씬
씰
씸
씹
씻
씽
아
악
안
앉
않
알
앎
앓
암
압
앗
았
앙
앜
앞
애
액
앤
앨
앰
앱
앳
앴
앵
야
약
얀
얄
얇
얌
얍
얏
양
얕
얗
얘
어
억
언
얹
얻
얼
얽
엄
업
없
엇
었
엉
엊
엌
엎
에
엑
엔
엘
엠
엡
엣
엥
여
역
엮
연
열
엷
염
엽
엾
엿
였
영
옅
옆
옇
예
옌
옐
옙
옛
오
옥
온
올
옭
옮
옳
옴
옵
옷
옹
옻
와
왁
완
왈
왑
왓
왔
왕
왜
왠
왤
외
왼
요
욕
욘
욜
욤
욥
욧
용
욬
우
욱
운
울
움
웁
웃
웅
워
웍
원
월
웜
웟
웠
웡
웨
웩
웬
웰
웸
웹
위
윅
윈
윌
윔
윕
윗
윙
유
육
윤
율
윳
융
윷
으
윽
은
을
읊
음
읍
응
의
이
익
인
일
읽
잃
임
입
잇
있
잉
잊
잌
잎
자
작
잔
잖
잘
잠
잡
잣
잤
장
잦
재
잭
잰
잴
잼
잽
잿
쟁
쟈
쟌
쟝
쟤
저
적
전
절
젊
점
접
젓
정
젖
제
젝
젠
젤
젬
젭
젯
져
젼
졋
졌
졍
조
족
존
졸
좀
좁
좃
종
좆
좇
좋
좌
좔
좡
죄
죠
죤
죵
주
죽
준
줄
줌
줍
줏
중
줘
줫
줬
쥐
쥔
쥘
쥬
쥰
쥴
즁
즈
즉
즌
즐
즘
즙
증
지
직
진
질
짊
짐
집
짓
징
짖
짙
짚
짜
짝
짠
짢
짤
짧
짬
짭
짰
짱
째
쨋
쨌
쨍
쨔
쨩
쩌
쩍
쩐
쩔
쩜
쩝
쩡
쩨
쪄
쪘
쪼
쪽
쫀
쫄
쫌
쫑
쫒
쫓
쫙
쬐
쭈
쭉
쭐
쭙
쭝
쭤
쮸
쯔
쯤
쯧
찌
찍
찐
찔
찜
찝
찡
찢
찧
차
착
찬
찮
찰
참
찹
찻
찼
창
찾
채
책
챈
챌
챔
챕
챗
챘
챙
챠
챱
처
척
천
철
첨
첩
첫
청
체
첵
첸
첼
쳇
쳉
쳐
쳣
쳤
초
촉
촌
촐
촘
촛
총
촤
촨
촬
촵
최
쵸
추
축
춘
출
춤
춥
춧
충
춰
췄
췌
취
츄
츠
측
츨
츰
층
치
칙
친
칠
칡
침
칩
칫
칭
카
칵
칸
칼
캄
캅
캇
캉
캐
캔
캘
캠
캡
캣
캥
캬
커
컥
컨
컫
컬
컴
컵
컷
컸
컹
케
켄
켈
켐
켓
켜
켠
켤
켰
코
콕
콘
콜
콤
콥
콧
콩
콰
콱
콴
콸
쾅
쾌
쾨
쾰
쿄
쿠
쿡
쿤
쿨
쿰
쿱
쿵
쿼
퀀
퀄
퀘
퀴
퀵
퀸
퀼
큐
큘
크
큭
큰
클
큼
큽
킁
키
킥
킨
킬
킴
킵
킷
킹
타
탁
탄
탈
탉
탐
탑
탓
탔
탕
태
택
탠
탤
탬
탭
탯
탰
탱
터
턱
턴
털
텀
텁
텃
텄
텅
테
텍
텐
텔
템
텝
텟
텡
텨
텼
톈
토
톡
톤
톨
톰
톱
톳
통
퇴
툇
투
툭
툰
툴
툼
퉁
퉈
퉤
튀
튄
튈
튕
튜
튠
튤
튬
트
특
튼
튿
틀
틈
틋
틔
티
틱
틴
틸
팀
팁
팅
파
팍
팎
판
팔
팜
팝
팟
팠
팡
팥
패
팩
팬
팰
팸
팹
팻
팽
퍼
퍽
펀
펄
펌
펍
펐
펑
페
펙
펜
펠
펨
펩
펫
펭
펴
편
펼
폄
폈
평
폐
포
폭
폰
폴
폼
폿
퐁
푀
표
푯
푸
푹
푼
풀
품
풋
풍
퓌
퓨
퓰
퓸
프
픈
플
픔
픕
피
픽
핀
필
핌
핍
핏
핑
하
학
한
할
핥
함
합
핫
항
핳
해
핵
핸
핼
햄
햅
햇
했
행
햐
향
허
헉
헌
헐
험
헙
헛
헝
헤
헥
헨
헬
헴
헵
헷
헹
헿
혀
혁
현
혈
혐
협
혓
혔
형
혜
호
혹
혼
홀
홈
홉
홋
홍
홑
화
확
환
활
홧
황
홰
홱
횃
회
획
횟
횡
효
후
훅
훈
훌
훑
훔
훗
훙
훠
훤
훨
훼
휀
휑
휘
휙
휜
휠
휩
휴
휼
흄
흉
흐
흑
흔
흘
흙
흠
흡
흥
흩
희
흰
히
힉
힌
힐
힘
힙
힛
힝
金
羅
樂
落
亂
勞
盧
老
魯
論
樂
復
不
沈
兩
梁
良
呂
女
歷
年
聯
連
列
烈
靈
禮
遼
龍
劉
柳
流
類
六
陸
律
利
李
理
離
林
臨
立
狀
茶
宅
️
！
＂
％
＆
＇
（
）
＊
＋
，
－
．
／
：
；
＜
＝
＞
？
［
］
＿
ｇ
ｍ
ｔ
｜
～
｢
｣
･
￣
￦
🌟
🌸
🌼
🌿
🍓
🍞
🍫
🍳
🍴
🎁
🎉
🎶
🏃
🏻
🏼
🐶
🐷
🐽
👀
👈
👉
👊
👋
👌
👍
👏
👧
👩
👶
💃
💓
💕
💖
💗
💙
💚
💛
💜
💦
💪
📌
🔥
🖤
😀
😁
😂
😃
😄
😅
😆
😉
😊
😋
😌
😍
😎
😏
😖
😘
😙
😚
😛
😝
😢
😥
😭
😱
😳
🙂
🙄
🙆
🙈
🙊
🙋
🙌
🙏
🤔
🤗
🤣
🤤
🤦
🤩
🤭
🥄
🥰
🧡
##천
##영
##미
##u
##b
##r
##i
##ㆍ
##ㄷ
##광
##유
##a
##s
##l
##e
##x
##ュ
##ウ
##チ
##에
##버
##플
##렉
##스
##C
##o
##y
##봉
##휘
##이
##사
##상
##게
##도
##ナ
##ム
##ン
##о
##и
##c
##Q
##청
##대
##김
##규
##창
##베
##그
##ㅠ
##하
##루
##가
##보
##육
##시
##설
##O
##P
##B
##K
##A
##리
##얼
##즘
##실
##증
##란
##t
##ㅎ
##감
##합
##니
##다
##종
##효
##표
##m
##n
##d
##번
##경
##중
##용
##자
##와
##p
##죽
##댔
##v
##h
##N
##본
##원
##만
##음
##료
##f
##k
##허
##우
##절
##소
##비
##후
##생
##의
##통
##う
##し
##て
##어
##체
##불
##임
##금
##을
##춘
##석
##확
##장
##되
##g
##z
##공
##제
##를
##병
##휴
##간
##데
##부
##민
##단
##질
##취
##철
##화
##탈
##테
##로
##ã
##호
##주
##프
##랑
##더
##L
##E
##G
##I
##기
##ㅋ
##언
##고
##마
##워
##진
##짜
##S
##풀
##토
##박
##선
##알
##라
##결
##키
##요
##인
##품
##ц
##е
##н
##с
##к
##논
##두
##출
##근
##람
##입
##ь
##류
##타
##파
##메
##크
##💕
##관
##분
##야
##느
##낌
##히
##학
##정
##곤
##R
##D
##M
##а
##в
##р
##л
##현
##구
##속
##회
##계
##법
##률
##れ
##な
##い
##명
##T
##w
##ö
##심
##き
##み
##교
##성
##당
##으
##섬
##긴
##최
##홍
##카
##흐
##족
##르
##즈
##マ
##ノ
##일
##ド
##キ
##ッ
##록
##늘
##채
##백
##추
##판
##매
##톡
##는
##해
##건
##강
##험
##등
##ㅂ
##지
##산
##월
##엔
##안
##운
##수
##동
##남
##은
##행
##잔
##펑
##나
##눔
##책
##전
##목
##값
##년
##별
##서
##린
##H
##F
##무
##노
##わ
##м
##т
##예
##술
##복
##J
##X
##한
##0
##7
##2
##포
##탄
##레
##권
##융
##외
##디
##업
##익
##칙
##협
##j
##들
##식
##냈
##형
##례
##핵
##태
##맹
##ⓐ
##양
##평
##뽀
##오
##옹
##V
##치
##1
##5
##6
##ㅅ
##ㄹ
##삽
##벌
##ㅇ
##9
##밀
##좌
##훈
##Y
##U
##재
##배
##브
##급
##징
##적
##が
##め
##せ
##ま
##に
##저
##력
##초
##연
##축
##q
##ト
##과
##층
##Z
##í
##튼
##범
##Ⅰ
##ㅜ
##귀
##여
##국
##옥
##역
##조
##거
##립
##신
##갑
##론
##격
##려
##갔
##🏻
##👍
##💃
##었
##누
##아
##량
##г
##д
##바
##희
##ㅏ
##개
##혁
##델
##애
##른
##집
##갈
##때
##먹
##던
##8
##3
##객
##열
##래
##활
##능
##덕
##총
##모
##승
##트
##킹
##싯
##ひ
##こ
##쓰
##깅
##볼
##러
##ㅍ
##페
##티
##내
##택
##했
##변
##악
##굴
##덮
##닝
##듯
##습
##윤
##섭
##따
##쟈
##씨
##줘
##각
##령
##퐁
##항
##세
##흘
##팽
##랙
##W
##군
##발
##드
##말
##락
##ㅓ
##ㅗ
##흥
##웃
##겨
##념
##코
##4
##살
##방
##차
##편
##문
##タ
##フ
##ー
##득
##농
##망
##シ
##テ
##ィ
##ル
##위
##칩
##샷
##몰
##독
##슨
##엘
##씁
##쓸
##달
##깍
##é
##풍
##있
##필
##삼
##뚜
##처
##멱
##물
##큐
##찬
##죄
##혀
##렸
##직
##글
##グ
##ク
##난
##っ
##た
##엽
##챗
##벽
##팩
##약
##픈
##ā
##👊
##ô
##싶
##받
##궁
##앙
##よ
##룡
##너
##클
##몽
##쳐
##온
##я
##ラ
##ロ
##イ
##환
##북
##까
##ㅁ
##ㅊ
##슬
##런
##면
##몬
##힘
##혜
##춰
##밥
##ó
##련
##측
##딩
##균
##갰
##막
##걸
##댑
##응
##왕
##겔
##핑
##손
##반
##닉
##획
##맛
##냄
##새
##순
##렬
##렀
##특
##송
##럽
##꼬
##놔
##블
##렌
##완
##충
##녹
##탐
##참
##짝
##ü
##픽
##뚝
##퓨
##날
##봐
##졍
##덩
##й
##푸
##존
##콩
##깨
##터
##암
##검
##ブ
##웁
##셔
##칠
##끼
##츠
##ㅡ
##у
##숙
##든
##흉
##뿐
##で
##す
##쿠
##견
##à
##함
##투
##탁
##웅
##싱
##빅
##듀
##올
##É
##ば
##졌
##덫
##림
##닥
##흔
##틸
##콜
##퇴
##뇨
##💜
##👏
##ч
##피
##뒷
##찰
##네
##못
##궈
##캐
##둔
##혼
##캬
##럼
##ш
##흠
##싸
##♪
##♬
##♩
##😆
##님
##か
##쿨
##헌
##ソ
##リ
##は
##の
##ㅌ
##ᆞ
##ち
##ゃ
##ズ
##넷
##욬
##율
##퍼
##ä
##딱
##デ
##ス
##할
##왔
##×
##준
##잡
##며
##ャ
##떼
##머
##レ
##템
##넣
##곗
##죠
##끔
##첩
##찔
##략
##ß
##륙
##붕
##🐶
##릴
##쵸
##줄
##롭
##х
##п
##ㅈ
##놓
##쟁
##랄
##렐
##욕
##눈
##🍞
##랜
##👧
##👩
##커
##뮤
##쉬
##텐
##왈
##담
##뚠
##ы
##つ
##숭
##팅
##궤
##답
##작
##앤
##돼
##꽥
##향
##압
##빙
##ジ
##😄
##🤣
##짓
##폭
##넛
##벤
##ツ
##エ
##긔
##팔
##싹
##🌼
##ㄴ
##팀
##틴
##낭
##깎
##맞
##췄
##앰
##헬
##륵
##돈
##깡
##돌
##릇
##🌿
##ж
##덴
##렁
##귄
##떡
##껴
##져
##ㅔ
##슈
##케
##골
##끄
##😂
##💚
##점
##お
##も
##じ
##션
##り
##と
##さ
##ん
##あ
##액
##닛
##폰
##쇠
##뇌
##팬
##삶
##ケ
##웨
##극
##뷰
##ら
##く
##샹
##쇄
##맥
##ㄱ
##렷
##○
##쏘
##굿
##탕
##춤
##랫
##폐
##ㅣ
##멜
##낙
##ミ
##ア
##🙄
##😭
##る
##쪼
##롬
##얌
##침
##뭐
##왜
##묵
##븐
##색
##뜨
##짠
##🎉
##길
##뇰
##쥐
##똥
##찼
##렛
##ç
##햄
##밑
##캠
##앗
##엿
##밭
##끓
##봄
##モ
##コ
##ι
##α
##σ
##τ
##ω
##끌
##뛸
##척
##됬
##삐
##룻
##펜
##밤
##흑
##갱
##솜
##룸
##ل
##و
##😁
##😊
##з
##뻐
##툴
##킷
##갤
##💛
##ダ
##カ
##횡
##잉
##걀
##😚
##황
##염
##ε
##ρ
##γ
##ς
##첨
##💖
##ビ
##オ
##넴
##띤
##そ
##킨
##꺽
##밍
##б
##셨
##옌
##냠
##앎
##냐
##였
##졸
##⑶
##울
##곽
##엇
##닐
##퉁
##늬
##펀
##윈
##끈
##🌸
##🍴
##댐
##떠
##걱
##뉴
##녀
##턴
##꾸
##솔
##억
##댕
##숄
##뎅
##콰
##닭
##è
##둬
##겟
##🙏
##켰
##빗
##욱
##넬
##횟
##쁠
##켄
##훼
##촌
##け
##え
##콘
##낸
##サ
##＞
##ェ
##꺅
##꽃
##왤
##찌
##름
##듭
##뜰
##や
##ろ
##を
##헨
##빌
##놀
##셉
##욜
##ㅐ
##롯
##쨔
##긍
##핍
##먼
##엄
##랴
##겁
##좋
##탱
##읍
##움
##틀
##ㅆ
##칭
##Ⅱ
##쾌
##썹
##🍳
##랗
##컴
##빠
##널
##룩
##셈
##쯔
##릭
##같
##뛰
##딴
##쩍
##링
##쯤
##ニ
##긋
##납
##옛
##접
##촉
##얄
##껏
##💙
##닙
##쭉
##뼈
##셰
##텔
##캇
##홀
##벼
##잼
##빛
##킬
##센
##또
##빈
##친
##쩌
##캣
##냥
##∼
##붐
##엥
##찹
##쌀
##짱
##컬
##높
##😢
##늑
##꽈
##😱
##없
##🤩
##된
##써
##묘
##겻
##롱
##뽕
##셋
##맵
##볶
##꽁
##◈
##맘
##넥
##😀
##뒤
##헝
##폴
##넨
##옷
##곡
##🧡
##멕
##깃
##핀
##흡
##삥
##팎
##💪
##착
##릉
##뉘
##🍓
##땐
##콕
##왁
##ν
##ο
##κ
##η
##첼
##녕
##톤
##😘
##쎄
##힌
##십
##😝
##팡
##혈
##잘
##늄
##핫
##킴
##몸
##ê
##だ
##혹
##슴
##둘
##뿌
##🏃
##윅
##쩜
##켜
##쌍
##쪄
##멘
##ョ
##😍
##ｍ
##쥬
##힐
##쉴
##냉
##패
##젠
##▼
##뤼
##잇
##쳤
##홋
##텀
##뱀
##겼
##콤
##샤
##넸
##💦
##넹
##켓
##쫀
##헐
##랭
##몇
##쁘
##숫
##괜
##깔
##붉
##삭
##엌
##욥
##핳
##퀴
##③
##슷
##돕
##맨
##옴
##ᆡ
##앜
##엉
##뇽
##벨
##밌
##빼
##줌
##킥
##랍
##헿
##쉼
##탑
##쇼
##캔
##🐷
##릎
##촬
##딘
##잭
##칼
##헛
##륜
##혓
##뱅
##쑥
##쌈
##ú
##첫
##젊
##햇
##롤
##귈
##ガ
##プ
##핏
##뭇
##쌤
##딸
##솟
##π
##놨
##캉
##섞
##둥
##앨
##곧
##릿
##덱
##뫼
##쫓
##짐
##럴
##뭍
##②
##멀
##컨
##띠
##좆
##벙
##🏼
##씹
##째
##젬
##겹
##셀
##푀
##굳
##믿
##샵
##☕
##벗
##윗
##겠
##봤
##틋
##😛
##잎
##🤗
##젓
##좀
##났
##갓
##뽑
##ا
##칫
##펄
##럭
##ㄲ
##톱
##므
##쩡
##쿄
##뜻
##헤
##걍
##빡
##잠
##ポ
##툰
##뢰
##쁨
##귤
##셴
##숟
##ㅑ
##넌
##밋
##β
##퀸
##🍫
##닿
##떨
##넼
##칸
##칡
##푼
##댁
##꽉
##💓
##꺼
##괴
##뤄
##🙂
##Ⅲ
##텅
##쳉
##걔
##샘
##붙
##슐
##쳣
##춧
##쯧
##👀
##😉
##ᄒ
##닼
##뭉
##🎶
##😎
##🙈
##컵
##μ
##잌
##â
##닻
##겸
##츄
##엠
##👶
##🤭
##녁
##팟
##겅
##핌
##덥
##В
##캘
##덤
##룰
##🌟
##괘
##갭
##💗
##듬
##홈
##λ
##́
##윽
##펙
##ど
##렵
##닌
##왑
##쭈
##찮
##낮
##됨
##넘
##˚
##썰
##뭔
##꾼
##훤
##□
##뿍
##◇
##●
##겜
##털
##펠
##▲
##랏
##궐
##붓
##얘
##곱
##쐬
##뷔
##～
##⑧
##뤘
##힛
##늠
##벡
##😋
##곰
##탬
##🤔
##즙
##밧
##튜
##훌
##휼
##얀
##덜
##メ
##띵
##콧
##숲
##꽝
##딧
##→
##룬
##룹
##웠
##큰
##🙋
##빨
##즉
##혐
##께
##깻
##썽
##낄
##웰
##딜
##봇
##ボ
##젼
##꿀
##슘
##륨
##━
##즐
##갯
##뎃
##낚
##먀
##🥄
##ì
##톨
##삿
##땅
##⑪
##겐
##😥
##괄
##땀
##꺄
##П
##Н
##И
##럿
##쟤
##넉
##엑
##깁
##😃
##셜
##혔
##🎁
##곸
##멸
##넜
##늪
##찍
##끝
##퀄
##숴
##꿈
##뜩
##꿔
##탠
##웟
##풋
##섹
##콥
##バ
##🤤
##곁
##웬
##👉
##👈
##것
##뚱
##훔
##틱
##쁜
##パ
##θ
##탓
##¹
##쉐
##😅
##흰
##앞
##🙌
##🖤
##찡
##딤
##ハ
##챔
##섯
##뀌
##쏭
##곳
##램
##샴
##냅
##밸
##믈
##큼
##굼
##젤
##눅
##옵
##칵
##둑
##팰
##픔
##댓
##🙆
##죵
##😳
##🤦
##킁
##랐
##｜
##뽈
##쪽
##욘
##멍
##됴
##렙
##쥘
##뺑
##깐
##밖
##뵈
##돋
##았
##첸
##쭝
##꿍
##렴
##줍
##낫
##㉣
##끊
##낱
##앉
##톈
##쿤
##겄
##낵
##룽
##👌
##뼛
##땜
##촵
##깽
##딕
##깝
##짚
##밴
##△
##⑷
##롄
##벅
##륭
##엡
##😖
##씰
##쟝
##텃
##잖
##짤
##쭐
##좁
##😌
##팝
##─
##웩
##δ
##갸
##캄
##뭄
##튬
##낼
##뇸
##♡
##둠
##맸
##굉
##괭
##녜
##떤
##⊙
##ぬ
##짭
##캅
##쩐
##ｔ
##쨩
##욤
##믄
##↓
##맺
##튀
##켈
##⅓
##폼
##ư
##쌓
##샨
##멓
##딪
##짖
##☆
##★
##👋
##쳇
##씀
##볏
##껄
##댄
##놈
##뎈
##깥
##쑤
##넙
##흙
##깟
##꼭
##А
##ㅉ
##겋
##슥
##쿵
##될
##돔
##샬
##눌
##뿔
##댜
##챠
##뱌
##뱃
##텍
##С
##닷
##깜
##많
##😏
##렇
##️
##둣
##꿉
##눙
##냇
##뜯
##샐
##됐
##녘
##잊
##Р
##얏
##찾
##씻
##팥
##🔥
##팸
##뀐
##늙
##엣
##짧
##싫
##렘
##섰
##밈
##헉
##벳
##젖
##랬
##틈
##쌩
##갖
##밟
##땡
##즌
##쟌
##섀
##😙
##텟
##늦
##않
##꼼
##봣
##뷸
##턱
##빵
##숏
##맡
##얍
##몹
##빔
##겡
##햐
##텡
##³
##²
##듣
##잽
##싼
##홉
##껌
##앵
##옻
##꼴
##㉢
##㉠
##㉡
##㎏
##숍
##셩
##찜
##뜬
##숑
##텁
##낯
##젯
##톰
##훠
##촘
##핸
##낀
##텝
##묶
##탤
##팜
##뎌
##뎁
##닮
##ㅛ
##릅
##뜸
##윳
##깊
##씸
##빕
##웡
##귓
##훗
##믐
##샌
##챱
##🥰
##홧
##숨
##넋
##읽
##괌
##쉽
##튿
##쮸
##캡
##셧
##쉑
##왓
##씬
##♣
##슭
##껑
##춥
##뒀
##ạ
##멋
##옆
##■
##윙
##욧
##솥
##끗
##쉰
##뻔
##🙊
##ː
##뻗
##삑
##묻
##⑴
##뮌
##탉
##팍
##М
##찝
##ơ
##쥰
##쩨
##첵
##딥
##맴
##얗
##뮈
##푹
##뻥
##퀘
##썼
##짬
##힙
##°
##̣
##̥
##펴
##숯
##쿼
##쭤
##맬
##♥
##꾀
##툼
##갠
##꿩
##듐
##튕
##썸
##됏
##펌
##ෆ
##썬
##섶
##쌔
##뻘
##즁
##퍽
##젝
##＜
##땋
##촐
##찻
##툇
##옙
##겊
##К
##윌
##똑
##젭
##뎀
##믹
##윷
##냘
##촨
##굽
##얽
##흩
##씽
##켠
##´
##줏
##뻬
##왼
##🐽
##뺨
##겉
##렝
##큘
##넓
##숩
##뛴
##쏙
##잰
##얇
##릏
##◎
##땠
##펫
##뻑
##폄
##펨
##÷
##굶
##녔
##벵
##졋
##떵
##찢
##┃
##컥
##넝
##굣
##띄
##⠀
##←
##㏄
##듦
##옐
##㈐
##㈑
##뺏
##팻
##웍
##옳
##핥
##찐
##챌
##샀
##셸
##̈
##줬
##멩
##앱
##팁
##❣
##❤
##껍
##늉
##빽
##뽁
##쭙
##헥
##잣
##탭
##냑
##꽂
##췌
##퉤
##챙
##댈
##뒈
##갇
##랩
##및
##맷
##☺
##컷
##웹
##닫
##헷
##갬
##훙
##샛
##썩
##돛
##멤
##멧
##낳
##④
##⑤
##뽐
##ღ
##Ⅵ
##쥔
##쓴
##멈
##쿡
##돗
##굵
##텨
##볕
##엊
##꾹
##긱
##앳
##갛
##빤
##탔
##＋
##＝
##쩔
##⑨
##꽹
##꼈
##⑫
##훨
##짙
##옮
##눕
##퉈
##①
##슌
##쫌
##맙
##좃
##ⓒ
##햅
##≪
##뚤
##얻
##꿨
##꼿
##▽
##๑
##봅
##솝
##슝
##펍
##꼽
##⑦
##꿰
##톳
##랠
##퀼
##퓸
##놉
##뵌
##뤽
##쫄
##곶
##캥
##긁
##쓱
##왠
##빴
##똬
##팹
##쐐
##ｇ
##빳
##듈
##잴
##씩
##훅
##꼰
##쉘
##쾅
##쥴
##횃
##떻
##잦
##뺄
##Ⅳ
##📌
##닦
##딨
##킵
##컹
##㈜
##낑
##헵
##걷
##뻣
##휠
##뷴
##촤
##뗏
##귐
##✨
##텄
##뻤
##먐
##맑
##펩
##숀
##쾨
##ⓑ
##눠
##쎈
##챈
##낡
##뿜
##눗
##벧
##뿅
##펭
##큭
##퓌
##삯
##꽤
##⑥
##◡
##퓰
##쏠
##ị
##뮴
##샥
##홰
##힝
##츰
##↑
##웜
##몫
##▷
##뜀
##꿇
##훑
##뎐
##✔
##쿰
##빚
##팠
##슉
##넵
##│
##푯
##뮬
##튠
##덧
##씌
##껀
##숱
##±
##뮐
##꺾
##✅
##₂
##깼
##헹
##∙
##떴
##퀀
##㎥
##⋅
##툭
##쨋
##✌
##쫙
##쇤
##웸
##둡
##폈
##흄
##▨
##₁
##㉯
##촛
##뗀
##쪘
##츨
##닢
##틔
##셤
##벚
##⇒
##콱
##땔
##◆
##♤
##궜
##쾰
##헴
##⑵
##잿
##띔
##폿
##솎
##볜
##Ⅴ
##퀵
##쨌
##뎠
##￣
##줫
##죤
##㎉
##휀
##떄
##≫
##섣
##핼
##잃
##뗄
##끙
##ㅤ
##큽
##뺀
##뭡
##쨍
##튤
##뾰
##맏
##놋
##└
##⑩
##뼉
##쑨
##뮨
##땃
##❗
##뀔
##얹
##헙
##똘
##냔
##엎
##쬐
##ℓ
##샅
##탯
##▶
##떳
##쏜
##옇
##잤
##펐
##㏊
##맣
##윔
##㎝
##띈
##뚫
##쑹
##콸
##쁩
##좡
##켐
##갚
##갗
##앓
##볍
##Đ
##깬
##쫑
##셍
##챘
##떫
##궂
##쏴
##₩
##옅
##펼
##홑
##쩝
##묽
##덟
##㈔
##쌌
##뭘
##엮
##슛
##〓
##☏
##밝
##컸
##밉
##㎎
##좔
##쿱
##㎞
##콴
##㉮
##얕
##힉
##쏟
##쌉
##짰
##뿡
##뵐
##엷
##⭐
##챕
##깰
##☞
##뉜
##찧
##닳
##↔
##빻
##엾
##뭣
##샜
##깄
##꿎
##딛
##￦
##짊
##▪
##랖
##˝
##곯
##㎡
##➡
##뱉
##−
##뒹
##탰
##옭
##텼
##겪
##㈏
##봬
##껐
##몄
##㎍
##├
##멎
##℃
##뵙
##뙤
##뺌
##셌
##낍
##쇳
##쫒
##쉿
##◀
##볐
##┌
##휙
##켤
##♀
##┬
##픕
##짢
##뢴
##♂
##▫
##좇
##쌕
##휩
##앴
##끽
##튄
##™
##됩
##뀜
##뼘
##뺐
##싣
##윕
##홱
##☎
##컫
##눴
##㈎
##꿋
##㎜
##㎖
##▣
##곪
##휜
##갉
##㎾
##㎒
##㎿
##휑
##뗐
##띨
##읊
##땄
으로
에서
한다
##00
##니다
에게
20
19
까지
지만
사람
면서
라고
다는
아니
대한
우리
된다
는데
라는
다고
습니다
때문
그러
지난
201
위해
200
한국
생각
부터
10
보다
지역
그리
문제
자신
경우
그런
사업
이나
통해
시간
사회
대해
기업
해야
아이
따라
시장
다른
미국
함께
하나
그렇
관계
이상
정부
대표
가지
세계
가능
교육
시작
지금
서울
그리고
경기
가장
사실
처럼
경제
이런
그러나
도록
그래
만들
필요
12
위원
는다
정도
사용
연구
프로
일본
##지만
11
들어
다시
중국
어요
지원
해서
문화
위한
이번
으면
##통령
대통령
대학
하지만
모두
이후
관련
##er
이제
으며
다음
정치
투자
밝혔
상황
어서
국가
사이
##니까
학교
의원
개발
15
계획
모든
현재
어떤
다가
199
기술
이렇
입니다
마음
18
30
거나
특히
결과
그것
국민
활동
많이
후보
##on
ㅋㅋ
영화
##스트
국내
조사
이렇게
이야
과정
지난해
진행
중요
도시
새로
최근
산업
전문
대상
다양
관리
동안
민주
나타
이용
정보
이야기
는지
올해
##부터
##in
선수
회사
##주의
기록
이미
학생
정책
##대로
여러
스타
너무
나라
평가
사랑
처음
여기
어떻
또한
보이
##000
이유
운영
모습
당시
자기
그래서
결정
##라고
##an
바로
##or
##시아
의미
16
자리
생활
내용
금융
설명
이어
인간
여성
다면
돌아
운동
아무
없이
##비스
13
한다는
방송
시키
제품
합니다
국제
주장
그녀
새로운
못하
관계자
방법
##어나
14
역사
이날
이러
환경
오늘
17
##운데
참여
어야
최고
감독
업체
##en
현대
같이
지방
서비스
예정
북한
사건
라며
선거
계속
추진
규모
삼성
가운데
시대
기관
##레이
기준
여자
경찰
발전
나오
이름
물론
만큼
어떻게
25
중심
교수
구성
생산
시민
부분
##으며
##머니
가격
조선
경쟁
직접
소리
발생
따르
##랜드
회장
상태
준비
관심
어느
성장
198
##인다
발표
아닌
대회
##ar
제공
부산
어려
상대
기대
그런데
알려
##ti
##al
국회
100
일반
역시
포함
대구
보여
효과
##리아
판매
개인
위원회
일부
얘기
전체
변화
성공
분석
자유
무엇
##es
이라고
프로그
확인
또는
노동
마련
작품
요구
인터
떨어
로서
ㅋㅋㅋ
인지
자연
아직
이해
구조
##버지
가족
수준
그렇게
센터
은행
행사
프로그램
50
경영
고객
더라
전국
인데
친구
모르
공동
더욱
기간
시설
자동
존재
영향
인가
얼마
단체
입장
대해서
실제
위해서
이것
증가
소비
정말
니까
방식
결국
상품
최대
특별
21
주민
지적
조직
달러
노력
지나
남자
한편
건설
대부
얼굴
가치
24
해도
피해
라면
분야
역할
제도
##진다
이루
활용
세상
나가
확대
강조
책임
과학
회의
마다
##거리
정신
건강
인사
대로
당신
##he
사고
대부분
전략
어린
유지
강화
선택
22
기능
배우
그룹
먼저
현실
##이트
중앙
자체
공개
만나
시즌
한다고
전망
행정
사진
40
는가
시스
찾아
을까
미래
조금
아버지
안전
못했
로부터
능력
외국
##전히
주택
23
라도
병원
인천
표현
경험
하루
기자
##다는
##소리
음악
해결
밖에
공사
여행
예상
인정
서로
보험
##이스
기존
관광
전쟁
게임
목표
비롯
의해
공간
정상
누구
직원
드러
시스템
해외
개선
올라
197
마을
광주
려고
자동차
따라서
어디
보인다
오후
아요
머리
나온
위치
계약
거래
현장
주요
못한
기본
지도
아파
고려
##없이
개월
내려
위기
이전
수사
##BS
실시
방문
아들
##ic
아서
열린
##너지
26
적용
위원장
27
그램
해당
마지
거리
##is
##민국
반대
지속
추가
설치
28
예술
대비
제작
전화
아야
기회
엄마
단계
거의
대한민국
으로써
##마트
아주
행동
마지막
이사
려는
적극
장관
예산
으로서
상승
##it
도움
업무
통합
유럽
프랑
치료
##어난
발견
공연
느냐
바람
들어가
상당
언론
감사
판단
검찰
작업
영국
동시
집중
리그
행위
아파트
##동안
작가
##학교
##스로
대신
차이
매우
바라
부담
공격
##자리
선생
민주당
자료
수익
비판
보호
선정
사장
##으나
우선
##나라
달리
각각
음식
어머니
의사
브랜드
세요
##at
드라
조성
보내
협력
시켜
문학
의견
처리
과거
내년
조정
스스로
사무
무슨
확보
##el
그냥
##디어
그때
단지
독일
TV
만든
29
행복
주변
평균
차지
##리스
결혼
그림
비용
지구
전문가
부족
##om
공급
이르
주인
출신
관한
인터넷
움직
더라도
보도
기억
나왔
##른다
안정
가까
위험
목소리
형태
공부
인식
목적
196
글로
으나
순간
자금
프랑스
제대로
진짜
누리
전자
전통
##린다
근데
스러
이익
부모
수출
어렵
제시
분위
언제
의식
말씀
통신
에너지
##전자
스럽
복지
##ol
보였
2010
지지
거든
모델
시기
대책
글로벌
인기
디자
##가지
매출
최초
영업
##ing
비교
2000
분위기
규정
2012
주식
도입
환자
반면
그대로
분명
교통
나이
지요
노래
앞서
방안
종합
60
대전
전시
신문
제기
우승
그럼
소비자
우려
오히
롯데
오히려
LG
체험
이뤄
얼마나
가구
##am
느낌
##st
시행
아래
생명
방향
소설
의료
##이어
차례
공장
등장
충분
핵심
제주
기다
스마트
예요
따른
##tion
31
논의
개최
고자
축구
장애
##ou
비해
참가
설립
지식
인상
##레스
소개
인물
일정
가정
2014
소속
한테
피부
검사
높이
2011
광고
현상
시절
이동
가진
올림
질문
##어지
수도
연결
##re
##아들
세기
기획
마치
인해
중소
유명
카드
장기
다르
전혀
2009
SK
##이터
전기
2008
부문
##il
더니
기사
잖아
2013
으로부터
거기
개혁
조건
아름
신청
##한다
도로
네요
민족
##기업
2015
드라마
대화
사상
잘못
참석
가져
유치
아침
인도
차량
##아가
에선
희망
오전
연기
##라인
정당
담당
공식
청소
업계
힘들
진출
올림픽
스포
시험
사례
이게
지난달
개념
각종
재정
건물
부동
대출
성과
##et
디자인
바이
이곳
체계
##nd
##BC
공공
그만
혁신
합의
아시아
펀드
내부
##이션
시청
주목
출시
의회
인구
아마
자본
##무원
출연
소득
걱정
훈련
##인트
졸업
나타났
정확
재판
본부
다니
혐의
체제
나무
교사
##이지
수요
사라
70
##이크
경기도
인제
협의
세대
##ul
단순
수입
기반
원인
##스터
구체
준다
of
대형
연합
논란
러시아
어린이
스포츠
버리
청와
가입
청와대
고민
대응
남편
오래
일단
부동산
자원
무대
자산
요즘
부정
반응
습니까
평화
195
교회
주제
감소
독립
##ch
비슷
지정
구축
차원
실제로
형성
##므로
전달
승리
선보
느끼
##어들
조치
거든요
듯이
이하
에요
가슴
영어
항공
여름
보고
전환
청년
남성
공원
경남
수상
나와
반영
검토
고등
모양
선물
초등
이끌
불과
2007
주로
했으며
으니
감정
아내
인생
194
##라이
수행
다만
##디오
어려운
월드
자세
##반기
기념
언어
울산
하늘
본격
증권
분양
지하
만드
##수록
제외
일상
그동안
부르
선발
라이
등록
##le
마찬
성적
금리
한다면
##20
군사
35
기초
마찬가지
##자기
고용
국정
2016
프리
개정
맛있
회복
혹은
나타나
해요
넘어
어도
확실
여전히
받아들
제한
우수
떠나
분기
여부
지켜
소재
지급
부인
일어나
파악
최종
학습
투표
현지
이론
으면서
신경
500
해석
##우스
대학교
대중
80
주도
집단
규제
활성
협회
사망
노조
학년
연속
##어났
##운드
외국인
대선
정권
통일
구매
코스
살펴
시켰
보장
추천
##스크
공항
실패
그게
박근
이미지
보수
공정
##드시
시도
반드시
시킨
포인트
전했
혼자
야구
자주
임금
비율
요청
오른
공무원
만족
작용
정리
갈등
영상
종교
올리
법원
대체
의지
고요
민간
일으
가르
화장
박근혜
동물
속도
변호
약속
노인
아름다
일자리
제안
려면
거쳐
제조
##다고
남북
식품
건축
보통
권력
이거
오르
##은행
세력
협상
특징
스타일
보유
겨울
외교
##as
매일
달라
뉴스
##ed
정의
므로
당연
축제
특정
요소
연구원
훨씬
미술
영역
지배
항상
도전
홍보
성격
버스
최소
철학
불구
통한
호텔
KBS
경북
##od
회원
2006
방침
재미
the
스트
내놓
선언
께서
##스타
나서
알려졌
절차
변경
원칙
저녁
진정
불안
심리
유통
하이
##요일
은데
##ㅋㅋ
죽음
그리스
바다
중소기업
하락
##페인
강력
바라보
사항
특성
마리
토론
소통
그러니까
둘러
체육
000
##스코
수술
전해
혁명
굉장
갑자기
빠져
in
##어진
원장
만약
기분
설계
조차
시각
##러스
##다가
창조
불러
총리
물질
실적
절대
스러운
나누
엄청
인수
대답
2017
접근
소유
신고
고개
하나님
##프트
유리
바탕
자치
근로
사태
수원
경쟁력
더불
마케
청소년
봉사
열리
여야
삼성전자
회담
직장
그래도
의혹
측면
근무
##ation
##리카
재산
내리
사전
무역
불법
골프
창업
2018
프로젝
강원
빨리
취업
태도
언급
수업
45
촬영
불리
36
차별
알아
으려
자녀
장소
소식
주의
고통
돌아가
법인
##us
마케팅
통과
굉장히
여론
프로젝트
##나무
2005
덧붙
##ent
인력
대사
작년
33
됩니다
주문
는데요
범죄
구속
중단
초기
유일
일까
심사
시리
근거
아프
생기
신뢰
된다는
거부
##ac
출발
제일
타이
지키
##니스
##의원
누가
32
쇼핑
원래
포기
계기
달성
193
김정
조합
약간
##이드
올랐
완성
확정
MBC
부부
for
심각
드리
완전히
과제
표정
1000
대하
인근
잠시
300
본다
나온다
안타
##ro
##니아
세월
효율
##심히
교과
향후
의한
이란
제출
지사
등급
연금
커피
금액
외부
발언
이탈
동일
브라
##무리
컴퓨
##ㅠㅠ
##서관
화학
온라인
본인
가리
다리
비중
금지
바꾸
2004
신용
해양
달려
으니까
나섰
변호사
법률
향해
실천
우주
바뀌
강한
텔레
저희
노동자
이때
주가
살아
장면
소송
전형
전남
레이
베이
잖아요
상담
가량
임대
나머
마시
요리
재단
가득
예방
느껴
수용
형식
나머지
눈물
철도
오랜
##다보
계열
앞두
시리즈
그랬
할인
컴퓨터
박사
90
##벤트
헌법
여러분
당국
스마트폰
##거운
시킬
배치
카페
도착
의무
미치
이벤트
혜택
했으나
마무리
강남
특수
전력
밝혀
리더
주인공
전투
데이터
연구소
2002
로운
가수
##텐츠
상상
##ur
케이
5000
당선
창출
지수
버렸
그럴
34
열심히
자격
완전
미디어
수학
권리
플레이
떨어지
기다리
고등학교
매년
The
독자
상징
충분히
배경
##ag
##학생
부여
중간
38
펼쳐
그러면
부장
들여
전용
km
통화
라인
##id
매장
전반
놀라
학부
인터뷰
요인
##ig
식사
동아
아도
직업
의장
투입
겁니다
태양
그린
##고기
체결
평소
할지
2003
아빠
KT
부상
서울시
향상
작성
##라도
연장
이른
and
연대
신규
을지
자는
메시
덧붙였
집행
출전
인한
상호
##화점
아무리
연출
흔들
뭔가
어려움
네트
채용
월드컵
의하
논리
종류
미리
긍정
나선
##ad
한나라
통해서
실험
한나라당
확산
공유
동의
이어지
빠르
국방
국립
웃음
인권
전하
괜찮
구입
기구
설정
콘텐츠
벗어나
수석
시점
구나
패션
진단
사정
기계
뉴욕
부대
복합
투자자
보상
국회의원
물건
매력
주말
무기
문재
반복
사과
꾸준
폭력
걸쳐
아닐
위하
사이트
알리
육성
불편
맞춰
37
학원
##간다
수단
한계
야당
실현
철저
기울
토지
아름다운
흐름
출판
그거
휴대
##난다
연계
종목
위반
선진
판결
부지
##바일
기여
구분
순위
예비
##일보
당하
구간
구역
마이
교육청
모바일
나갈
국토
점점
구요
나중
도와
채권
살펴보
##워크
스토
##란드
균형
올려
다며
보고서
표시
##ec
똑같
자랑
디지
확장
가을
수많
농업
와서
보건
대변
55
비밀
입주
지상
비행
생태
장치
##em
고양
할머니
무료
고기
명령
아닌가
소장
적절
결코
극복
든지
이명
제국
연주
교체
청구
의도
증거
단위
시인
##반도
통제
마저
시선
된다고
갖추
봐야
는다는
줄이
지시
추정
모아
정비
백화점
##un
무리
주체
의심
48
추구
허용
디지털
편지
2001
##ot
고속
위협
노선
에스
관객
계산
##페이지
그곳
가까운
범위
당장
홈페이지
간단
메시지
실장
모집
아동
운용
불가
수정
누군
경향
동기
과연
기타
긴장
상당히
발행
총선
과장
오픈
이달
이탈리아
충격
운전
진보
폐지
분리
##ula
정규
가까이
##ter
인하
연간
39
물리
메이
크리스
절반
##환경
기독
form
세트
했었
면적
두려
장비
전년
맛집
떠올
그건
뿌리
크기
##가락
진실
편의
점검
강의
아기
##um
민주주의
다섯
피해자
원내
모임
전부
네트워크
베트
움직이
예전
바닥
방지
중학교
191
다이
모른다
전개
반발
지점
요금
한반도
##다면
분류
취임
늘어나
동생
해소
자율
로마
따뜻
IT
ㅎㅎ
교류
수수
모여
자극
42
formula
완화
고급
궁금
인재
들어갔
세금
원자
##럼프
총장
새롭
65
##ow
안보
즐기
이건
김영
아르
대우
제거
다이어
##르크
자식
생긴
돌려
개국
공약
창원
부처
근대
출마
다소
유형
합리
보조
정기
##메라
대단
데뷔
마침
결론
명예
최저
일제
미사
벌이
소프트
##산물
왜냐
1990
내일
메뉴
41
별로
흘러
예수
192
43
캐릭
공기
가로
기원
강하
인증
슈퍼
2020
고향
기독교
어쩌
결합
공단
어깨
상관
주일
경주
유사
비난
지자
단어
##러운
임명
실력
실질
밝히
들어오
주차
입학
싸움
비상
코리아
예측
캐릭터
그걸
끝나
문자
상처
학자
지도자
지휘
정체
국장
부품
공동체
활약
##어날
투쟁
둘째
##os
천만
나아가
번호
움직임
무시
어떠
관광객
장점
연습
관점
도서관
나요
통하
베트남
최선
강제
어울
75
근본
경계
편성
질환
자전
면은
나올
후반
힘든
채널
##ay
벌써
식당
이내
으므로
트럼프
만난
희생
응답
블랙
점수
세우
##말로
동료
44
이성
부드
부탁
끌어
공감
어찌
인민
빠른
따로
완벽
##라스
거듭
##란다
##ve
이래
덕분
투어
공천
오늘날
역량
1999
해졌
공화
투수
에게서
할까
기부
멤버
이기
탄생
##ir
##비아
충남
클럽
품질
St
1998
수립
누군가
개편
한데
##아지
별도
스테
처벌
46
##ers
사업자
그려
손해
새벽
재료
게다가
복잡
회견
지자체
거대
정해
매각
이명박
박물
동원
배출
평생
##리오
형사
소녀
##og
파괴
SBS
주년
였으며
표준
##구요
앨범
필수
올렸
조용
단일
머물
아닙
##르트
연극
지분
어제
##ess
챔피
문재인
전면
들려
##ri
이외
##사자
거주
군대
애플
##공사
안내
47
승부
협약
이웃
세워
2019
1997
국무
##ce
한화
시위
##리트
3000
올라가
대리
거짓
카메라
파리
그만큼
다루
내세
##메달
제목
대안
##회장
친환경
동네
관람
실수
감안
보냈
##준다
도덕
분명히
선고
근로자
이자
홈런
눈길
임시
꾸준히
박물관
뛰어
스페인
가스
처분
황제
49
통계
발달
한국인
데이
주위
발굴
52
개입
400
공모
초대
집안
##oc
물러
자전거
미소
언제나
군요
직후
저축
##TA
##어져
##오르
원리
프리미
통상
유도
##하면
다수
비즈
내렸
##op
진입
영양
아이디어
51
양성
정원
후원
건너
언니
좋아
In
##시오
##리어
대법
돼야
보증
부채
갖춘
감각
현대차
##ut
석유
알려져
소년
맞추
법안
발휘
서울대
유가
사실상
연락
승인
팀장
더라고
이승
##ap
비록
화려
옮겨
##아버지
##버스
공산
구단
학부모
신설
포항
조기
진다
운행
아무런
개방
##프라
키우
출범
시티
##센트
권한
저자
질서
성분
수능
극장
깊이
CE
오리
고서
멀리
나눠
짜리
다녀
공포
사내
고교
작전
대기
아까
촉구
자면
아울
버린
냄새
전공
KB
기도
##뮤니
바르
하고
매체
인류
커뮤니
캠프
타임
여유
부자
경상
그저
너무나
그날
신체
윤리
이재
원전
##대표
조절
불만
허가
허리
53
##지어
당연히
190
건립
폭발
혹시
투명
떨어져
학과
지내
서구
지닌
역대
사무실
미군
1980
주거
생겼
떨어진
##로스
##피스
손실
##학자
사유
시내
테이
설득
##회사
일종
걸어
생존
만났
방어
그러므로
##바로
이스
본질
흥미
편집
못해
개별
뮤지
놀이
훌륭
54
어른
조각
기에
나갔
광역
에이
검증
습관
업종
생겨
현금
개성
수비
가졌
Ch
종이
날씨
엄청난
이른바
취지
##케이션
오빠
성인
보안
논문
초반
라디오
부회장
다행
뛰어난
1996
점차
물량
담배
계층
대장
선호
옛날
악화
첨단
제정
주관
증상
접수
곳곳
기소
치열
150
추세
1995
왜냐하면
56
취소
부서
상반기
아예
동반
##ood
보낸
빠지
혼란
##im
다이어트
첫째
클래
고정
안녕
상업
일찍
유기
그니까
측정
##어졌
강원도
열정
화면
심지어
도쿄
인공
신화
위안
아쉬
자고
소방
합격
고위
느낄
감동
화재
남녀
비즈니스
##러리
포스코
하반기
규칙
여인
내게
동부
당했
기기
관찰
운명
경선
텐데
##ie
##터리
득점
비전
바꿔
이랑
제재
반도
화장품
형제
스트레스
설비
##으니
복귀
아우
의문
상장
59
미사일
##and
몰랐
##⠀⠀
엔진
화제
조심
풍부
##드리
##다른
지니
발사
줄어들
유엔
지하철
돌파
신라
타자
네네
즐길
활발
끊임
당초
압박
상대방
취하
살아가
실행
개막
##티브
돌아오
나타내
사법
서민
##ity
광장
축소
최대한
심장
알려진
주력
경력
부진
의존
매수
단독
식물
##다란
깨끗
대변인
법정
85
학문
판사
##나다
걸음
참고
못할
다운
컬러
던지
공통
결승
64
녹색
선배
순수
소화
증명
##마자
키워
크림
가게
##비전
챔피언
생물
단기
자라
전제
근처
전날
협의회
양식
라운드
세종
용어
불교
거두
숫자
택시
단순히
세포
매매
57
오염
달하
58
흐르
인정받
맞춤
점심
영원
검색
파트
##세대
돼지
모자
저항
완료
저지
편안
##다니
매달
신호
드러내
명확
순환
분노
##웨어
밝힌
원내대표
해방
재무
이슈
고대
살인
재미있
##ww
##세요
지향
자꾸
파이
흔히
시원
이사장
##공업
취재
서류
www
여건
교과서
구하
자살
연예
살리
나쁜
채택
두산
아울러
수십
여당
선박
바란다
로써
끝내
스님
집회
이뤄지
합병
장군
초청
노무
자마자
공직
소중
인원
육아
사원
찾아가
받아들이
이행
파견
##ia
여수
대학원
경고
##ra
남부
피하
이루어지
취득
해운
목숨
성향
연말
1994
호흡
com
위주
무상
신분
퍼센트
사령
충청
스토리
임원
발매
지위
협정
대학생
##교육
용기
인프라
조작
노출
##th
##IA
번역
펼치
##어도
되게
기아
##구나
대가
프레
##으면
획득
신세
호주
브라질
독서
어쨌
사단
맥주
의학
제약
차단
마주
매입
변동
런던
문장
견해
가난
정치인
자아
해진
걸리
농민
비리
##서트
점유
63
본사
솔직
보관
PC
실업
##직원
전세
사기
연수
물가
조언
잠재
시사
질병
문제점
천안
포장
##웨이
##은이
전북
02
캐나다
호소
만화
66
회계
##친다
관측
상위
##란히
총회
녀석
꺼내
감시
##NS
CEO
미안
청장
드러나
아이템
적합
가끔
수영
떨어졌
면접
방해
##주시
가동
스피
##플레이
독특
작곡
조명
백성
특허
몰라
유니
오랫
사물
텔레비전
99
##카드
개봉
무릎
일대
홍콩
도심
나름
정식
저렴
일어난
줘야
정지
심의
교환
대립
성남
부위
기지
84
보존
진술
애니
심판
당한
피아
커다란
소문
##총리
침체
에어
아프리카
서양
##워서
사라지
느꼈
사퇴
페이스
경비
충돌
연방
##이너
##조합
평등
과목
정하
지주
부과
브리
##니어
할아버지
##으로
이틀
지대
01
스위
예고
수시
자네
늘리
는다고
전원
소수
토대
72
로봇
03
만남
김치
선출
바이오
오랫동안
그리스도
답변
에서부터
무려
##스티
각자
개통
마감
즐거
202
상인
배제
상하
들어서
파크
커지
주주
결제
공학
61
##담회
김성
초점
박정
고구
프리미엄
학기
아트
##해서
강사
정착
며칠
예약
이념
계열사
콘서트
직전
##남도
무한
##일리
시청자
신한
인용
대결
테마
동양
은퇴
농촌
오바
95
지나치
##마디
몰려
호남
트리
이정
마침내
##ea
객관
대북
잠깐
고소
간다
아무것
장사
하우스
적자
잇따
부실
창의
중대
성능
무서
왼쪽
교육감
풍경
문서
이라
경기장
밴드
마르
더라구요
공주
거론
계급
고문
목사
##조건
600
무렵
##뜨리
보완
##로운
포럼
하여
가시
음반
대구시
한정
##까요
지명
출입
교실
FTA
연맹
일으키
##도로
바른
개설
미니
내내
##로그
모으
62
아니면
환율
무게
늘어난
신앙
조화
지표
아라
에다
조례
원하
유대
테크
뮤지컬
만일
보일
##연히
연관
간담회
노트
네이
##레이드
##철수
교장
반도체
타격
실내
고전
1970
묘사
대처
겨우
68
대만
명칭
접촉
##머리
테러
마트
긴급
189
도망
신학
부사
수수료
디스
위대
어쩔
선임
농협
욕망
##에도
용인
더라고요
진화
FC
추억
1992
증시
보급
1993
IC
제주도
부당
돌리
평창
정서
상임
영향력
지출
끼리
개정안
연령
절감
오른쪽
마당
냐는
##마스
맞이
영혼
변하
배려
군인
데리
응원
미세
유학
폐기
일치
수치
건조
##ab
##려야
사안
67
대폭
노무현
확신
장난
융합
오바마
깨달
실무
끝난
창작
간부
침해
못한다
##iv
노사
##ew
배당
휴가
구성원
들어간
일어났
담보
외환
소련
진료
수집
코치
감염
##스토
해군
주간
기름
권위
김종
수리
블루
문명
천연
캠페인
촉진
벤처
근육
호기
화성
된다면
유출
적어도
미만
무조건
스케
만날
손가락
##ion
유아
느라
건데
비서
좌우
고령
여겨
들이
##지사
뜨거운
바람직
임기
고도
유로
협조
끊임없이
입법
to
열차
보편
엘리
##레기
현안
눈치
4000
플러스
##FA
##ED
불렀
##러지
##가스
편리
단장
식민
죽이
이중
답니다
와인
주최
##카이
푸드
장식
십시오
직무
몰아
구청
어쨌든
구상
이슬
지혜
통증
그래요
단속
동맹
법무
병사
지진
##문화
걸려
손님
국내외
정확히
취급
집계
농가
최우
는다면
키로
무너
군수
선사
익숙
적응
냐고
ㅠㅠ
아닙니다
선두
수록
당사자
한마디
CJ
느낀
마사
##ard
드러났
리더십
세웠
##카오
마이크
아웃
널리
소위
쓰레기
싸우
성명
곧바로
저장
안철수
라서
흡수
구제
그치
##바닥
도구
논쟁
플랫
74
쉬운
수주
##ist
대법원
그럼에도
자문
제자
고유
나눔
구미
금메달
신선
양국
벌어지
71
73
이스라
##권자
황금
신기
깜짝
##북도
없애
중공업
유발
북부
항목
빼앗
종료
초과
##단지
77
지리
사로
고생
시범
파워
연설
감성
고발
지켜보
가계
상가
이스라엘
스파
1991
적당
대강
찬성
온도
##건설
선진국
되돌
부활
경찰서
도대
분쟁
남쪽
kr
청약
체포
남기
120
유행
신부
서부
주자
##러진
기쁨
즉시
컨설
SNS
통치
올린
패배
인문
800
국정원
파업
결의
비디오
그대
학회
도대체
기후
라면서
추석
자본주의
불가피
##나이
김태
음성
스키
살짝
일자
오직
훼손
일시
해명
민원
내린
고맙
취약
##시다
싱글
선보이
이주
이혼
복원
동력
퇴직
수백
유치원
##ell
뒤집
상실
김해
문화재
재능
태어나
욕구
구현
다름
였으나
박람
명품
그렇지만
의해서
전주
##영상
GS
강점
조달
영웅
입지
평양
선도
신속
한때
열렸
확실히
어려워
가볍
비정
##ep
거치
트렌
주행
열린다
이어졌
젊은이
집권
스크
든다
최소한
알아보
급증
상무
가공
출산
여의
76
베스트
강연
변수
입증
참조
현행
가상
전후
계시
결심
줄어
재건
섬유
##힌다
마법
아저
사로잡
고양이
뚜렷
한지
한참
69
박지
거짓말
트위
과일
농구
##거렸
장학
88
##다리
##래도
여서
##우드
에겐
멈추
메이저
어두
의정
재생
밀려
동남
입시
##ST
휴식
##생활
김대
과도
한번
기금
때로
공헌
아저씨
일방
아시
##ㅋㅋㅋㅋ
용역
이민
아마도
아메
##낸다
들어왔
청문
서명
시계
테이블
##항공
정성
극단
야권
소형
아닐까
모색
빠진
##ver
국방부
소스
민중
##천시
폐쇄
장르
음료
나타난
의자
칭찬
가방
급격
##온다
침대
바위
천천
입구
더군
수지
고마
리라
코드
임직원
공화국
남겨
진주
1988
소프트웨어
어울리
차관
존중
조지
05
천천히
한가
기상
이용자
##브리
몇몇
품목
##ill
여섯
담긴
후기
##art
이리
진리
가만
비행기
##TV
경매
타인
연봉
물류
1987
아가
##스탄
좋아하
##그룹
미친
복수
종종
6000
셋째
청사
진영
동영상
믿음
입찰
1989
미술관
지연
통보
플라
##어버
##est
##tic
영화제
가질
00
굳이
78
기운
어쩌면
원정
태어났
아무래도
인연
로스
배상
법칙
화물
텔레콤
학급
국어
흔적
구도
노후
##시코
구글
전해졌
유산
양산
한쪽
축하
너희
장수
신중
주기
그쳤
##ak
거절
##메이션
8000
북쪽
예금
돌아왔
타당
떠오르
충족
빌려
소외
진지
부딪
합류
화장실
당부
일기
데려
부작
중반
붕괴
변신
##ff
사회주의
선전
##나마
현황
계좌
요건
커뮤니케이션
##스턴
연료
케이블
##워하
동해
각국
붙여
오프
필리
올바
마크
무사
안팎
영입
구원
양상
갈수록
속하
##디션
엑스
트위터
비정규
저기
메르
징역
지도부
시달
산하
심하
##퍼스
공인
급여
대행
준공
동작
편하
육군
점포
블록
가요
채무
##ame
박람회
비정규직
골목
모니
세운
98
가르치
둘러싼
푸른
순서
자국
대륙
돼요
김정은
##트리
대개
우울
대대
쳐다보
700
성립
포르
새끼
출근
주부
들어와
레드
##라리
이닝
##uc
시킨다
조항
1960
원주
교황
높여
진학
워낙
무용
체육관
파티
간접
아카
##EC
주차장
무척
마디
필자
경영자
##ip
안심
중동
을까요
##our
이걸
대목
일원
세이
진흥
교육부
색깔
금속
##레인
중도
도내
지나가
유동
임무
평범
전당
챙겨
관료
치르
무장
환영
##증권
참가자
향한
신입
저런
탄핵
비타
압력
영남
구별
영장
AI
스튜
승진
로드
지냈
후배
발전소
구경
맞서
받아들여
비로
담겨
철강
드릴
엄격
##리스트
##산업
고리
##ob
매출액
앞장
일관
중구
환상
학술
##시장
갤럭
공략
재개
기법
##eg
종시
가벼
동화
KIA
갤럭시
휴대폰
실정
##all
전설
총괄
##ine
파일
체크
cm
태평
본래
##ang
격차
태어난
전시회
장악
클래식
용품
깨닫
넘어가
보여준다
비평
입술
패턴
그릇
82
재배
PD
81
유력
예선
공제
파트너
Pr
도달
신인
뷰티
마친
될지
충북
주석
공작
오스트
잡지
##회의
보험료
관념
가사
상생
재벌
##스키
세부
십니까
섭취
강요
박스
해고
베이징
##ok
충실
##PG
치즈
st
##덜란드
해안
##ub
화이트
민감
오해
과세
##덩이
##어진다
방사
네덜란드
쏟아
계절
으려고
정수
침묵
체력
##50
쓰이
##총장
##운동
날아
초래
붙잡
셔서
랜드
테스트
상사
계단
김동
여지
관세
소요
이종
188
나설
##30
넘치
##디아
우유
86
애니메이션
7000
심한
마땅
탈출
부각
멕시코
길이
벌였
스티
어리
180
틀림
사드
도중
떠났
메모
이젠
79
이슬람
영광
고구려
스페
유권자
##CC
##시마
개척
하여금
손상
동구
매주
홀로
합동
살려
카카오
##게요
엔터
여객
어둠
배달
출장
먹스
정작
줄여
개헌
적발
개시
조약
두드
선교
경찰청
##거래
확충
##들이
역전
불행
97
진심
사이버
명단
대거
조합원
향하
의뢰
매니
포스트
아나
으시
베르
진로
반성
온갖
##싱턴
페이스북
부끄
87
탄소
전지
시정
완공
##바이
추적
##컨대
##하여
한층
대상자
눈앞
공중
바깥
스런
실망
그분
김현
96
##ram
드디어
징계
유전자
##로드
작동
해상
임신
해질
이룬
이른다
상환
수분
오피스
간호
강도
컨설팅
터미
던가
모았
##아리
전파
다스
까닭
귀족
유입
무언
억제
내려가
시급
스웨
##수수
##립니다
봐도
형상
확률
왜곡
살해
명성
##피아
캠퍼스
육체
성취
해제
언젠
모니터
비타민
도약
동북
귀국
저작
왕국
으리
즉각
비로소
신세계
위상
태국
마라
가깝
표면
본선
예외
허위
##포르
기재
FI
철저히
특유
꿈꾸
욕심
학위
91
방학
회관
감상
하위
클라
두려움
##ud
전선
뮤직
시상
오가
규명
공시
봅니다
심화
디스플레이
##져야
광주시
탄력
빌딩
CC
분열
라이프
처지
고백
신발
일본인
MB
충전
바이러스
당황
워싱턴
촛불
자신감
내면
상공
호수
##어질
연상
##너스
판정
무관
상당수
해체
대량
박수
포스
당일
성폭
운송
압도
원자력
존경
토론회
##하우
청문회
와이
수급
해진다
당당
들리
멋진
##사고
부하
고수
참사
드라이
구멍
강릉
가입자
EU
돌아온
옮기
어우
내수
대체로
재판부
재난
막대
신비
비례
양자
가해
지지율
##려서
금방
원고
의결
89
치킨
##로지
##리즘
1986
고시
##어놓
##igh
우리나라
유해
어려울
앞둔
탑재
과감
문의
모래
외면
##tt
중계
터미널
시골
오브
착수
노리
독재
83
리조
최적
고사
깔끔
연애
##긴다
빠졌
스위스
매치
##ev
프라
아름답
th
중점
즐겁
트렌드
연인
사무소
##네시아
##관리
소음
자세히
그나마
농사
놓여
오랜만
대원
##스티벌
지부
페스티벌
산책
대금
주소
92
극대
설문
넘겨
대외
보전
##본다
편입
신장
가속
관절
기대감
회전
한글
선보였
풀이
코너
갖춰
동쪽
증대
간주
94
오토
들어갈
IM
주연
김재
언젠가
아시안
비하
급식
##저히
##타인
걸렸
한미
06
재밌
오페
원가
고르
한숨
식민지
한강
공업
##의자
제조업
노예
탈락
연예인
안양
관할
유연
##랑이
전역
하얀
보육
부사장
탐구
영토
흘리
채워
그야
포트
##단체
실시간
진상
포도
기아차
소금
지불
알렉
용서
핸드
워크
평택
마산
##번에
귀여
서술
건전
위로
중독
##가포르
터키
##톨릭
전라
선거구
산업단지
요원
쇼핑몰
사업비
나타난다
IS
상승세
글자
행보
구름
버전
줄기
미터
특별히
동참
최상
도민
자발
싱가포르
페르
즐거움
케어
##집트
꼼꼼
입니까
짐작
타이어
점령
##다수
위성
식단
꼬리
금강
지침
소지
필리핀
인데요
이집트
살아남
일곱
Un
자존
국당
고지
서쪽
co
면세
허락
Th
성실
폭행
중시
답답
##TE
상금
사냥
농장
김진
타이틀
착용
이어질
예능
가전
봐요
반박
방영
데일리
모를
둘러싸
독점
전사
1985
아끼
기호
유용
특검
혈액
잡아
기원전
경로
시나
수천
부작용
상자
먹이
애정
##아이
출간
형편
지인
입사
다를
소환
용산
이끄
노하우
건가
공고
특화
앞세
##소득
김상
차기
일각
##트로
가맹
93
끌어올
250
금호
리얼
신임
안동
스코
##든지
그간
주류
드림
이모
##져서
부드럽
상식
##if
##ich
부리
당원
농산물
시집
리조트
운전자
07
중화
붙이
비서관
달아
연평
역임
올바른
거친
각오
해수
안타까
격려
모순
빨간
신사
누나
kg
무력
잉글
도서
스승
회수
난다
참으로
국경
##공항
연휴
일요일
떠난
부패
행진
인도네시아
더구나
오페라
정면
배터리
행정부
양쪽
끄덕
##렇게
타운
동계
먼지
어르
##바지
슬픔
돼서
##ran
##ure
시중
##둘러
일어
미칠
사라졌
아이폰
비대
##워드
페이
수면
게시
감자
개소
프린
Al
##드라
##NA
돌아보
##ue
예쁘
무선
동서
이적
맥락
댓글
매도
##받침
권고
사후
원천
일지
증권사
높였
스탠
가이드
날개
정밀
1984
창립
걸린
인천시
차장
모터
철거
도청
타워
북미
시공
거울
생일
이마트
패러
9000
분산
부산시
기온
##ail
피로
스프
An
가문
메이크
##느님
냉장
청산
세미
승객
가만히
사우
사자
증언
넘기
##버트
##ㅠㅠㅠㅠ
그야말로
name
##루션
플랜
항공기
실태
여의도
왕자
김기
김경
만기
당해
얼음
단원
친절
이영
기울이
클린
04
뛰어나
돋보
사립
협동
바보
그라
나간
마쳤
김포
교차
이치
용지
세탁
인디
갈라
헤어
춘천
비싼
아픈
네이버
분할
달한다
건지
하느님
웨이
조리
누적
최악
최다
슬로
비극
골프장
모시
발효
도발
심정
특이
사연
표기
##일랜드
보조금
실종
어머
되찾
스웨덴
걸로
돌아와
한창
주먹
출생
지낸
물품
총재
눈빛
##느리
바닷
이럴
다가오
머릿
따지
마켓
이겨
목록
가르쳐
태풍
명시
플래
##ort
예쁜
실용
1950
명백
##야마
가려
사찰
그리하여
라니
조용히
##구리
코트
이수
디자이너
결성
서서
백만
학력
강경
늘어났
어르신
##어내
인테
죄송
기조
관행
크루
치유
실체
##어리
전담
##가운
납품
위탁
항의
챙기
즐거운
일반인
서해
##든가
남아
##ne
187
내지
박정희
단체장
실리
##ong
국세
낮추
됐으며
어릴
남겼
장착
제고
급속
코스피
##풀이
납부
왕조
몽골
NC
분당
IP
Com
누르
해설
대다수
잇따라
GM
화폐
면역
##처럼
줄어든
생생
단백
한도
달했
전무
무언가
신성
대주
입원
사인
pp
돌입
나란히
명절
아픔
골드
중국인
##바람
##키지
최신
따위
##ge
청주
후회
백제
페이지
유전
##미터
가톨릭
아름다움
유혹
마스터
부른다
아베
녹음
갤러리
or
감추
거래소
과학자
##대문
애초
위축
NH
탁월
성질
곤란
모은
아스
증진
토요일
186
김대중
뒷받침
책상
피고
##배우
치러
채소
아쉽
보인
자사
조국
대항
출석
수렴
아리
어라
단단
다룬
전적
즐겨
만만
함유
산림
##시스
연합회
##킨다
성서
월급
##잡이
추모
솔직히
기적
##ork
크리스마스
향기
천억
흥분
패키지
뇌물
화합
무산
한두
김용
멀티
구석
New
뱅크
##데이
합쳐
고추
리스트
차라리
피아노
그림자
##데미
고집
##──
빛나
##산시
확립
국면
골라
외모
여권
방치
흔들리
##마크
접속
주재
놓치
철수
1982
주저
관여
채우
모른
현역
##ate
메이크업
겨냥
철회
병력
부가
부드러운
히로
당분
태양광
FA
용도
무덤
##ik
들어온
부적
선보인다
일행
의류
더욱이
900
##테크
mm
번지
책임자
아카데미
드러냈
육상
절실
발급
절망
##직자
폭탄
거점
비싸
스튜디오
##먼지
인종
감축
착공
내각
버려
담당자
적정
기술력
실점
궁극
통장
##러져
인테리어
가라
시세
주사
교섭
내밀
순이
배운
재원
후쿠
출판사
1983
##용차
자칫
##성장
장례
##이즈
##ment
놀라운
##가루
##어넣
오사
원료
상속
잉글랜드
이루어진
숙박
범행
심해
강세
연패
09
생애
어린이집
여사
재정부
윌리
##임스
고조
시트
재건축
주방
드래
기차
편의점
나쁘
민심
건의
찾아보
대지
이야말로
태평양
판매량
오일
##DP
벌어졌
측근
추락
단백질
사무총장
보좌
표명
##ial
세일
서기
인형
상영
정통
##둥이
호응
조만
순천
합성
어떨
원유
흥행
계승
스크린
나아
##ith
저소득
인격
야간
이를
소원
성경
대박
생성
쟁점
서서히
야외
명분
##스레
평론
전신
##ian
포털
이듬
생길
08
내정
##동강
놀랐
바둑
이뤄졌
건국
김연
##현진
원활
##se
세제
폴리
##드로
Con
자부
병행
퇴근
일체
미국인
새해
예컨대
떠올랐
발라
액션
정규직
발주
김일
##ber
빠져나
명의
콜라
1981
환경부
논술
프라이
내보
공익
취향
고스
명회
못지
우위
배정
발목
##오프
커플
넥센
##구역
##제품
제임스
창문
지경
삼국
응급
##티나
##ld
벌어진
직장인
교정
차트
유적
가리키
무지
다행히
이듬해
트레이
선행
벌금
더블
펼쳤
부천
바뀐
창고
텍스트
단축
관장
도모
던져
문구
안경
공세
##러드
플로
##해야
이태
새겨
예술가
흑인
누워
일환
당내
de
한동안
수험
열기
시신
##꺼번에
한꺼번에
한국어
영감
조선일보
송도
절대로
국무총리
바퀴
서초
메인
솔루션
양념
축적
IB
숨겨
노동조합
스타트
음주
오류
남한
구호
면세점
억울
정말로
전교
들여다보
초월
의상
대해선
수산
수당
간판
힘입
언덕
식량
던데
은가
고장
동아리
##광역
괴롭
베이스
앞선
노동당
아랍
나선다
피자
##ain
고무
비치
카이
##NG
1500
130
독도
아일랜드
게이
##니즘
결혼식
지성
경제학
몰리
후속
재고
장학금
으러
터널
타입
건수
LED
뒤늦
중개
미세먼지
1979
김수
여신
더군요
자제
동남아
##토록
종로
외치
조만간
피곤
관람객
생계
우정
공기업
##man
벨트
##셔널
중고
당분간
개관
비유
물고기
억압
발명
뛰어들
주한
재직
차세대
날카
스러워
낭비
리스크
솔로
천재
크로
자회사
버릴
드렸
유래
이라크
조종
염려
##러워
전철
##ov
대단히
대사관
비트
##런스
온몸
CD
언더
지붕
다큐
##OC
어려웠
자존심
응시
별다른
잘라
간식
다녔
러브
조세
##어붙
이윤
시나리오
##ry
견제
유효
감수
머릿속
부근
접하
세미나
장성
이마
##ore
##av
교원
상주
공군
강행
Ar
등산
임상
하드
도저히
연세대
중견
티켓
마르크
양심
불거
차질
개장
재현
##버그
명문
케이스
코미
아메리카
주름
여주
등판
##ttp
의약
로비
서둘러
계곡
##리포
아이돌
대조
법무부
단다
시가
조상
최순
계란
여왕
주유
방위
외국어
http
포괄
도요
좌절
종일
낸다
강아지
비결
건설사
##레이션
단점
의정부
국산
어차
한류
천문
투기
트럭
동향
사격
소용
인쇄
아냐
당뇨
불황
변형
전술
될까
성숙
달랐
색상
남긴
##ack
가벼운
무서운
수소
시술
소주
처방
이데
아쉬움
가짜
##ight
현직
뛰어넘
##걸음
연승
면제
들어선
감지
구두
음식점
주고
종전
소매
어차피
내달
김정일
발간
110
간편
##iz
저하
냉장고
태극
노르
위장
Mar
공정위
역설
부스
늘어날
부도
추출
니까요
야마
일어날
갑작
우스
목격
라이브
등지
히트
##ss
똑같이
관중
세련
##인지
공방
약물
##핵화
김지
##동생
오케
동성
신념
비핵화
댄스
원작
지검
미쳤
수성
김민
폴란드
제어
감옥
브리핑
신축
##베이
출자
##광역시
소셜
두루
##닉스
근원
데이트
##스트라
쌍용
내외
천하
재학
이병
이순
시립
범인
전직
모범
과잉
중부
##위원
직면
혈관
분포
US
##ant
##주의자
추측
써야
지법
지능
##ee
160
유물
##고리
##ast
사업장
교통사고
만주
윌리엄
달라지
##비드
중순
키스
특위
창원시
낙동강
호기심
증세
공립
IMF
민생
드물
민영
시켜야
남양
염두
정한
##부르크
거뒀
낯선
이루어져
산소
행태
손자
매니저
맡기
운항
찾아내
오로지
양도
증인
국제공항
떠올리
북구
빌리
로맨
제휴
항만
어두운
무인
정교
##일으
불러일으
확고
##end
다짐
수령
장미
마이클
늘려
##하나
개그
양보
그해
나와서
##뜨렸
착한
한자
세무
주고받
한양
타점
food
소감
유족
등록금
스카
##모토
프로세
##트라
강렬
랭킹
기다렸
니다
발레
##아내
둘러보
##ond
단편
성당
바지
##세포
허브
박영
새우
무효
넘어서
감당
지목
오를
##ly
반짝
재활
마약
서식
제사
나타냈
터지
아사
도리
트로
방송사
일으켰
지났
코스닥
상세
협박
국왕
##ER
꼽힌다
##olog
사형
부총리
한우
꼽히
모형
최후
순이익
inst
주머니
냐면
지각
커뮤니티
입맛
##관계
남구
류현진
반란
블로그
잠실
목포
약화
인접
##연합
##ory
아닙니까
치매
응용
마늘
##토리
##per
강좌
소멸
계신
노릇
사령관
안다
FIFA
패스
몰래
이산
##화문
정세
무섭
요약
생리
수명
복음
승강
토크
이지
불량
스페셜
노란
LH
저서
따져
##리티
광명
적립
##올로
저널
우연히
##저기
원조
한진
무죄
으리라
예의
배웠
떠오
경관
유망
반사
대국
토끼
첫날
청정
삭제
금감
잃어버
입력
얼른
트랙
돌렸
여기저기
모이
과시
부양
청춘
영원히
보충
보여준
도박
##다지
포착
신상
마라톤
마스크
오피스텔
위안부
국적
으려는
대왕
멘토
인체
##운서
그래야
맛스타
##시간
코미디
일부러
의외
미루
정무
아나운서
##놀이
운동장
국물
정답
##ence
공산당
우즈
더러
걸친
보물
억지
교도
요새
참모
##OU
살피
급등
제발
리모
끌려
나뉘
중기
1973
화해
취미
##스토랑
레스토랑
on
분배
라이트
가하
내주
약한
업자
열매
빈곤
1978
결단
십자
140
찾아오
바꿀
고인
감기
고려대
프랜
내려오
속성
##ust
수송
몹시
##철도
정복
버티
베를
신혼
지난주
안쪽
인치
##쟁이
호랑이
##ear
##IC
반전
범주
여덟
수시로
##가리
##ass
불안감
기성
노벨
수신
부재
광범
고스란히
항공사
카운
SM
##af
##ord
선포
하천
김광
학년도
Sp
문득
오스
안타깝
장인
제이
단행
건축물
사명
소극
##oh
입단
아가씨
앞장서
등기
##머스
악기
달콤
보낼
Sh
한결
군주
##지니어
모험
머무
활력
마구
승용차
클리
파라
##ens
울리
##oll
시달리
건네
##ung
##빨리
유인
혈압
표지
골든
##공화
불신
전액
파란
##무성
##━━
리스
아홉
##유럽
던졌
인성
중립
브로
학업
매월
아닌데
ST
가져다
악마
##밀리
합작
##DI
호르
안성
규범
이뤄진
틀림없
중재
어지
집착
1945
지역구
수습
혼합
밀리
기쁘
포지
증정
MC
간절
흑자
##유산
도둑
관해
공자
피할
네티
모드
Pro
느냐는
온다
이분
##고속
반려
##주얼
상권
당첨
농담
통로
우연
기다려
통산
대수
내세우
면허
선제
##ice
##레일
수여
베네
##지능
##올로기
노총
공직자
줄일
오사카
무거운
견디
터져
본능
##외선
살림
소유자
인공지능
2021
글쎄
해라
스피드
가라앉
특별법
##저스
조그
연다
야생
용량
캘리포
시체
어느새
##셉트
우린
달린
도지사
자매
단호
인턴
수위
성사
선수단
힐링
동행
파도
목욕
에드
은지
위생
캘리포니아
피우
패널
생산량
이데올로기
대접
식구
내비
미스
자영
##로나
네티즌
AP
배워
부임
서방
BM
체중
광양
무더
통행
동아시아
감싸
##니스트
시너지
내놨
수년
##80
물려
주어진
타율
복구
촉촉
양측
시상식
헬스
중세
화가
일선
기어
그만두
문건
신동
국도
접목
밀양
하도
충성
치아
추상
##들여
약자
자이
군부
시리아
베이비
수확
이사회
헤드
##원장
권유
상한
라기
글씨
정황
##급식
날짜
국비
금감원
아이스
내장
생선
바쁜
어떨까
소홀
반찬
불꽃
자격증
최강
침략
기둥
##슬러
1974
필름
무너지
무상급식
제의
옵션
맞대
거둔
그다지
착각
밝혀졌
노동부
보리
책임지
모금
메르스
워터
구사
좌석
해져
영리
애국
##FC
II
헌신
소득세
밀접
신종
효력
##바라
경찰관
추격
미용
샐러드
가맹점
되풀이
구장
구리
##tive
핑크
출현
ch
으신
##타운
##구니
만성
벤치
##ational
탄탄
##ook
물러나
가중
사막
거세
동북아
1975
올릴
숙소
복무
구청장
##루스
선조
스쿨
토록
업적
기뻐
전도
마르크스
보복
여고
1972
가죽
신탁
파고
부추
재판소
따라가
게재
1976
바쁘
대략
진전
계정
영주
##릭스
지르
잔뜩
동지
이대
열려
보스
면담
##40
##age
지상파
축산
플레이오프
물음
김일성
관리자
특집
성형
돌아갔
##걸이
처장
였을
##agram
##랍니다
절약
타임스
##식간
수상자
각지
찾아볼
군데
메리
##공화국
##ect
마비
원형
##그레이드
소설가
업그레이드
##⠀⠀⠀⠀
정유
##두르
추산
사흘
중지
체질
강해
김병
접어들
높일
##거나
레이스
내릴
승격
편견
##브리드
삭감
광범위
101
경영진
동아일보
항소
조카
탑승
하이브리드
오스트리아
##오스
커졌
##mer
LA
요시
종업
맞춘
으셨
관광지
배우자
잠수
인민공화국
##ey
광복
가까워
어딘
버린다
경사
수강
장교
선명
현명
별명
1977
보강
En
예산안
수련
강남구
승점
##무지
대한항공
교역
아무튼
이득
석사
여파
전락
유교
바꾼
브라운
낙찰
먹방
SU
미드
사도
다가가
에피
임차
일산
가져오
베를린
출구
추첨
백악
클래스
드립니다
모인
포르투
피고인
해산
미지
말레이
담론
서버
##ib
##OS
공영
당선자
레저
풍성
시비
명목
전기차
GDP
물어
기숙
정국
해운대
느냐고
부를
와중
교훈
종업원
알파
##릅니다
급격히
서점
카르
##로우
##이치
중년
고쳐
##세이
각기
##IS
임의
엇갈
끔찍
순식간
양반
고가
배포
천사
고속도로
##저리
열쇠
마리아
버튼
옮겼
그레이
하나하나
##파크
유방
기증
횟수
소집
119
하수
특혜
아르헨
렌즈
발길
메일
아줌
평론가
아티
광화문
아키
감면
약점
반해
이원
혼인
동굴
지원금
대치
못지않
낭만
요양
수호
꾸며
느껴졌
금요일
지형
써서
당기
주전
재발
##센터
강동
아르헨티나
상원
사이즈
아줌마
##크라
민정
후지
유독
작곡가
배울
해법
배분
ㅎㅎㅎ
해변
의약품
소망
이어진
예배
##PS
안방
플라스
해결책
메달
##조리
부시
간호사
열풍
반환
석탄
상품권
법조
백인
고종
에어컨
알렉산
스킨
갈비
사라져
##EA
성우
갈아
##베르
단말
관심사
쏟아지
발음
##차례
천주
막내
사각
장벽
전이
후손
오이
진동
희생자
우편
언론사
배구
##몬드
교양
청원
분량
창단
중심지
파주
집합
외교부
1971
##키스탄
왠지
고성
끌어들
마인
예언
울음
그런지
도시락
정조
뜨겁
사료
폐기물
관하
호르몬
야채
나빠
비단
지옥
1968
이메
행하
유성
스러웠
치우
##보드
하하
지극
전송
안주
시카
복용
궤도
셔야
배송
법령
1930
쓴다
응답자
개교
공백
올라오
##의식
주역
터치
정화
침입
월요일
활기
엔지니어
철학자
쇄신
심리학
스카이
장려
Cl
Re
바랍니다
국세청
나눈
일일
가르침
단정
##국수
185
벌인
한방
빨라
너머
##더스
거품
막상
학사
크리
인조
##ct
##널드
##사업
##밀히
야기
보살
애인
가루
수색
풀리
경위
소나무
부착
경전
비추
사모
분담
재계
일련
##qu
합창
##두리
한전
안산
타협
협업
유승
아하
보석
드레스
##oun
##PGA
오락
모리
저소득층
사방
문헌
과자
광산
간격
화살
##레이크
리듬
사라진
간사
기르
##프리카
수질
##ary
치명
서사
영구
렀다
등등
전임
행운
일으켜
이어진다
나타날
con
시어
회피
루이
요법
교통부
170
준다는
광역시
대주주
일수록
로버트
상정
단절
검진
센서
내다
입점
처녀
도우
비틀
전방
소모
떨어진다
외곽
삼각
티비
자영업
##저우
토마
모의
공존
홍준
국악
##리케이션
방송국
내려놓
제작진
지식인
##ivers
고치
원화
먹거리
배후
농어
종사
##iet
상용
정해진
열악
어렸
스미
보증금
배신
어음
나노
LC
##지부
##데스
재해
구해
DM
간직
망설
MS
떨어질
유감
거실
기업인
내걸
농도
차려
이메일
##내리
##카락
##크스
통신사
##행위
상상력
머리카락
두려워
tv
##병대
선비
##쓰기
대세
당선인
연이
인자
침몰
드러난
흡연
이어져
경유
초등학생
그랜드
출동
당대
걸까
박원
다면서
발의
##네스
감히
고고
월세
택배
임진
사제
일일이
들렸
귀신
이승만
천장
산정
매운
구절
중복
스리
항구
사소
넉넉
플레이어
al
백신
비자
##서리
##hy
오프라인
1969
껍질
위해선
진압
LTE
푸르
민속
수장
일제히
평일
경상북도
톡톡
신생
유세
척추
돌보
이인
오버
신나
중산
##우리
서정
향수
휴양
탈당
홍준표
피터
익히
실은
KBO
유료
강변
제법
가령
그까
##테이너
##60
도출
그루
주유소
##aily
엄청나
메모리
쌓여
##타르
##신문
추위
좌파
매트
원대
KTX
사령부
크로스
거칠
제로
기하
지루
##다임
괴물
명소
##개발
한눈
에이스
횡령
##특별
알코
으려면
패러다임
단식
백악관
박차
오케스트라
인과
##ex
증여
일으킨
벌여
파장
선보인
안겨
똑똑
커버
농림
나눌
갖췄
마루
박주
아님
매개
##바이트
조율
아아
스펙
##렉스
방금
로켓
유진
세르
어리석
교재
이라도
수목
되돌아
차분
##로움
병역
독립운동
튼튼
극심
발탁
엑스포
블라
회화
포로
에코
흥원
기세
출제
파격
이쪽
막판
##tern
##먼트
온실
산다
##ism
발상
지나친
중얼
사망자
든든
김선
며느리
속한
책정
금품
##교통
SS
남용
스틸
탄압
득표
##멘트
##부로
출력
으론
사양
간섭
햇살
심상
##아웃
디스크
물체
우대
획기
공조
때리
말레이시아
공연장
이뤄질
자유주의
##러졌
닥터
부유
감사원
찾아왔
생긴다
난민
##자치
아닌지
연구자
초콜
들어올
##eb
잔치
집값
향했
진도
이경
느낀다
서장
프랜차
인문학
##트롤
암시
##봐야
분단
대충
##천군
##IP
들어간다
##stagram
산단
신흥
헤이
다카
그늘
검정
송파
UN
자질
까다
달래
일가
작사
##러움
짜증
포르투갈
프랜차이즈
EBS
결승전
연안
##업자
하버
이어서
선거법
##매김
받아들일
다채
김승
홍수
상해
합법
모스크
자리매김
자립
연도
신한은행
온천
치밀
쓰여
협동조합
이노
레인
기한
갑작스
수직
자부심
##베이터
이룰
수고
##위원회
콘셉트
##pp
##소드
복제
장기간
부합
치솟
행성
회동
반지
전격
통영
an
되살
보험금
애요
토로
주권
정립
보행
윈도
답했
파산
서원
물결
##그라
폭넓
놀란
알코올
플라스틱
사교육
퍼져
##튜브
내신
실전
전차
북측
CCTV
##방송
설탕
부친
상수
필드
##수수색
##RA
유튜브
외쳤
은혜
누릴
외출
압수수색
##에르
##경기
방면
공로
키워드
산출
SP
놓인
신약
다닐
케이크
거제
184
사마
달렸
##티아
드린다
광부
요한
박종
전진
이화
돌아다니
인삼
양파
미스터
박성
들으면
##스테
본다면
영문
매진
##에이
옮긴
분자
최우선
##무기
##사리
청취
연동
기장
이력
학대
기울여
흘러나
설사
잡히
인건
보람
##저트
할리
가마
사설
이만
피의자
개개
신재
크루즈
안개
국수
##옵니다
정시
귀찮
가져가
개조
최우수
반갑
한국은행
사면
고는
어색
실효
감탄
차림
직선
개체
정직
##셔츠
BMW
우세
제철
동포
앞세워
1920
1967
##테스
스토어
수원시
인건비
나비
초록
알레
다름없
컨테이너
이례
좀처럼
내역
ㅜㅜ
전수
##바다
ICT
유비
할수록
납치
간장
한겨
총수
충동
아미
해치
적혀
청탁
가산
국민은행
실감
새삼
해임
##산부
미흡
##잖아
눌러
##ies
우울증
재즈
그런가
가리킨다
배수
##ost
노스
음모
낚시
동호
데이비드
포지션
○○
반기
맡겨
고래
발자
끈다
킬로
학계
아산
상향
자책
조조
키즈
레오
미분
이뤄지지
피트
극히
사운드
##가와
디저트
선원
유한
적대
클린턴
한겨레
필연
가치관
신자
팔리
의제
잠재력
실습
원금
##프리
1963
신하
차가운
일간
천국
##오카
을수록
헨리
분해
##르르
외식
##사스
##AS
올라갔
열릴
에다가
비명
카라
엉덩이
천지
걸릴
말라
교부
##시설
화두
약해
##금리
우물
불린다
##숭이
퍼지
저렇게
강정
둔화
오만
1948
햇빛
어선
김연아
연고
모씨
##연구
하원
성폭력
문인
곡선
수차례
지우
더라면
어긋
##스카
일본군
##her
체인
기각
압축
상관없이
발걸음
첨가
OEC
vs
캐스
회원국
펼쳐지
##키아
우회
풍요
식탁
##son
져야
프란
폭로
기생
사나이
임대료
말리
합계
흥국
동경
이순신
달라졌
그래픽
바꿨
OECD
부수
##치기
잡혀
추경
출국
달려가
학살
서적
보컬
HD
바디
종사자
덴마크
동국
##집니다
전복
##걸리
##ical
숙제
위법
관해서
유의
시야
후퇴
##AT
탐사
179
##먼스
액수
유머
쾌적
구제역
재킷
김장
박상
사직
##소시
##멘터리
분과
위임
성주
ET
플랜트
상의
신도
정자
글쓰기
역동
봐서
##욕장
암살
혐오
연산
장난감
해야지
우아
군단
경호
김주
밸리
막걸리
##방울
입국
1965
함부로
##스크림
딸기
뒤따
숨기
##orm
센트
국채
앤드
초콜릿
입체
보름
##oy
이시
맞물
대법관
아이스크림
여학생
만족도
다큐멘터리
리드
리서
부풀
##소연
속속
는구나
대여
##OR
친정
##임금
홍대
휩싸
인가요
수필
전교조
파생
본관
##와서
매번
공통점
조회
##포구
봉사자
적시
취해
집필
컨트롤
몸매
귀여운
길래
루이스
##평가
휴일
동방
##무라
특강
거꾸
떠날
수혜
훈장
돌아갈
##70
엉뚱
##민주
머물렀
##실험
그토록
이현
나간다
디젤
교감
함수
해피
매립
약하
엘리베이터
연비
Bl
성령
에피소드
페어
친화
조류
114
엘리트
옹호
문법
몰라도
넷째
온통
고난
경과
양육
으라
친척
##ert
탐색
이길
긴장감
##이팅
상기
김형
여전
농성
오렌
텍사스
멸망
창설
탈퇴
어떡
원수
날리
말기
테일
끊이
##폴리오
ㅠㅠㅠ
클러
교대
서면
연평균
변함
승강장
포트폴리오
쫓겨
박찬
자외선
그제
천황
다시피
업소
##운다
훗날
폭풍
거북
제보
밀집
변했
350
단말기
저질
헌재
라틴
##어요
##10
게이트
파운드
농부
DNA
나이트
아티스트
섹스
1962
##자원
쿠폰
나치
비닐
리서치
넘쳐
모니터링
배추
계약서
홍성
라스
적성
찾아온
유가족
걸어가
천주교
시드
정의당
나폴
최경
운반
휴게
쿼터
위력
은하
봉투
KA
산학
재선
##부인
이해관계
도요타
환승
환원
가설
Sc
볼거리
연루
##소문
##포먼스
다가왔
퍼포먼스
이대로
##난히
이진
##타이
변해
털어놓
지원자
김준
간단히
조속
염색
공문
언론인
스물
##LS
처한
나마
지문
파문
전라남도
##버리
박지성
표창
본성
박태
세균
원소
주식회사
당할
여름철
##서구
부엌
남동
Univers
씨앗
생각나
고립
섬세
냉정
펼쳐진다
가담
슬픈
이뤘
정동
보좌관
신랑
오렌지
수다
걸맞
원시
백지
트라
##ind
산악
유신
##살이
강점기
커질
딱딱
지장
아버
1964
지지자
애플리케이션
삼진
검거
무늬
손쉽
프로세스
손바닥
다지
메디
##타리
항해
배고
꼼꼼히
이광
관건
1966
현관
인내
폭스
용이
동정
대입
가져야
볶음
탐방
사거리
올레
112
판타
권역
성폭행
성찰
국군
넘어섰
방통
##기에
알렸
토마토
놀랍
거꾸로
경상남도
고독
실려
구워
지역민
부른
만점
모호
진정한
전산
아르바이트
소니
왕실
마음대로
##동력
##MA
핵실험
##볶이
김무성
프레임
가진다
짐승
참전
싸이
고속도
양극
잠정
##관위
Press
소서
안건
프로모
스타트업
##코드
Sch
미네
대인
##나물
포드
서른
아니하
시속
한인
다이아
가축
표출
함정
##io
훌쩍
다투
##성기
빼놓
취한
돌이
문화유산
##커녕
is
##규모
화상
##orld
으니까요
특권
간신
버섯
문예
다툼
급락
명확히
PR
볼까
차익
비스
우호
줄곧
영등
고양시
##ark
접근성
우체
성장세
노려
유죄
##질랜드
초보
입자
장단
##같이
수제
아테
핀란드
실리콘
동문
접시
선장
세자
셔츠
아랫
MOU
제치
미끄
헬기
돋보이
LCD
##동자
클라우드
전문점
주무
##고사
##aw
관습
견인
겁니까
리버
산지
뜨거
그쪽
단가
DJ
기숙사
##ae
스무
연소
by
어째
뉴질랜드
##te
치료제
모른다는
급히
마셨
체류
어때
총력
105
잠들
생물학
인명
공감대
##rom
허물
159
택지
화력
백작
맛보
객실
나카
183
조짐
##TI
##베스
마사지
재테크
도장
게시판
설화
성남시
기인
공격수
호평
보습
드래곤
가로막
##sh
시흥
##수기
이루어진다
육박
치과
관계없이
전염
창구
고작
은근
발판
손목
들어섰
이온
몰두
참석자
솜씨
안드로
무겁
##려고
떠들
지체
파동
##틀러
감독원
##물산
##ace
##센티브
두부
불빛
컨디션
인센티브
편한
바이올
##균관
오디션
프리미어
자진
영세
깊숙
과실
##마다
세입
로고
연재
상관없
은데요
내다봤
황당
활짝
1961
언스
휩쓸
자란
유니폼
마찰
문경
대중교통
프로모션
SUV
마른
양해
밀도
앞당
마운드
경인
CO
속한다
멈춰
달라진
의의
불쾌
일러
##소통
선보일
##라이언
삼성물산
떡볶이
##AR
마이너스
밥상
##테일
초상
이석
성균관
총액
테니스
##추어
강호
##경북
MV
해경
장래
전경
친일
소규모
##iss
창업자
아쉬운
모방
##하라
집중력
말투
내재
다각
##파이
##듀서
보드
려던
벼슬
검출
괜히
프로듀서
마신
타선
도마
기량
##운전
하인
태권
시카고
체감
가해자
##어로
함대
##징금
말미
##감치
Ph
##ts
농어촌
1946
##호텔
##퍼드
원한다
##찌감치
잃어버린
원로
본회의
노화
줄줄
결산
포토
의사소통
마인드
여우
그렸
염증
##협회
여대
만지
가져왔
명사
왕위
후자
별개
민족주의
tvN
줘서
두꺼
면모
경보
제네
길러
마일
치안
선착
져서
with
##블릿
대교
##테이션
스프링
결함
##ove
발령
자재
기리
##ick
중국어
지켰
##조선
시행령
##ug
어미
가꾸
동상
부평
메가
실린
잊어버
증후
행렬
요금제
잔인
우산
##와이
화보
지칭
지극히
해지
정몽
경희
##orea
회상
했으니
음식물
be
##영향
으라고
##노스
개원
정전
##싸움
노라
수법
브루
실재
방문객
방한
##ph
##연대
클레
유쾌
과다
이식
##기구
##다듬
금연
탱크
벨기에
마술
동결
티셔츠
민영화
저지른
복사
타수
히어로
##쳐서
정문
음원
담임
임용
모스크바
이케
##기지
그레
저절
공산주의
이불
##ah
미야
##ire
주파
여가
우드
흰색
##MC
회의실
단서
##태프
Ed
약정
튀어나
아마추어
된장
샌드
공론
여보
저절로
중소형
일생
##커스
대문
에프
##베리
잔디
잇달
상표
납득
고마워
졸업식
1940
항복
이목
##제철
1949
가뭄
랍니다
실상
큰일
퇴진
캐스팅
차리
상륙
바로잡
마세요
징수
세수
력사
사관
신년
재수
격렬
경성
이별
장로
원망
1200
전월
어휘
각별
Ex
금강산
밀착
변명
##정부
소아
왕비
대명
나뭇
저술
##ock
내포
미학
리포
머니
표본
정진
레벨
##오리
웬만
STX
##IST
후계
법학
대동
불쌍
지켜야
##투스
교향
한잔
구할
총체
곤충
파스타
여겼
소액
사이드
텍스
몰락
TF
공룡
제압
날카로운
설교
진해
주의자
타이거
정했
주교
##플러스
움직일
일본어
예민
온실가스
난리
스타일링
약세
미나
강수
ex
태블릿
사신
Pl
구로
정년
승계
경연
대성
##지대
역학
고등학생
노트북
181
아버님
동사
억지로
누리꾼
감찰
다닌
Joh
지갑
꼬집
주축
수반
고의
방울
점프
##매매
도미
daily
클로
Tr
끄덕였
회생
선별
기업가
신조
레이저
입대
죽여
분비
ed
유보
줍니다
손꼽
어린아이
원산
설득력
어딘가
전두
챔피언십
통일부
꾸려
이완
효소
##one
최저임금
연일
AS
쏟아져
행장
Man
방출
뭔지
장거리
준수
설마
술집
##나이티
102
광경
소리쳤
남매
시끄
유나이티
급하
항쟁
##ach
박탈
수평
지름
이준
장남
##고속도로
주둔
귀엽
Le
경쟁자
강구
##발전
칼럼
망명
버디
재빨리
스터
sp
포수
덩어리
채취
양주
##진보
법관
구이
불참
##구석
즉위
끼치
방과
하트
미션
하계
흘렀
##ide
전동
접종
움직여
현수
뿌려
##적으로
는군
겨울철
행사장
효성
법인세
개개인
스테이크
##하루
불길
불어넣
경부
사리
준다고
드문
노르웨이
마셔
강자
해킹
군산
증후군
필립
증설
바치
충고
2500
미미
핵무기
이따
발병
##ish
생겨나
불렸
뜻밖
손길
수비수
어치
##뜨린
신문사
##겨운
연내
르네
자르
CS
미처
태우
국한
후진
스티븐
##돌이
지워
바나
조별
숨진
상류
신지
환호
다듬
테크노
작정
심심
베리
선대
오키
헝가리
십자가
백두
리뷰
마드리
무제
호조
처형
이스트
모토
##IT
상점
##셀러
##사이
쇠고기
178
몰입
민사
문단
투구
선동
He
추신
경영학
거니
질주
명상
명동
정선
용병
마음껏
실존
해수욕장
University
부속
##oT
배럴
서브
녹화
걸림
낙관
##르기
지친
미뤄
장병
도당
우상
중학생
살아온
위조
종말
리처
UE
프레스
아세
니콜
마드리드
롯데마트
아주머니
김창
으세요
##겹살
연어
화자
##레나
빠질
후임
홈플러스
박원순
근접
수동
세로
포스터
##줄기
치른
동창
란다
법제
쏠리
내다보
패밀리
청중
넘겼
침투
##도어
라구
울려
편찬
후반기
조형
도래
하이닉스
##루미
샤워
함양
각광
추운
삼겹살
버거
우월
판교
108
손흥
가미
중형
각도
일괄
캠핑
해리
마실
하버드
AT
##피탈
장례식
영재
행해
대요
믹스
De
신다
음악회
지킬
불펜
공판
당뇨병
공구
손흥민
뚜껑
고찰
##ology
퍼시
기상청
간신히
스윙
스러움
지난번
복도
대두
##소년
##화기
한식
원자재
김희
이색
니스
창당
조립
가늠
두뇌
##셀로나
박진
이견
스캔
##드라마
트레
##높이
##틀랜드
강진
교토
바르셀로나
박계
인지도
남미
던진
날아가
크다
시크
서울특별
기업체
축복
가파
##IN
민선
예뻐
대피
##사람
단골
폭염
할리우드
유대인
붙였
##기야
김윤
전승
석방
유예
일찌감치
##lic
125
절제
박지원
IoT
오지
쇼트
색다른
크라
실명
링크
노부
##공정
교리
때려
팽팽
##ance
시진
ㆍ중
여정
사범
습득
##여행
소신
손수
강물
암호
분수
울릉
토양
크레
능동
문체
마냥
##렉션
카지
SC
후유
CG
CN
로움
CP
사회단체
사위
##진보당
취할
상시
##그리
남산
물리학
게스트
통찰
횡단
계통
충당
장마
게끔
##퍼런스
재임
도널드
버터
저마다
##디움
르노
주어지
매물
##도르
동전
지면
청렴
##ty
달걀
동대문
공예
추신수
실버
필터
원피스
조문
더위
추방
변호인
대구경북
##DA
관내
세계관
pro
##베트
진한
입수
JT
센스
내세워
볼넷
폐하
다저스
라든가
##런트
출처
꼬마
탈모
김명
다크
재편
외상
##징어
##사관
타고
모욕
Br
지리산
이창
워킹
공모전
여동생
##으므로
소상
한복
입각
수첩
초코
벗어난
서문
애매
장편
머물러
벤츠
미분양
결과물
유익
장갑
러닝
현대인
로즈
하향
모양새
모듈
악재
적당히
파인
무수
다스리
에르
쿠바
일까요
시설물
통합진보당
Ad
냉동
경감
국외
냉전
페미
입양
깔려
통계청
1955
사귀
포위
수요자
UEFA
종결
토리
Gr
182
브레
지음
빠져나가
입건
##벤션
존나
눈부
남짓
##AC
휘발
비비
핑계
문항
실물
펼칠
해온
##ual
유승민
화산
##ous
선관위
입문
##금자리
일찍이
연초
일명
라이벌
퀴즈
막히
옥수수
질렀
서울특별시
대공
##yst
돌아올
이브
조그만
사사
김인
보금자리
왕복
##ement
긴밀
전시관
##누스
sh
특구
##성이
금세
트랜
닷컴
사임
외관
전한
##시스코
넓혀
할지라도
유난히
무작
파우
103
클릭
공신
##나타
신차
##드레
드론
내륙
##리안
명명
사이클
독창
정점
넓히
차종
현존
re
오세
##경제
부의
가세
미생
루트
동점
안타까운
##대기
기득
##부분
외화
##데타
소파
순조
월간
받아들였
여배우
##ign
##ike
내쉬
장터
기념관
웨스트
애써
증오
비춰
무안
클렌
자비
수료
회고
달라질
내정자
클러스터
컨벤션
생명체
초고
마쓰
##생명
올리브
다녀왔
어이
전대
쓰인다
전장
남해
바이어
라인업
찰스
##나들
웨딩
취했
권익
##모니
대담
당사
겸손
루수
에버
만세
1956
승자
풀려
정류
MVP
##ern
막강
야구장
시조
궁금증
울산시
견딜
평상
치렀
기미
프랭
소박
##ris
샴푸
심층
꾸미
##라비아
시일
FM
즈음
경품
기피
전투기
중앙은행
번영
##ital
관제
손잡
정관
합치
유수
##90
원숭이
유선
직권
##모습
##TO
퇴임
묘지
##스틱
1958
시당
달라진다
코레
원단
나르
상하이
대포
비대위
요령
나뉜
근절
날려
##비치
멋있
회로
걸림돌
유령
내년도
소폭
응모
발송
에릭
##퇴근
테이프
자궁
요코
주저앉
아웃도어
결실
비해서
모자라
리처드
스파이
독려
원주민
삼성그룹
111
삽입
계몽
만물
##ton
무단
국고
금전
우체국
접한
##키퍼
로맨스
뒤쪽
##플레이션
과태
묵묵
산물
절정
여긴
남다른
##orn
할까요
1953
국지
정보원
드린
국사
돼지고기
풍속
차선
##레이터
영동
전두환
과태료
토너
고구마
군민
선점
##테랑
골키퍼
##GA
하락세
체코
##테르
360
수감
의왕
퇴출
특급
피난
KCC
번쩍
어업
박용
어머님
##ive
송이
##엑스
대본
##법인
통지
No
안드로이드
거창
갇혀
브레이크
핸드폰
실로
go
##라미
John
뒤지
넘어선
기저
기꺼
선교사
생전
붙인
쿠데타
일컫
오마
합격자
바뀔
연체
드라이브
유관
##old
의대
적금
만두
과반
제작사
그러다가
경지
미팅
##대교
왼손
두께
더듬
신용카드
서재
##벌이
논평
상임위
마틴
히틀러
##ult
복장
York
윤석
무형
슬로건
시공사
아리랑
만찬
옮김
가져온
동요
섹시
##디스
빈번
제자리
주상
1954
##소시엄
마차
명제
컨소시엄
타결
도매
정산
회색
왜냐면
열망
자치구
조망
증가세
산맥
평안
귀한
벗겨
아담
막혀
KO
하청
벗어날
고심
비빔
집어넣
##티스
회의소
풍기
야심
양평
1959
마마
떨리
ES
명심
타석
벚꽃
아인
파스
요동
홍삼
정반
pr
Wh
하와이
##IG
길거리
시한
유럽연합
농지
이끈
AR
이룬다
역세
망원
데스
개미
오징어
종족
가평
부지런
피스
##체스터
찾아와
##어스
##LL
권장
115
모발
교도소
##관광
강국
스며
##합니다
Car
두려워하
풍력
거액
PO
허공
성매매
동성애
희미
시그
다이아몬드
보병
약품
무심
##elf
세븐
저주
대리점
이겼
끌어올리
트레이드
고부
##지르
쌓이
갈색
개량
그라운드
질투
##라노
퍼시픽
삼촌
특례
발족
절벽
미쓰
표적
친근
일어서
바짝
성별
유기농
밤새
하남
이룩
임하
총무
양호
##나와
본점
상고
오리온
불평
벅스
연쇄
주시
남북한
승려
마법사
1947
그릴
세인트
원했
전념
박인
디즈
##전력
일으킬
싸워
154
아마존
반격
158
판타지
##화물
##레일리아
해답
지휘자
##데이트
인맥
산행
바울
맥스
골자
잠자리
아비
블로
조선인
듭니다
주파수
##플렉스
##크리트
강대
##올랐
포부
##북자
##예술
본문
표방
생략
중위
구실
요렇게
나주
김문
늑대
지질
유저
기꺼이
이방
여느
잠수함
##────
##필더
수영장
어야지
미주
미드필더
본보
##로리
느껴진다
업데이트
익스
관직
##하이
오른다
음력
카지노
승무원
노숙
정우
신원
연주자
낮춰
교차로
보건복
##병원
돌연
미얀
유언
기념식
1957
성원
실사
##어먹
##외과
평면
침착
##ES
어학
이산화
바닷가
불상
##본부
##ㅜㅜ
존슨
세속
태종
##프레
멋지
국책
비법
##팡이
맨날
일화
##프란
대위
각본
##마리
##에스
이윽
원동력
동산
간혹
직결
스미스
급감
시내버스
텃밭
주니어
##가족
김유
##ann
시멘트
가드
##슈타인
##동원
정주
##네스코
끓여
##박스
칠레
소품
정형
적절히
생활비
폭포
은폐
기점
장자
우량
민자
조장
##끼리
국감
변환
피지
킬로미터
터뜨렸
전일
슈팅
눈동자
박재
성동
##수리
가져올
습지
기동
Or
군포
CBS
콘크리트
증폭
아테네
가혹
이윽고
의거
145
##르타
약국
야스
수량
사옥
만료
조현
트레이닝
욕설
주지
대검
##ife
올스타
다물
##상부
칼리
성추
불공정
사촌
진행할
주스
색채
##지기
이장
호전
표결
고비
납입
자취
셀프
북방
사회학
귀중
또래
스타디움
177
청나라
##테면
김한
당나라
총독
##의사
후유증
##자유
알바
한껏
과천
방역
종로구
출퇴근
할당
포켓
동등
우라
쌓인
보궐
이용객
##mp
옥상
화랑
깃발
동명
지회
강전
야드
##카와
거래량
JTBC
제국주의
경쟁사
힙합
연기자
익명
풍자
목동
특색
##구장
분주
소명
인텔
통역
##ON
단연
후보자
준우
노년
내셔널
##클럽
한라
스코틀랜드
극도
정경
조경
##범죄
분화
잡힌
무사히
오토바이
녹차
123
내뱉
##데요
회식
침공
뉴타운
햇볕
##투리
시동
유네스코
충청남도
성추행
파급
xx
포크
##BA
베테랑
배급
이세
오스트레일리아
봉쇄
시아
보태
요거
등재
보트
려다
루스
건가요
이뤄지는
헤지
저조
컬렉션
화석
궁전
서초구
기술자
설레
효능
엄지
나리
계파
유포
은행장
들러
수산물
해역
아모
##벌레
한중
세례
##꿈치
처해
155
106
가나
##ition
청계
낯설
자정
잠자
거슬러
섞여
세이브
김혜
사생활
묻혀
##인물
주춤
175
느니
##하마
내전
추이
체조
호재
과열
직구
따돌
##훈련
공짜
몬스터
꺼냈
미인
이를테면
합니까
동조
스케이팅
지평
##센스
목회
104
157
SW
간행
문학상
태극기
상반
산재
##재단
지중
일조
수요일
강당
내려갔
추리
다정
열흘
부의장
보훈
낙하
조원
코믹
##ome
기용
##보험
기질
서열
대역
탐험
타이밍
벌레
방사선
##벨트
호박
유공
특사
1952
종속
심포
##LED
리아
##슬리
어마
섞인
OS
##찌개
##곡동
금고
일당
차이점
송금
실증
나눴
빈도
드러낸
기습
박해
##페이
중추
1900
##태우
둘레
오름
수월
액세
농축
무궁
2030
의료진
교복
밀어붙
165
찬반
판례
야말로
들려왔
유상
소이
제동
산업은행
보건복지부
품종
135
원년
세액
창간
승마
이면
올라왔
육지
편곡
시킴
베풀
승차
열광
빅토
태조
저거
끝날
전작
##시대
##tr
고분
합당
굴러
LS
박병
의석
프렌
십니다
자이언
걸어서
개업
불명
여행사
107
##김없이
폭격
강력히
##und
우익
World
격리
아메리
드러난다
##권력
김천
앞뒤
학점
개칭
챌린
가이드라인
살아갈
세탁기
##입니다
소방서
결집
109
사업가
차츰
##ech
##러미
살펴볼
사학
공대
세분
아유
직관
재앙
코코
면서도
워크숍
이뤄지고
줄어드
ETF
##때로
공평
##프란시스코
포상
쌍둥이
1941
모였
해선
스노
다시금
샌프란시스코
앵커
하동
호감
내세운
노골
단기간
난방
##무실
동탄
해냈
계명
허구
매직
영수
신영
아부
어스
인위
헤르
신전
지으며
유정
흔한
##월드
웨어
내려다보
산타
##브라
살균
부흥
영화배우
허무
##날레
시켜서
##me
야지
관문
이리저리
고아
보스턴
목요일
올라갈
you
##렁이
숭배
텐트
원격
소고기
진통
##ath
##사키
450
도무지
떠오른
PB
거라
거둘
##버려
김구
나타낸다
보답
시시
푸짐
카를
마음속
재판관
가야
다치
걸린다
이놈
태백
##주군
대표단
##ati
빨래
줄줄이
리바
레지
##말라
전례
재래
코어
넘긴
왕후
따랐
리우
##ite
후계자
정장
##ier
둔다
루타
수중
##ations
맞붙
##les
모던
고모
살아나
정계
##젤레스
##십자
버릇
##상스
우뚝
순회
도자기
그쵸
스티브
강성
대령
형평
##생산
민법
방북
폐업
하도급
개인전
CF
##리그
액체
##구치
품격
귀환
부적절
캐주얼
항암
레알
김두
##위치
에디
자택
영화관
과징금
진작
달빛
예매
시진핑
신청서
##거지
LNG
맞대결
시력
##정동
220
보라
시국
알아차
측은
마력
규격
##유예
여도
신음
달달
용납
주입
법규
캄보
필라
웹툰
156
골고
남아공
Ac
과언
대권
출하
버락
철폐
엘리자
비준
오산
대림
눈높이
중진
##오롱
사외
운동가
장부
팽창
##박이
##퍼니
##출산
저지르
아크
아바
자위
무성
튀김
동인
일깨
니깐
세심
공소
커서
순례
외신
트래
부위원장
나폴레
##여겨
##베이스
웃기
악취
VR
알루미
유격
거침
애기
이대호
잔액
태세
끊임없
ㅠㅠㅠㅠㅠ
##국적
미얀마
스케줄
김원
당과
취직
속초
##AP
어째서
무능
Intern
쓸쓸
보건소
Comp
162
1951
공안
간과
키울
세라
무거
띈다
세단
수거
아토
마녀
각계
240
깨달음
##메이
그물
벽화
들여다
르네상스
곡물
시련
가급
나날
환기
저리
차입
상급
정정
눈여겨
불타
쫓아
직위
지나갔
##ID
반하
헤매
골퍼
죽였
컨셉
기부금
164
권하
았었
ac
날렸
농수
반문
미달
항로
균형발전
라든지
내보내
눈썹
담합
바나나
유희
급한
접대
공청
증자
놀이터
속해
피겨
고로
줄였
Pol
##그레
kt
복권
##TS
코오롱
알뜰
정반대
스폰
로선
파키스탄
컴백
엿보
연구회
##축구
세율
##왜란
##ound
명함
팔레스
재차
조영
##무게
도피
##나드
늘렸
##허가
나폴레옹
##조사
임진왜란
드럼
경신
카리스
동메달
배기
##ystem
아무렇
반가
겹치
공과
용의자
조선소
##안군
누이
구조물
151
신주
en
몸무게
박경
적힌
캄보디아
거듭나
본연
탈북자
세일즈
꼼짝
때때로
둥지
진이
로워
정류장
곧장
##네마
발자국
TE
저쪽
전성기
막연
임종
상선
디즈니
토종
##면적
당국자
연합군
골고루
늘어
사당
대책위
교직원
모닝
##내셔널
최장
다녀오
구슬
시책
스태프
문신
인디언
광대
161
태자
인터내셔널
다다
Me
접전
한옥
##주택
은메달
이즈
키웠
경향신문
국기
한상
Comm
테마파크
알맞
알루미늄
쾌락
흉내
전한다
생산자
자각
유무
168
128
희귀
여진
훔쳐
1944
싱크
터뜨리
##ax
겹쳐
출발점
가급적
규탄
원서
늘릴
EP
외형
##현실
연못
##of
들어설
컴퍼니
결핍
본명
수없이
휘발유
건설업
me
머무르
다케
미묘
김영삼
정례
복종
북극
보단
1800
체납
간다는
개발자
TH
코르
식감
전문의
##로워
##마르
##anc
나들
개그맨
보류
비관
Be
갈래
##퀘어
늘어놓
특기
아쿠
대용
내세웠
들으
틈새
도주
##바꿈
절박
좌익
따름
아메리칸
김밥
단풍
입금
윈도우
중원
실세
##우치
Par
여수시
##이도
배움
as
결여
Co
##운용
여력
이의
담화
##int
바늘
나들목
준우승
팔레스타인
서귀
##깨비
##처분
번갈
한성
두피
113
순찰
레몬
You
식이
##신저
건축가
흘렸
고액
매스
리오
흘러가
메카
BC
152
한다며
구비
노동력
동반자
SD
망치
비엔
펼친
카타르
음향
주당
유능
폭락
의아
코디
##게임
경희대
반납
무공
명나라
이재용
##수원
PS
제왕
나뉜다
공채
윤곽
자생
친한
##가치
음악가
##앤젤레스
레스
병합
##수지
정재
로스앤젤레스
##페이스
##정식
121
한국전력
장애물
원안
##갈비
바이올린
담장
패권
서인
울타리
참치
구인
배부
농단
고안
개막전
칼로리
##질러
1910
외무
일리
Gre
AD
제대
시위대
다운로드
쿠션
시발
##rans
요정
손질
비웃
홀딩
인선
더욱더
139
Col
##RI
향토
북아
176
여행객
자니
토니
머신
비참
환급
곤두
상단
일세
163
결선
조업
정제
##란트
끌어내
질량
피크
##공단
취재진
수염
##자유구역
코끼리
사치
슬퍼
발산
총생산
청량
##파리
마음먹
관통
##뉴얼
움직였
맨체스터
부끄럽
이루어질
방대
제조사
군중
카리스마
개신
급속히
미시
유재
외고
상거래
택하
##ys
속삭
경제자유구역
숙이
목재
찬양
성모
얼룩
안티
그놈
추종
웅진
이승엽
##총액
카카오톡
치마
습격
프로그래
조개
##시피
시어머니
추기
영하
자선
쓸모
서귀포
##az
대리인
1939
숨겨진
영조
성전
시가총액
감격
콜롬
이은
질의
든가
목적지
변한
깊숙이
느리
연중
예보
만난다
##ank
허벅
고령화
개구리
공법
전라북도
부응
스캔들
감행
의병
##드름
##ash
돌풍
127
##로디
쓸데
시뮬
도정
Soc
운수
내버려
면역력
프랑크
묵묵히
어느덧
친숙
LPGA
리치
베스트셀러
##일드
##라이트
계셨
슬라이
초밥
1919
추후
AM
거지
저택
최영
사법부
요란
용감
존속
수출입
권총
농약
강인
반장
초조
하루하루
종자
스탈
153
메이커
이관
##짜기
찾아갔
틀린
##들인
엄중
손톱
정사
미생물
경마
타락
해준다
예년
신진
공명
슬프
수녀
오디오
애쓰
조연
##클리
수식
##ll
오리지
펼친다
올라온
급기야
사표
얼어붙
전향
타깃
했잖아
토마스
체전
보이스
견고
끝났
피력
선팔
당면
종편
##rop
드릴게요
대우건설
유가증권
안도
##erv
다방
GB
117
틀림없이
##che
##어야
탈바꿈
은은
창의력
##턴트
다니엘
어쩐
항일
세입자
찌푸
당진
비평가
거시
본토
샌드위치
##up
##쿠라
안면
주공
부결
간첩
맞물려
비아
아사히
잣대
남측
여단
쪼개
드라이버
떠돌
잇따르
로열
##━━━━
AC
##iti
##남동
기수
순차
상봉
됐으나
하드웨어
카스
수용자
호흡기
파울
함량
##러기
북경
페리
##ron
부담금
##마켓
##악산
144
모셔
엿볼
해발
국유
결말
구만
122
외래
기울였
##ollow
친분
고함
등장인물
마니아
어둡
세울
중장
##뜨려
1600
이호
왕성
오른손
운임
##어냈
접할
##다녔
수표
##con
공표
화사
전라도
증액
계발
원만
한은
정적
장시간
재위
##연맹
셰프
1938
표상
고품
소양
터졌
##아나
환산
대덕
호의
잊혀
열람
촉발
치료법
단과
갱신
책임감
갑니다
레코드
두렵
유서
탁자
약관
여태
시종
서강
발발
포스팅
공지
악용
속옷
스피커
모기
상회
깨끗이
들려주
벽돌
##meric
방송인
다국적
149
비주얼
매뉴얼
##are
힘쓰
호칭
무명
##세자
흩어져
소진
활발히
##리학
배열
##ase
쏟아졌
상부
홀딩스
외교관
하마
판문
메트로
물리치
##ake
장원
존스
매사
EC
대나무
해병대
스폰서
안목
리비아
저출산
사육
매콤
심혈
뒤덮
추기경
##able
연탄
항소심
피드
봐라
복선
진열
똑바로
자산운용
존재감
호스
틀리
카레
수자원
트러
바빠
##무소
장담
합시다
저해
중력
밀가루
모음
내려와
충주
빌라
한발
141
하사
부두
BBC
도라
##대부
바리
양질
액세서리
선착순
##프스
는커녕
118
황후
타고난
흘려
##글라스
##답니다
트리플
이나마
돌아서
전반기
황태
펼쳐진
기침
보호법
도보
봉건
잭슨
단군
망가
적잖
정중
영산
역점
파르
##ree
돌려주
보성
양대
##AN
비누
숙명
드려
후쿠오카
##ix
지주회사
몸짓
사절
교단
기일
불출
티베트
##amp
마진
합산
일어난다
떨어뜨리
집행부
멸종
##itt
아이언
총기
전시장
미혼
여관
##숭아
##희정
##시스트
하얗
양수
근간
조계
녹지
대꾸
파헤
수박
아우르
광교
wh
현미
##나가
재주
##enti
쉬워
택했
##다이
##enc
더더
가부
NG
장안
에드워드
저렇
동반성
셀카
친밀
남경
두드리
즉석
파이프
이송
아이디
쓰였
척도
영지
공청회
##AE
갯벌
여행자
당근
엎드
되새
은밀
돌봄
들어와서
체온
BS
채무자
김은
웰빙
통사
공수
끼워
##구멍
위헌
사채
절로
자릿
172
패스트
물자
##하늘
신작
비만
배드
강북
조이
##VD
유병
##베리아
마그
##투자
듬뿍
쇠퇴
허벅지
급변
반항
존엄
사우디
##기사
미성
입상
##ET
임차인
이규
강간
대승
터진
스톱
인플
화요일
채권자
스톤
몰렸
급진
관철
어울려
아연
색소
DS
포용
##ner
불화
알레르기
171
토토
##차림
대법원장
성범죄
서남
현수막
서너
##시티
들판
추대
##암동
##학규
##트랙
서두르
My
예견
축사
하룻
##바탕
추론
어긋나
성지
##전지
제갈
133
자손
##살렘
136
선보여
1300
반경
다중
##승환
##저것
그제야
반론
ar
ha
해독
##루살렘
1936
종가
로맨틱
권영
이것저것
##크림
묘한
파손
오키나와
기체
만끽
소홀히
뿌듯
오카
이이
지독
##기름
악영향
기색
##니스탄
조수
##지도
헤아
지탱
소동
146
거미
166
아리스
##ool
후원금
유배
##티지
이양
모릅니다
징후
성산
생소
벌리
상이
치켜
흡사
우동
권단
서운
변모
센트럴
공무
##다나
관련자
죄인
양양
여간
달아나
교구
회사채
일쑤
116
클렌징
##ai
상응
##거래위
신곡
##평균
##팩트
##언스
기종
공정거래위
었었
싫어
취업자
##스틴
성급
도어
##세기
실크
제각
술부
##의정
##MS
내기
일보
바우
##튿날
김우
반감
##기부
아오
1942
달려들
특보
말미암
형법
송파구
끌어안
불어
우와
다녀온
광저우
작물
카트
밝힐
##레마
자수
137
##ink
악수
1937
후쿠시마
성직자
##린다는
스페이스
한양대
Americ
포천
유역
##ime
이튿날
주어진다
통신망
여럿
박주영
쓰인
키운
마땅히
검열
페르시아
148
쓰러지
뮌헨
적폐
##치아
시킨다는
심야
1943
생겨났
세리
##어마
쿠키
서산
132
불사
##ans
##코스
회복세
스테이지
이제야
귀농
염소
범죄자
냉각
##순환
Gl
숨지
하필
체육회
의논
Res
버블
도루
구자
조종사
##리에
##ric
조처
수도원
죽인
꾀하
개막식
사업단
거쳐야
약탈
심부
염원
리콜
리터
코칭
더운
판문점
##form
속이
안보리
위태
일삼
##내기
##쿠스
세밀
재심
천체
변론
얘길
자책점
온전히
괴롭히
행적
루터
##워했
라이온
인플레이션
230
맛볼
가든
견뎌
국영
줘요
응하
찌르
변혁
가처분
##노이
메신저
##토스
건넸
스퀘어
자민
휴게소
단단히
##act
합창단
무신
다이어터
오리지널
정현
레닌
전단
상습
소식통
맹세
데이터베이스
송전
성희
고운
쉼터
덧붙여
해낼
벌어질
지휘관
태워
##ina
##고래
양복
우승자
문턱
울렸
싸웠
워치
예루살렘
파고들
매경
##키스
이강
흡입
국민학교
미친다
거느리
브로드
TO
저질렀
줄지
덩치
어마어마
하차
그랑
일차
어려서
보낸다
오너
잔류
그리움
##여대
남양주
기관장
126
##원지
수레
손익
벌일
민국
산수
엔지니어링
MP
##수아
용돈
견지
마나
필사
근심
대마
입소문
재물
##교도
##하니
태그
하룻밤
묶여
공용
오라
김남
가락
124
동래
구형
중얼거렸
극한
인출
체내
호가
입주자
167
##fic
##yn
##ower
거둬
직책
세워진
SF
집행유예
번개
##시즘
노원
임박
##ild
대국민
유화
몰려들
불러일으키
무실
최재
##ater
Fran
착취
조롱
맥도
효자
교보
첼시
지지층
마누
번식
이라든지
사각지대
장애인
김미
##마을
##사전
안토
초라
앞쪽
지쳐
외계
##슬림
풍선
용인시
사죄
##미디어
##릴라
서비스업
가닥
원한
이점
점진
지청
한단
연임
##무니
평창동
##기술
구부
##지오
##장면
톡톡히
입안
온전
승률
##퉁이
중고차
정차
보상금
기력
선뜻
충실히
##라이나
무난
볼트
##보내
치중
북서
##무늬
원회
양면
최진
계획서
자랐
##문화재
Part
디아
나흘
모세
악몽
불문
147
아팠
아랑
평상시
경색
##HD
유공자
##통일
##금속
무진
수만
모처럼
붙들
지녔
##ere
방사능
##사상
강했
버드
##현동
쓰러져
##카이도
동남아시아
브래
중량
대의원
##들였
뮤지션
울진
둥근
보호자
나열
스릴
우파
감리
플래시
최정
소란
김세
원산지
헤어지
결의안
OLED
안락
##매도
올린다
138
공보
시연
##row
사지
환수
엄정
무슬림
플라톤
낱말
대관
샘플
월화
Har
##ress
143
침실
바꿔야
동학
장차
휘두르
OST
모로
차체
블라디
청각
그래프
이화여대
의성
##산성
On
모노
내시
심플
편향
리라는
잉여
칼슘
전전
구동
제작자
발표회
##HO
갖가지
광해
숙성
이어받
생체
자릿수
##삼성
호위
직속
레이더
사용량
Ind
토목
하우
베드
##올라
육수
##방식
말없이
##iew
단결
도우미
##래프트
아무개
und
청도
손학규
돌아섰
내려왔
TP
지나간
처하
플로리
각인
다뤄
방황
지중해
he
휘말
생명력
재촉
성벽
보선
이쁘
소독
선호도
거쳤
당혹
##패드
Se
소변
사우디아
자루
##ME
못한다는
수정안
174
미련
상설
##ade
씨름
위쪽
성장률
벌인다
외로움
위촉
계수
노려보
털어
##노총
운영비
안무
물러났
각질
영예
움켜
휴직
군청
All
##러웠
무자
의구
원심
찬사
수군
천문학
경산
바스
스쳐
무너져
독성
수성구
로우
diet
혈당
요트
프로이트
142
단추
엔딩
자작
1933
맞췄
거들
마오
##은색
##야수
##망이
기뻐하
판도
안중
테라
일회
매몰
##리히
아이콘
미르
두어
수익금
##타임
##숨에
단숨에
##르도
발동
부호
그러다
환하
거센
미쳐
가이
영등포
유류
우루
##스포
충무
서경
un
적법
내려앉
질타
인분
물려받
교내
##는데
2022
불려
요미
ad
연정
여행지
##크라테스
사용자
해남
메탈
동물원
GE
담백
평정
차명
보입니다
어워드
추궁
고흥
라운
이건희
수백만
까마
개신교
화성시
장보
##ox
##십니까
메이지
어조
먹여
꺼리
가늘
화순
##버거
김홍
##가짐
챌린지
다룰
까진
숙종
트윈
볼까요
금산
지치
365
129
내몰
하하하
페루
##데기
동거
건대
무분
도깨비
##장구
코엑스
##버섯
차마
그랜
리라고
지부장
압수
라마
위계
수납
김학
at
전처
관절염
##쿠버
자처
입주민
ㆍ군
지금껏
미모
흔하
International
##갑니다
실업자
외우
이민자
더더욱
막바지
사우디아라비아
이청
에세이
탄산
보직
이선
경이
광물
메커
여드름
소사
선풍
노란색
기술원
##out
세션
성금
익혀
의구심
아이러
1400
지방세
커리
독주
무당
상법
이라든가
두꺼운
앞섰
바닷물
##젠테이션
##야구
##셔리
사역
요가
매달려
그지
IBM
싱어
럭셔리
모조리
모비스
폴리스
유태
자본금
신촌
다급
법상
스와
도망치
다발
방화
친해
모티브
바비
정치가
스틱
들으며
##ale
노비
As
춤추
미스트
장대
영덕
정찰
제게
영종
##보이
사계
유모
양지
후세
##tiv
팔려
데려가
김효
##케인
##자락
꼽혔
수퍼
NS
약사
였음
##승부
내린다
##ution
시마
MD
파행
##터스
분권
시즈
거머
##블리
쳐들
PGA
학파
소개서
소생
끝없이
사고방식
벌떡
중증
PP
##체어
##악단
이한
출혈
남아프리카
양말
탐욕
휴전
장년
##리나
마카
호황
착륙
원본
청담
한시
퇴장
메커니즘
아래쪽
늦추
니즈
얼리
규율
박찬호
포즈
들어선다
##바겐
끌어들이
사탕
깨지
사슴
진수
퍼스트
아프가
에티
조인
미녀
탈피
미수
포도주
거스
대열
피츠
휠체어
고위급
졸라
134
살아왔
요지
침수
지방분
삼척
따른다
직영
본회
알라
현대제철
어김없이
토막
제물
자구
씁쓸
증서
배낭
영남대
오타
니시
초연
임산부
올라와
황사
맞은
정가
발렌
##나리
건너가
배양
허허
연면적
의리
판서
낙후
꼭대기
강철
싸울
##도리
코카
가명
반포
판소리
엘리자베스
##부진
망설이
Mon
국무부
이재명
발부
출품
210
##과이
##ble
사무국
1914
저번
La
태아
스탈린
잡아먹
도왔
베토
서대문
##미안
나미
만져
해저
차갑
내심
성화
치를
다우
무방
슈퍼마켓
숨졌
증축
골짜기
##슬링
전염병
급제
돌아간
##클린
판로
클리닉
리어
생강
##TC
##iel
##tit
공허
진행자
디테일
즐겼
대의
망원경
KE
일간지
아프가니스탄
##OD
동호회
국문
분교
des
비장
명실
털어놨
섬기
##자재
사령탑
Sing
진다는
공교육
중성
맞은편
개수
이소
##igital
김관
산불
간다고
살펴본
##천동
저감
사우스
아세안
머금
##케이
##cl
Korea
비박
follow
최상위
이효
청하
진흙
요하
##스트리트
몰라요
분식
스트라
여타
메타
전세금
부산대
과감히
폭스바겐
골목길
전망대
리베
산화
PM
암흑
##산동
비방
굶주
콤플렉스
끈질
자연스레
한몫
멍청
팔렸
##나갔
신명
넥슨
줄기세포
상큼
정연
커져
복숭아
ELS
남서
##금융
경복
알렉산드
탄도
169
이뤄져야
난감
악순환
루시
활동가
스코어
출원
##대장
구한
##맞이
##부상
##ile
서해안
니트
공사비
포격
서포
힐러리
마주치
제인
DC
융자
신뢰도
유키
멀쩡
연전
##oul
챙겼
경직
사라질
도사
아날
##베이션
1935
새겨진
베토벤
극우
방탄
이질
환매
포항시
싱싱
성도
##휴일
구급
외과
1929
##다르
##천리
공황
오션
욕실
750
280
##제국
자락
Su
반값
기밀
pl
딱히
끄덕이
박세
구석구석
일류
지날
##레스테
원점
내려온
리가
##VE
엉망
거룩
박준
선구
외롭
갈아입
VIP
미라
영도
리바운드
와야
들어야
가솔
시뮬레이션
막말
애널
충만
토요
송영
유로존
빅뱅
##AA
늘어난다
이국
방패
##임자
거인
입히
예감
냉면
두세
중상
김석
균열
어우러진
거장
누렸
Vol
불고기
워커
무서워
논하
사주
성명서
드로
경제학자
다는데
모공
##연구원
챙긴
##나항공
자연히
기쁜
아이고
Love
영위
##그러
AFC
식별
꼬박
##pl
혼돈
한없이
아시아나항공
케네
매끄
##부모
Qu
미숙
삼가
##제이
반짝이
청동
재질
##무진
는군요
르노삼성
충청북도
1932
관악
대지진
실수요
짬뽕
##소스
중남
우두
##창기
131
et
동두
##루엔
도산
사나
서북
쌍방
##상수
다자
랄까
무이
비료
기획사
피아니스트
제지
영천
330
북동
##덱스
수축
여운
카테
##갱이
세계인
유라
사춘
DVD
위함
203
##co
##안전
취항
연구실
빨간색
빛깔
DMZ
지기
가두
##커트
센티
##아시아
플로리다
평판
##폐합
본지
병실
성기
춘추
3500
MBA
조속히
ㆍ미
두근
173
도망가
로스쿨
하소연
이긴
로라
전집
젊음
호프
예술인
넘어갔
승소
신민
리틀
그려진
cl
줄거리
가와
##습기
이희
당당히
음란
후문
성품
약식
##즈키
집사
##레스테롤
통째
기이
은근히
조아
주된
쳐다
GT
무분별
대면
주임
캐시
나인
왔으며
We
모여서
국공
대내
수컷
등극
부럽
부류
푸틴
UAE
경상도
종신
카자
찬스
답사
금기
콜레스테롤
정준
혹독
가로수
남대
##미르
수양
소행
재화
교육비
##ㅋㅋㅋㅋㅋㅋㅋㅋ
전속
##불리
시합
그죠
지구촌
담담
평형
전경련
빼돌
봉화
누비
무라
선글라스
말려
증강
여주인
라우
관례
커진다
독립성
짜릿
서거
스러울
까다로운
신정
강판
김제
궁궐
볼륨
전화기
경기력
타일
콘스탄
Go
의례
플루
고른
보너스
농경
잡혔
뾰족
치부
불허
용사
like
상국
특별시
수건
##사랑
꼴찌
##ins
교제
마흔
팀원
는데도
당위
쇼크
집약
떠올렸
사라진다
1934
무더기
대표자
통틀
술잔
토착
복지부
망각
스티커
Ge
휘둘
옵니다
가르쳤
어용
증기
##gh
버림
제니
추출물
비우
금성
정대
공휴일
270
콜로
관용
알아내
속출
뭉치
주범
변질
##사르
해적
스테이트
외환은행
바라볼
낙하산
하단
나아갈
무더위
통폐합
##메리카
갈망
IOC
무너졌
홈경기
호두
일감
온난
김부
야쿠
로드맵
음주운전
죽일
이노베이션
탁구
만연
##이나
박기
##iam
##land
성대
도울
속내
##ren
부가가치
살린
서부터
잔잔
설령
라이언
암컷
어기
월스트리트
시모
니체
구직자
##ise
슬쩍
입당
편집자
교량
320
당도
가면
##공원
관리법
극동
남극
뽐내
꼼수
연희
케네디
페널
재일
이바지
실종자
나스
나타낸
성희롱
모터쇼
마포구
햄버거
기다릴
퍼부
올라간
손잡이
전보
대전시
물러서
초창기
타카
체면
마포
##ull
가위
RO
로빈
생식
대타
##뜨릴
이산가족
기념일
건만
유산균
각서
조광
슬림
파출
로이
잠겨
올라간다
표절
상여
될까요
플라이
강서구
자이언츠
첨부
어땠
커튼
회차
프랑스어
불거진
태안
아우디
멘토링
중앙일보
무작정
유니버
투성이
팔꿈치
형벌
만장
퇴직금
아토피
소시
반입
가결
심신
이계
구르
부통령
양현
보령
궁중
배임
로렌
##너무
##히로
##백화점
대명사
가칭
031
사춘기
For
흉기
겨루
풍토
들려오
의료비
달러화
자연환경
##혁명
##CO
이문
##텍스
무실점
내성
여겨진다
관상
it
하여튼
강기
기저귀
부딪치
내비쳤
넓이
경합
##ma
부녀
##제리
월등
미지수
##막이
남도
나물
서리
출고
레전
차등
밤중
착하
불쑥
여객철도
게르
테크놀
증식
##enn
##evel
치가
교포
##ublic
그친
건너편
박쥐
리포트
한파
그칠
##라기
확진
팔로우
포진
##원군
임대차
연신
콜롬비아
바랐
구약
방수
양재
진공
철새
순종
신생아
동그
연행
트로피
일렉
##BM
난이도
자의
der
재검
소관
받들
드래프트
초빙
여겨졌
구미시
일컬
더군다나
가솔린
기류
와이파이
대졸
계집
이단
강령
self
장타
서한
파이터
레일
급급
정인
환불
##의회
게으
드레
Sm
이공
##십시오
ㆍ정
KS
살릴
메이드
깨우
복판
인민군
트러블
밀레
국화
##ky
원더
1931
##리시
랜드마크
아깝
레시피
칸트
화법
ID
부르주
견학
동백
압구
위스키
반가운
엔트리
장모
홍익
운하
검찰청
KD
베개
부담감
스트리트
취득세
컨설턴트
해내
뒤섞
곱창
심문
일식
큐브
NHK
my
##마킹
아모레
깨어나
투신
SO
애착
소각
달할
조선업
최경환
##식물
tr
##파이어
강박
조합장
정치학
국보
행방
성문
유영
무어
대군
청송
벤치마킹
어민
고루
메우
가전제품
담아
##수산부
달려갔
260
교묘
김규
치러진
석면
그려져
절단
더러운
BB
망하
능가
목걸이
구독
사토
알아볼
Cent
미역
##ourn
##로이
from
줄게
거래일
멜로디
지만은
달라붙
급성장
레전드
화질
##서스
방언
황교
입가
낙선
배워야
회귀
삼성증권
올라섰
유년
최태
##미야
어우러져
경제성장
관리비
닥치
인양
디오
간절히
아리스토
알렉산더
투스
Rob
bl
성악
우러
##red
칼라
콩나물
경전철
잡스
봉기
경청
박동
에센스
문양
건국대
일부분
좁혀
맛나
브라이언
영양소
언뜻
천도
불씨
##거진
부추기
여객선
링컨
못한다면
##uk
특산물
논증
1100
역도
인해서
Digital
선인
분홍
무색
두터
맡겼
릴레이
헤라
당권
수용소
##퇴직
리본
##eth
그립
암기
탤런트
힘차
직종
천명
대란
경량
이토
구했
##푸스
생겨난
얽힌
우크라
유흥
한심
원두
##루엔자
열등
뒤흔
구마
점거
찔러
청자
고뇌
빗물
턱없이
##결승
아날로그
여호
능선
정해져
부시장
적십자
다가온
발리
라고요
어두워
노래방
종북
동대
생사
행정관
감세
놀랄
##카스
##부림
내줬
해인
종양
마취
과학부
매달리
함락
인질
포화
##전기
주선
선가
숙련
이빨
거처
젤리
순진
혼잡
나와야
시호
부딪히
소인
은유
초원
팬츠
인플루엔자
발현
하긴
##가정
퍼졌
저명
불복
전광
성북
셔도
평가전
바삭
쫄깃
오크
따를
함경
MM
지하수
##슬라
장만
조르
선천
앞바다
토벌
퇴원
항아리
몸통
진하
신청자
각성
트루
제작비
터전
누락
창녕
컨텐츠
달인
##사태
롯데월드
천정
dog
강민
울릉도
시드니
실책
부설
##서야
네오
미용실
촉각
와일드
후방
증명서
저격
투여
진격
재판장
참배
데스크
방콕
본국
봅시다
요리사
초안
1925
자행
품위
유리창
배타
해외여행
하부
정액
면치
미스터리
손녀
아이패드
복식
내실
거니와
CNN
선우
열중
껴안
놓이
밸런스
의기
##행사
인방
막힌
발매되
##베르트
알선
양사
끓이
해물
Bar
##ondon
전통문화
향유
이드
박희
필지
너무너무
몰린
계약금
일주
리프
수락
Will
북적
가액
고충
아쉬웠
그쳐
휴업
막막
커진
토머스
잔여
당첨자
소방관
수사관
김해시
변증
It
소치
ㆍ이
빌미
선체
아이러니
번거
유방암
원치
세관
수돗
고질
고마운
OC
##ons
처우
윤상
중앙당
연회
구운
And
어이없
반공
지폐
되돌려
위배
굴복
착오
고영
다원
연주회
끌려가
김문수
다산
위례
민간인
Am
효용
초상화
순방
애널리스트
절도
영성
이오
테라스
두드러지
더럽
##필드
한약
단체전
옥션
구애
해양수산부
화백
상소
브로커
냄비
부끄러운
야단
종래
Ne
자서
비시
노자
요미우리
##유키
멸치
세르비아
단련
PE
족발
의존도
쓸데없
베이커
모건
졌으며
Is
서강대
홍명
독일어
알릴
베타
풍미
꿰뚫
##가시
과외
밀러
히로시마
워너
양동
죄책
기다려야
학창
헌정
나옵니다
스위치
민관
승패
로프
##선거
자백
눈부신
잊어버리
그러면은
모른다고
높인
보일러
반대편
1928
무지개
##모비스
Mus
속담
벼랑
비위
사슬
벽면
청취자
Rev
군사력
##ley
반기문
폭우
파이낸
##rid
가열
흐트
사뭇
어쩌다
파병
태연
모은다
앙상
기관지
일탈
평온
오찬
##에트
스트라이
분기점
간결
보행자
몸집
천막
##실록
뒷면
##아보
황교안
굳건
장어
아니요
실험실
##ience
윤기
쫓기
벌어들
속상
London
찬란
저금리
식욕
##내려
완주
빵집
##11
Ag
마음가짐
서신
##사기
여중
교향곡
DB
공손
##ㅋㅋㅋ
현대모비스
##아먹
김도
##ium
중생
##세우
하프
##르드
동독
밀어내
청양
볶음밥
CR
김신
쓰러
부제
다가올
##ream
##지엄
불출마
실수요자
흘러나오
약혼
Fl
##inc
램프
1924
거행
출세
양손
전해진다
불법행위
침범
##au
심포지엄
영수증
농심
봉지
간소
태생
간략
잔혹
현대건설
비켜
출입구
독감
어필
은평
ph
면도
바오
웅장
싸늘
##나기
##own
##erm
플랫폼
낙지
마린
우즈베
남학생
정글
매듭
심경
시니어
웍스
드루
할게요
치사
안양시
맞선
소수자
##쿠르
자초
무너진
1927
네네네
따라잡
쓰다듬
폐해
드나들
펌프
instaf
어지럽
매화
그랑프리
홋카이도
멀티미디어
알아듣
산다는
모친
무모
부쩍
맞벌이
터무니
아드
접어
##엘라
부상자
##경찰
이철
무승부
음음
연하
##둘기
화분
결핵
도끼
빅토리아
월평균
통학
시군
수심
모여들
야만
장동
유적지
##닐라
##킨스
바그
테일러
다고요
고추장
요컨대
신데
##우트
핀테크
안전사고
##ven
##꼬리
##ics
Med
ㆍ고
차근
산문
##시계
자산관리
플라자
연차
처사
탐지
백두산
체하
##김치
박모
신형
AK
무림
서독
영농
정돈
##영수
##텔레스
##버린
이뤄져
걸치
1926
막론
손색
심했
귀속
쏘나타
해산물
에이전
오월
잔소리
날카롭
응급실
##yp
단의
버지
윤종
##tics
공범
쌓았
이범
천상
##air
제후
베일
더해
긴축
매혹
카피
##인다는
문화원
스트레
새로이
박혀
실례
독수리
반죽
발전기
##애나
장흥
김보
마블
방정식
##버렸
곡식
공관
마우스
제비
KAIST
갈릴
손발
화끈
케이블카
초음
ML
치른다
연준
경제력
##ene
##erson
브이
작위
동이
배틀
제반
아껴
허술
이근
돌이켜
명백히
헬로
아리스토텔레스
울림
건드리
씨티
남원
열대
만회
달해
쿠리
가파른
패드
##용수
다문화
1918
둥글
상쾌
느라고
루마
브라우
지킴
데모
돌출
##마음
SOC
##ative
영월
뷔페
실기
혼동
소소
수하
김시
바뀐다
한결같이
##스케
##민턴
시외
##맞춤
항생
숱한
사다리
양궁
##중국
로션
시네마
허리케인
스킬
안식
배심
청바지
신대
##ese
##영화
비빔밥
쟁이
##나카
아인슈타인
나뭇가지
교인
instafood
##납니다
연수원
강타
미셸
청결
엇갈리
##ward
장신
실무자
결사
유고
성종
과격
##도전
스튜어
사교
외침
스콧
범하
한림
줄어든다
계약직
짓밟
1905
조교
현저
후작
별장
복부
##피어
##캐피탈
안산시
난관
숟가락
세안
어떤가
상수도
최성
러시
박태환
경작
혼다
으뜸
방사성
초선
살포
se
복직
##관리위원회
사수
뇌졸
안희정
기본법
구매자
중남미
##기금
저것
라떼
한국사
돌려받
솟아
연장선
에도
유착
그리스도교
앨런
피드백
운전사
예정자
##ings
##더기
참신
여하
아이파크
미약
들린다
##실히
##속기
모차
##oduc
성적표
캐리
김소
터보
토너먼트
식초
##ournal
나지
동맥
담양
다가와
초교
산책로
상세히
블리
선율
김범
준결승
수돗물
매기
성리학
버그
스텝
옷차림
##래요
예리
귀하
머뭇
칼날
Rep
이따금
사르
해부
거주자
제스
끼어들
마스
끝낸
선거관리위원회
까스
분별
어버
##국장
##자키
넘어갈
안치
애호
실마리
Ass
재상
현물
틀렸
발해
하이트
조사단
##께끼
불거지
터득
##뿌리
획일
사부
뭉쳐
장외
뒤편
##뉴스
수수께끼
아울렛
쇼트트랙
재혼
선로
##TN
책자
탈환
미디
프랭크
소크라테스
장이
카자흐
일축
분사
시베리아
편익
공교
화답
고법
칠곡
종식
퍼트
편히
고마움
희극
##아르
타이완
주립
출가
딜러
일어섰
신의
버려야
너스
##tical
기묘
면밀히
지닌다
집요
겸비
WTO
단언
카운티
한문
글쎄요
세습
필기
흑백
들으면서
##sp
우측
##체육
요코하마
라틴어
완성도
##붙이
기만
주워
지저
프린터
바흐
강대국
##지방
낙엽
메뉴판
경정
양도세
케인
##amb
따라오
성황
제때
##app
아폴
NY
Op
진나라
민망
함성
소령
우여
갖춰야
느린
서영
택한
세정
어촌
치닫
##로그램
서진
투자가
배드민턴
패전
재량
##기념
##BI
건데요
슈퍼스타
어딜
1923
국제기구
선상
##더니즘
IBK
들어온다
대청
1907
문화재청
춘향
후보지
저게
딜레마
무소
구출
신속히
퇴행
##ata
##모리
로그
표했
문어
KG
실속
양당
##넘기
산모
군정
낭독
말끔
##대사
으실
두리
갑상
모의고사
피라미
분실
때론
제철소
가다듬
근까
청소기
ne
오승환
해커
됐었
집니다
이왕
취업률
척하
전가
빠짐
소름
담겼
넘어지
유례
1700
무한도전
공민
멈췄
양천
근사
뱅킹
그르
듀얼
기내
##oo
인척
##아티아
죄책감
선봉
손꼽히
쪼끔
현대캐피탈
MW
다져
공권력
돌파구
뇌졸중
다변
순교
따스
패딩
파란색
ml
##즈음
##곡절
어쩐지
사카
에디션
정종
닛산
몸값
무르
열렬
몰라서
이천
코팅
##어보
에버랜드
몸부림
##더미
스톡
패러디
크로아티아
이정현
that
##작물
편법
뒷모습
시안
래요
NE
##ery
정태
##그마
##코프
두들
##we
사극
카프
도로공사
어부
프레젠테이션
발광
발랄
##블로
멀리서
##지마
##어낸
정수기
나트
크레인
복리
##⠀⠀⠀⠀⠀⠀⠀⠀
첫해
아랑곳
형국
원룸
탄성
550
판촉
주지사
인사말
비워
연꽃
윌슨
이글
려니
전폭
정운
안토니
오오
얽매
##바퀴
위기감
격파
보정
승화
어버이
조제
빈민
피했
올바르
가부장
체인지
관청
데려다
비벼
OK
펜션
우여곡절
성수
줄리
호화
희곡
미성년
묵직
서예
혜성
질러
근래
앞당겨
골절
뒤따라
따내
단조
선입
1922
경쾌
셔틀
휴먼
구직
히어로즈
정오
터질
##que
스테이션
##conom
이루어져야
호출
NGO
석학
기준치
표류
매너
프롤
피디
204
라미
성수기
블룸
##시험
입장권
군자
장세
트윗
외할
덩달
도교
섭섭
꾸리
LIG
슈즈
찬물
어찌나
프라임
모차르트
몰아넣
단종
담당관
강정호
박힌
옮길
오메
크리스토
사고력
넘버
울주군
상황실
이태원
됩니까
저승
##sch
##마루
테러리
ㆍ일
라곤
칼국수
강등
개점
해져서
미네랄
애완
재검토
황해
세조
공해
엄두
##oon
##티노
신경전
빈틈
유격수
전쟁터
관대
CI
##트릭
나경
디바
부디
##지리아
나이지리아
관광공사
계엄
고단
백혈
1921
다량
니라
창가
청라
회사원
도스
##활약
획정
이랬
후대
유린
보안법
갔었
마운
민요
들어도
국익
목장
준다면
빼내
##echn
곁들여
경륜
달력
파기
플레
워크아웃
주심
연예계
전동차
문정
영국인
낙인
상경
소비에트
갑작스런
나위
발기
질책
원자로
혹시나
##차근
고국
단면
순천시
지미
라오스
차근차근
동선
##오드
대미
개동
망고
##ization
ㅇㅇ
태화
영암
받침
Ab
학비
탈세
독보
카운트
부지런히
투사
김영란
직급
도화
입장료
자명
##익스
죄수
사투리
고갈
양승
##rat
NLL
예시
##십니다
통용
페인트
펜스
맹활약
절충
입성
당론
위크
생수
올드
놔두
하류
눌렀
기승
##무장
밤낮
지킨
누군지
Hist
치약
끝냈
박병호
느닷
뭘까
사용료
내건
능숙
##회계
물기
1917
좋아했
선의
로울
디렉
TK
예절
권오
다문화가정
떠난다
사시
인파
헤겔
##제당
동무
아로
유람
버지니아
이회
##rap
올라서
전립
내국
물들
##웃음
어젯
도쿠
채찍
추월
op
기공
덕목
훔치
케빈
달성군
살폈
EX
권위주의
Coun
동자
스마
신시
이래서
어젯밤
실렸
쓰리
CGV
CM
분향
##지원
##모직
경주시
예기
간디
##주곡
친하
삭스
동일시
지오
피카
토의
War
웃돌
함축
캐슬
출루
훈훈
이월
고소득
여종
피워
하구
꽃잎
압류
대니
채운
서울역
지켜본
System
미아
흐른
가디
##민주당
정은
일품
net
힘겹
이남
오마이
칭호
세간
650
자서전
박명
우라늄
리니
비약
장정
가까스로
##상가
제일제당
비둘기
파편
아슬
##초리
김현수
획기적으로
제일모직
동유럽
소재지
Single
골격
분출
박승
근린
밴쿠버
스며들
견본
뒤처
사이언스
##eat
아지
완도
테크놀로지
청정기
특가
운운
첨예
펼쳐졌
복면
파탄
Eng
처했
CA
우즈베키스탄
고령자
로펌
핸들
총사
cat
버텨
주어졌
현저히
내과
사옵니다
채팅
석가
문학사
얽혀
번번
귀가
자갈
Journal
무궁화
직격
지낼
연달
해수부
남경필
개명
구치
밀크
당정
앨리스
근력
원한다면
라던
담뱃
레미
머지
후생
빼앗기
Pa
이혜
갑작스럽
출사
한바탕
폼페이
인친
휴지
##차기
기록물
비엔날레
브레인
꿈틀
오디
극찬
폐막
최하
앞날
##거스
이방인
현대사
칭하
##진구
쓰러졌
가출
심도
래퍼
경의
불의
신다면
담그
감금
##태평
일터
앞세운
##파업
비주
현주
느슨
식용
흉터
취임식
자아냈
문화예술
다쳤
카네
충실하
문고
파출소
유망주
합친
절친
##그릇
CT
요런
선언문
경복궁
기자재
섭외
귀여워
각하
좋아한다
구강
객체
연유
퇴계
NO
One
막부
다네
게을
카톡
콘퍼런스
수억
나들이
평준
점퍼
가옥
본체
서식지
구태
절개
##돋움
캡슐
공습
폐수
쳐서
독립운동가
발돋움
격투
##부족
산골
##런치
소송법
##만금
반역
열전
건넨
기고
수작
페널티
##rav
착안
항생제
힘껏
검사장
활주
서태
이터
다가갔
친다
부산항
테레
박민
창피
이와
서슴
저변
강소
##더슨
주원
개표
대표작
밀어붙이
후원자
아리아
설계사
틀어
총파업
검색어
##지우
스타크
이토록
결속
끼쳤
만년
탄식
기하학
전문직
수인
채웠
보고회
저널리즘
블랙리스트
굴욕
길목
스케치
내려다
서늘
원사
IPTV
오프닝
##aus
천안시
퍼스
회의장
##날두
지으
친선
##이어티
경치
내시경
다섯째
스치
확연히
호날두
도가
결별
BN
기병
추워
##gram
율법
지켜봐야
밝혀진
Mc
가습기
겸임
횡포
들썩
뱃속
사색
갈증
얼핏
반군
글리
개도
계류
무릅
헤쳐
워즈
돌릴
불릴
고등어
아닌가요
구민
중종
집결
유시
##ps
변인
힘써
뜨거워
타구
경비원
가슴살
보온
출토
고품질
지마
##ose
나사
설날
MA
학설
미덕
업주
떨쳐
대출금
사상가
강서
낙태
정열
알고
중앙선
대서
명장
느껴질
##들리
마는
원상
몽고
조급
과반수
항성
거래처
##게이션
기울여야
제트
저수지
싫어하
##갈이
KL
변할
고공
둬야
##IE
안착
토론토
황소
세워야
줄인
내비게이션
##ott
무술
포스코건설
어법
박자
오미
무고
중소기업청
공상
인허가
현대그룹
자가
PK
신항
박현
하야
정세균
파열
스터디
##익스피어
레바
금정
저탄
##을까
대추
셰익스피어
루프
유자
제네시스
맞출
뛰쳐
##부리
산청
황홀
금상
아미노
독거
오죽
립스틱
빠져들
##생긴
연호
어서다
##무사
신학자
데카
일과
유소년
##매기
지바
걸러
고을
폐암
IR
밀라노
단국
에미
변제
으흠
조력
##베르크
실화
영유
해본다
거트
닭고기
합하
잇단
사계절
완수
토스
진위
##예프
##송이
기억력
알고리즘
넥타이
송정
열거
음료수
옆구리
들렀
##요시
##ruc
노회
자막
고원
제천
미륵
우주선
기와
키보드
##ym
미즈
분장
페미니즘
퍼즐
인권위
귀띔
모아서
다졌
세법
이우
아니야
손짓
나이다
##ute
흐뭇
##다드
새만금
마야
아찔
알아들
##fer
##보라
전과
부림
홈즈
황폐
부르주아
##ough
프린트
땅값
멈춘
바깥쪽
막스
개년
연필
시피
충원
테두리
레이디
거취
시간대
탈취
복싱
뜻대로
선형
정벌
메밀
PF
즐비
캐피
콩쿠르
저러
학자금
중화민국
숙여
##Hz
만든다
스릴러
명실상부
ㆍ도
몸살
내뿜
아낌
악의
탄수
배설
김광현
갈까
문과
도리어
슬기
아쿠아
리튬
면회
김호
느긋
LPG
산전
지망
단층
녹여
봄날
더미
포켓몬
꾸민
리버풀
노점
정석
포식
##절기
서랍
레이싱
아득
어드
이연
급속도
프로세서
##도록
아군
법대
##영장
수력
##누르
그러니
참담
입학식
1908
말문
스카우트
브랜
태어날
카리
찾아다니
인수위
380
능률
불로
외지
고취
보잉
프로그래밍
할부
주점
요기
길가
기강
합병증
##폭력
El
##예금
간염
예언자
피라미드
책무
사정관
커리어
금년
토트
갈대
마츠
##브스
기형
수교
그리스도인
드러낸다
Dav
이동국
상체
##FF
##iness
멍하니
라니까
##하우스
힌두
현행법
듀오
조형물
Ins
빌보드
##22
##꺼풀
말린
환한
중용
##아아
감초
소총
노벨상
오스만
선거인
김종인
ㆍ사
산뜻
##곡리
수순
총영
베네치아
org
##부인과
맴돌
잡아당
선후
난항
임창
방법론
la
깜빡
띄우
에로
sc
미비
##득이
자카
##정사
군림
전업
타파
부러
##밸리
라파
교통안전
산부인과
호투
객석
꺼지
빌린
편해
NP
도표
적중
캐피탈
카테고리
월남
American
오줌
##플러
##ii
바쳐
카운터
새겨져
생동
ABC
사적
소정
조직원
걸어갔
남동생
유목
경멸
마일리
벗어났
##IM
계량
안타까움
찰리
창시
테르
돌발
제소
에이즈
왔었
평행
1912
흔들림
비서실
카자흐스탄
땅콩
증여세
재외
애리
총알
헷갈
배당금
##att
##erg
정호
슬리
생존자
최민
##미아
가도
피치
모스
기념사업
낮췄
Stud
모태
학장
법치
고귀
성장기
교외
제격
문성
##레오
열세
##대군
의결권
황토
또렷
황우
##ange
Gu
차용
통틀어
리츠
제네바
돌린
환전
제너
으면은
허니
이타
볼게요
계양
내무
경건
루마니아
국과
참여연대
도성
광해군
뒤집어
농작물
퇴치
##수엘라
##혜진
패했
폐허
##노소
검장
권력자
삼키
##모스
과대
아이유
청계천
유학생
등교
세세
무도
##날드
##ision
##배기
##LA
##일치
엎드려
외로운
가장자리
완만
야식
기념품
미키
끼친
##PA
알림
신안
종영
스텔
건드
급수
정민
커머스
독일군
수학자
어처
계약자
부여받
배반
고창
모텔
춘천시
몸담
희소
한판
##any
술자리
이여
고산
노조원
성과급
초음파
펴낸
다친
뒤진
밑바닥
돌아와서
계획안
피싱
펼쳐져
산길
##ors
버핏
모성
괴로움
프로필
카스트
##재료
소용돌이
보디
##oss
넘길
눈가
##레스트
파이어
스트로
매칭
Phil
꼬치
올려다보
##오른
독재자
##ames
송구
⠀⠀⠀
신세계백화점
플라워
소량
##호흡
ㅠㅠㅠㅠ
진보신
귀결
천연가스
주거지
SDI
LP
경질
미상
보르
동질
네일
##rist
즐거워
어처구니
전량
파주시
##뚜기
절묘
집무실
수십억
여주인공
##ole
크리스티
부피
촘촘
##보증
4500
부산광역시
##케미
내공
서두
##바르
윌리엄스
까치
공언
기탁
두각
##ald
지선
베네수엘라
히데
##이스터
##now
연립
전인
전입
만족감
권했
par
발작
국민당
친일파
적시타
비주류
담아내
지지부진
마카오
한테서
폭동
뒤돌
저성장
스테인
강압
교육장
동월
박인비
병기
우습
역력
역사학
못해서
탄수화물
##NC
변이
유닛
냉소
출입문
득표율
노령
트랜스
변증법
크라이
경악
스트레칭
식수
저탄소
으냐
반쪽
특목
받쳐
##니당
교전
객관적으로
정령
철도역
달서구
전지훈련
맹자
##ays
육신
아역
속보
자급
##하키
쾌감
배척
개항
자긍
해태
호세
할애
리얼리즘
##earch
##에미
남녀노소
목욕탕
대작
광학
카메
케냐
개연
색감
##위성
##모어
만능
보유자
##ener
강남역
갑옷
구본
제명
노태우
SA
##준호
##착오
내구
돌아간다
외교통
후예
엘지
풍수
소자
노린
변비
수줍
##ler
언행
##레타
수출액
야수
다윈
걸까요
한탄
과부
사업체
통통
시행착오
휴무
맞섰
기행
작별
남궁
수천만
도적
노랑
킬러
시크릿
수유
잠식
le
##이상
##봐도
화합물
윤영
##라마
##퍼트
버려진
인대
마니
조동
##가요
습도
##alth
단맛
질소
급부상
반고
산란
캐피털
요르
굵직
후면
체크카드
타이거즈
행안
맡길
재연
##수단
조선족
정할
참된
첩보
허정
영사
독소
풍습
곡성
논설
의과
난무
##터카
상추
뽑혔
안상수
가져와
젓가락
판다
용적
토해
물의
트라이
장내
활주로
##어링
##지역
다진
다구
려다가
통찰력
거주지
관공
기껏
##ke
세워졌
##문고
YTN
렌터카
뛰어든
슬라
자판
요즈음
청주시
리카
##퓰리즘
떠오른다
명료
궁리
포퓰리즘
저력
고층
안마
뭡니까
조미
당겨
기억나
신병
대내외
##OL
까다롭
지름길
내사
##GB
위키
이청용
플레이스
##뱅이
습기
접점
원도
과거사
Her
음양
성형외과
내준
##돼지
브리지
뒤져
연민
정예
##RT
맞닿
##레인지
두르
선주
특약
평택시
추진력
윤석민
##렐라
자긍심
수역
역부족
엄격히
파이널
명인
카디
지점장
##라이터
바랄
였으니
안장
맡긴
##lect
스테이
심부름
이쁜
애견
지크
흐리
전매
당파
하버드대
not
##포동
##떨어진
아치
정몽준
Life
학교장
공급자
법무법인
소작
용수
무의
삼각형
애썼
지로
##sy
진다고
신분증
동시대
AF
인승
##pt
##징계
총각
##EM
1906
임시회
Mark
러스
놓아
헤엄
SH
튜브
굽히
처절
연평도
옥스
##제표
조지아
경화
방산
나타낼
시끄럽
CH
재협
##afe
석상
물동
##oph
고졸
차남
사대부
인터페이스
205
사무관
휴가철
바티
##cess
##ject
소비량
배역
혈통
남방
그리워
##폭풍
Char
부천시
재무제표
직격탄
Cor
##게이
##리케
놓였
나고
껍데기
##orean
최승
감량
굴뚝
경계선
커브
놀라움
일지라도
대칭
정신없이
부츠
알렉스
나뭇잎
##소송
전임자
현충
시애
부지사
원재료
주창
심기
마일리지
마하
박은
통치자
숙원
유창
라라
이보
황정
수뇌
파파
때렸
아틀
는디
루비
라운지
떠안
심리학자
##구름
파멸
인천항
좌측
발짝
으라는
머지않
적격
극본
다승
쓰러진
야경
웬일
서포터
방망이
파묻
순응
조계종
구명
##조림
##lex
미식
진솔
##ius
##더니
파트너십
움직인다
비축
날로
거침없이
스트라이크
개회
##리우스
냠냠
컨퍼런스
모국
주의보
번복
급행
워드
정승
Per
Sec
특전
달아났
도봉
##푸르트
##ural
제약사
ㆍ김
##진다는
중심부
파우더
헌혈
통한다
##oup
아레나
어설
전할
저작물
놀리
어시스트
가했
군복
시황
탐정
어수
예결
화기
스탠드
벙커
제과
아니한
올인
까마귀
화약
##net
연골
거래법
스위트
##에른
계룡
기보
대용량
세차
주총
불린
그지없
라벨
미카
심재
틈틈
다이빙
번번이
방조
장영
전자책
육류
충청도
##체인
제각각
무릅쓰
으셔
아이스하키
참패
지주사
왕족
##들레
텐데요
##ean
##배추
선지
Rel
가벼워
타르
전립선
따라야
클라이
비친
품안
십상
작자
부름
연세
한스
지양
무비
롤러
재기
##US
쪽지
소이다
퇴사
생후
손아
움츠
처리장
수협
스모
코스트
고이
대한제국
어때요
##obal
샤오
맞춰서
노사정
##다오
##에다
##88
두려운
청사진
두툼
흐느
물리학자
정거
포맷
왕래
갈리
정약
##ode
수배
접경
조직력
원초
광고주
활자
천자
원효
꾸짖
명부
이랜드
지팡이
마리오
고선
낮춘
송환
위엄
##unic
미러
역경
가즈
정병
파이낸셜
##우병
어려우
사악
폐렴
##그머니
##세데스
광기
신봉
운전기사
끌어당
수로
윤성
타개
퓨전
메르세데스
승낙
창건
척결
완결
동일본
동천
식기
이조
늦춰
김옥
편중
자아내
부러워
열연
주조
우왕
했잖아요
병장
##교회
나기
노파
연료전지
대웅
히말라
만류
슬슬
안중근
##탱크
케이티
둘러싸여
발가락
다룬다
노을
외주
잡음
##츠키
WBC
울트라
##RO
##펙트
##uch
비씨
##케미칼
##ction
철근
##II
나간다는
중략
놓쳤
##테리아
위암
하리
조그마
전류
피해야
정상급
##태평양
백운
창백
병우
퍼레이드
고를
변동성
대도
단거리
립식
생김
결렬
##소수
리메
Ver
##메르
대제
필두
형수
보탬
만인
나돌
잉크
진척
해군기지
생겨서
어묵
##기능
바구니
이성계
res
Pet
체격
##ility
스커트
##마차
거물
코앞
##에미리트
계장
스케이트
유부
국제선
용산구
촉매
연한
쓰일
왔으나
항산
아랍에미리트
세계사
으리라고
경진
나루
ab
치료비
사들이
원어
가뜩
역사가
오세훈
실형
시애틀
키트
소실
딱지
아뇨
베스
곰팡이
##폐물
시바
계실
군부대
시들
웨일
지그
적군
들릴
장년층
히말라야
##지먼트
게이츠
뚱뚱
int
라구요
등단
##세지
매니지먼트
골문
##org
무의식
##밴드
김태균
##sc
학술지
오븐
정파
센티미터
재협상
군함
우루과이
축물
후드
왕따
도도
베란다
굴리
석권
시달렸
옹기
이변
그림책
협찬
사은
잠든
꽁꽁
후폭풍
연기력
대림산업
발화
북유럽
경시
강수량
CB
패소
나트륨
버금
한기
CIA
내딛
홀리
##먹이
1909
National
비석
외투
가뜩이나
구려
후일
##델피아
##tis
소화기
도식
하이라이트
수선
##노동
벨라
블랙홀
위인
미워하
주택가
간선
경로당
Inter
왓슨
자본가
자라나
산업체
마요
칭송
갇힌
설거지
사교육비
다분
동급
트로이
캘리포니아주
찾아냈
비키
직거래
울부
투니
##따리
퀄리티
필라델피아
으리라는
황급
##ited
마르크스주의
갑상선
정영
신보
##uman
##폴리스
아야지
드셔
체형
형용
정명
특목고
익산
앤디
엘프
서유럽
오리엔
모나
삼국지
의향
인심
##레이트
가져갔
공산주의자
실리콘밸리
##예산
제리
Bus
병원장
UHD
통행료
간간
팔자
조윤
리뉴
##12
한데요
정거장
비문
알린
up
시가지
즉흥
##ouse
질수록
기념비
터트
식생활
지배자
팬티
##urn
교란
포구
생태계
나고야
수식어
##돌프
보따리
수변
##자와
울부짖
통풍
별세
허영
1911
남인
##며시
몰아내
상여금
김경수
영업시간
온화
##리스타
왕궁
도난
BI
불분
일깨워
총동원
##LE
연습장
한명
떨치
나아지
평년
밤하늘
출연진
숭고
안전성
페달
새기
마누라
수서
강추
컬링
연출가
무이자
불순
받아들인
속여
##코니
표지판
카터
저울
축구단
에듀
책장
##크라이나
##보살
동해안
토르
이니
225
밀어
항변
am
##용품
소중히
현기
노련
티스
##오피아
예식
오비
340
사업주
힘내
달릴
가까웠
카니
가산점
프랑크푸르트
곰곰
약초
##RS
차인
고착
허점
무제한
Dis
##블랜드
fl
강의실
박선
에티오피아
돌아온다
배트
##지수
네모
규슈
인덱스
우크라이나
시외버스
내려졌
거머쥐
대등
##계약
사업소
공적
오르내리
선대위
오메가
관사
미움
제수
여길
지저분
바이에른
뒤바
초미
포대
이어폰
애프
관현
냉방
no
등용
최형
월화드라마
하노이
comp
민병
정미
불분명
당한다
일사
천마
들였
곤혹
연락처
마중
신변
##랑카
겠다
릴리
수족
클리블랜드
전시실
엄숙
강가
될수록
액자
##독부
별자리
교통망
깨물
켈리
물러난
연속극
장중
확고히
나와요
쉽사리
셀피
간지
사회생활
##춧가루
파나
조서
아이오
선한
길드
카시
잇몸
포유
코파
수긍
입혀
화원
##정보
참기름
푸르지오
끌어올렸
가져다주
불우
안간
##alk
반동
정희
대감
시화
승승
야망
아프간
스타크래프트
직행
재가
장도
하루빨리
넘어설
바라본
동두천
봄철
누스
무얼
반열
동갑
정기예금
갖출
성패
빠짐없이
숙였
으로선
일진
야쿠르트
남해안
사로잡혀
에이전트
안간힘
다니까
영진
시금
알제리
##일체
다퉈
수개
슈트
내분
##데르
사조
Pe
항우
발하
이력서
1895
향해서
유심히
애리조
양분
분유
##는지
예사
하찮
##por
수조
아닐까요
전환점
##드리히
초석
노폐물
황산
부조
몬테
풍광
악당
##심장
아미노산
김양
칫솔
붕어
느닷없이
주정
만전
##공항공사
뉴턴
위선
소리치
결재
신사업
수탁
평민
대소
##ft
소울
KDB
전래
레바논
웃겨
##틀리
섹션
가창
삼성생명
게릴라
훔친
루머
##무시
국립대
TEU
폭설
안드레
폐교
티아
드려야
찾아간
기틀
단번에
쌀쌀
나경원
총격
초록색
##부패
고강
가리켜
주안
THE
얘긴
##타나
##브로
매료
시차
협주곡
심근
샤프
설립자
인내심
웨이트
한입
발라드
체리
##ford
##슐린
다가서
##브르
멜라
1904
백수
산적
전학
문학관
중전
##취업
안전망
결점
이학
진료비
##바리
개도국
로또
선종
##iff
선풍기
청년층
어울릴
림프
구월
커스
순경
카탈
불능
보인다고
NBA
레슬링
관전
변한다
남양주시
SE
피렌
놓친
가상현실
애교
제프
기우
inter
하의
하이데
희박
파시즘
피에르
히스
시험장
언어학
인회
브렉
다닌다
자상
William
휘하
마이너
블록체인
물씬
역전승
목격자
그나
사체
끼칠
포터
##프로
사하
##투자증권
애도
고학
자그마
매실
신상품
몰아주
걸작
역삼
인슐린
잡초
초유
화염
가격대
##evelop
타로
##자치단체
전위
##네이
구타
완치
적임자
##99
현종
밝혀내
##우마
수저
묘역
짜여
##니치
해했
무례
가히
어루
참관
수목원
수난
콜라겐
기약
니혼
멜론
가로등
산동
테스
규약
미신
##겠다
기자단
피부과
행한
Robert
엔젤
데이비스
구가
흠뻑
아메리카노
승승장구
##res
돌고래
엑소
##과학
트로트
##트럼
만장일치
내던
허덕
주치
투덜
평화통일
##덕션
2025
분향소
돼도
이형
들인
어뢰
라이온즈
낭만주의
공생
##led
형광
값진
백색
##웨이트
깃털
모빌
감소세
득실
리코
위즈
뻔한
철원
공석
발열
○○○
맞아
페이퍼
직감
래미안
고온
기발
돌진
고야
심상정
유추
괴로
구수
모모
칵테일
네이처
경협
소라
코리안
##서니
축전
WS
연석
병자
암튼
교육자
빼앗긴
낙마
소풍
##lish
역행
FT
한국노총
독해
서동
##날리
요르단
포석
압구정
끼니
납니다
노고
샤이
따돌리
내란
두통
방류
좁히
OP
낙원
단발
목돈
무등
집어
ISO
모셨
불가리아
마가
선구자
울프
작업장
##ated
일거
은사
로보
are
격화
구내
게임즈
극명
파랑
비행장
영정
로지
헬렌
공사장
농수산물
원문
차이나
로컬
게을리
동종
오차
도전장
경리
무주택
자형
##다운
전유
국밥
이북
쐐기
##린다고
HS
둘러싸인
사상자
뜬다
모을
바빴
스트리
선제골
출격
##agement
리비
1896
법사
조부
매립지
발맞
판결문
기절
차가
버크
틈틈이
왼발
호환
서약
꺼져
염기
황급히
고상
스완
비운
이직
당직자
Ro
모녀
구세
##아치
스펙트럼
포획
교육학
소비재
은총
##회원
하급
교향악단
왕건
부정부패
##가내
개인주의
쿠웨이트
천둥
양키스
신기록
흔드
망상
중도금
##ger
전문대
명쾌
선적
##33
내려야
소유주
##럴드
모터스
##그림
끝장
##yl
일궈
부끄러움
냐며
미성년자
감춰
조건부
##보레
노랫
강동구
몸소
북돋
맹목
액티브
맹렬
신예
##텔링
##ett
콜라보
분신
GO
##메인
땅볼
잘난
스토리텔링
##14
웃도
영호
보여서
양배추
송강
서현
은수
카우
홍천
가로질러
버틸
중얼거리
알아주
##ature
다뤘
스팀
오른발
단합
측량
조선총
##렁거리
##토토
##투수
##25
넘나들
센텀
하체
##IV
NA
김포시
스핀
악장
옆집
투병
배관
선량
과학고
차차
man
DTI
월성
피리
들끓
유골
조선총독부
대진
부조리
창호
다목
##필품
승선
멤버십
당직
##세스
구심
유민
익힌
##산면
부검
수십만
뻔뻔
원통
무식
전병
##장치
근교
솔로몬
봉하
증발
##EN
##15
니켈
효도
일러스트
포커스
무시무시
편집장
일구
띄워
무너뜨리
오리온스
리메이크
스즈키
로얄
생필품
처치
##기계
괴리
지배력
숲길
지뢰
펀치
몸싸움
수문
야근
오정
휴스턴
##거름
밀린
수화기
검역
시문
커트
dis
##레븐
위아
KDI
KLPGA
놨다
빙수
물동량
Des
지아
치러야
은커녕
선입견
##광석
브런치
실생활
편차
김덕
조식
정월
보험업
패럴
이해찬
빙상
의왕시
액정
처참
축산물
프리드리히
##린내
떠올라
토기
와도
전구
로군
##바키아
지마는
시오
준하
##둥절
미술품
삼계
사본
어리둥절
홍문
물색
대응책
순대
어린애
손수건
알프스
애덤
대장암
인피
VS
격돌
마리나
화물차
##내렸
보인다는
부가가치세
이율
입출
허탈
토트넘
폭파
채울
각료
##데시
정동영
##통수
세아
##료품
회기
과업
##로니
##케어
피렌체
변방
송전탑
mg
JP
퍼팅
우리은행
외야수
##omer
전셋
##푸드
접어든
상어
##oint
콜린
웨이브
##다닌
##축제
독신
숙지
험한
선발투수
DD
결부
었잖
선거인단
부턴
##딩크
BO
포근
샤를
MBN
누드
내게는
화소
국제법
롯데호텔
그럴까
##글라
커피숍
##자루
해협
총량
프로토
막혔
##업소
반증
가덕
역사관
정용
선방
시몬
맥도날드
자태
바야
일본식
이체
자화
중령
두드러진
##der
북스
국부
실컷
초인
그걸로
체불
피츠버그
가압
글귀
누워서
낮잠
활동비
흔들렸
몽땅
문화방송
스포츠토토
선다
어루만
삼거리
펀딩
책임질
목표치
밝혀야
심성
시트콤
후반부
점쳐
##토피아
무스
캄캄
골치
무침
##atch
per
달구
마십시오
업무상
##마침
휩싸였
수프
히딩크
CU
덕수
##러브
보여야
420
이세돌
왕권
혼선
애틀
제방
도호
뻔하
앙상블
누출
인적
아보
에스파
본보기
출입국
라야
코프
황실
##iety
여과
프로야구
##배상
때마침
##산리
작업실
강풍
매끈
특공
개각
명작
빠진다
두터운
박연
안부
문화부
알려준다
불태
불러일으켰
험난
송치
##ates
공전
발각
세팅
힘겨운
던질
좌표
끝난다
난간
##맥스
내민
판명
직계
App
낮출
까먹
대파
나이키
##연구소
넘쳐나
1913
ㆍ인
우승컵
로망
허약
시초
뜨거웠
일전
지울
##구이
SSM
일손
찍힌
가디언
해왔
회부
송신
천진
Cal
진부
줄까
Econom
치워
서머
접견
고베
자석
##ze
##벼락
광우병
안테
붙잡혔
아플
찹쌀
페트
##습관
광안
후한
##ious
장가
힘드
##대성
스케일
순전히
답안
법리
이봉
불변
교화
코노
관음
희망자
애틀랜
잠복
블로거
윤회
관동
흔쾌
컬럼
모리스
석유공사
구토
##무스
오인
이언
묘소
으음
##태영
선회
평원
ind
겸하
시게
태산
교시
Book
진사
전도사
학군
최대치
빙하
##은희
양형
패자
대치동
간병
수사대
시판
##ning
두껍
생각났
일면
했어요
예스
지켜볼
써도
마칠
적립금
##프레스
##임새
흐른다
다윗
207
물려주
##겨울
트렌디
합참
천성
갈치
고점
괴로워
흘러나왔
양구
Bo
용접
스키장
적재
열도
유유
##난방
메릴
집들이
행정학
##lin
배꼽
모유
애틋
일수
혼수
역주
부단
신통
숙청
패한
여고생
시라
크레이
포고
850
한적
친족
끄집
기념행사
환희
강화도
검은색
별칭
CES
권한다
봉우리
##먼드
삼성동
구먼
호국
##포트
290
프랑수아
퍼붓
백혈병
뜻밖에
예우
WW
##자치부
보통학교
이복
na
##파니
소용없
빼어난
열사
부딪혀
어떤지
IN
유스
제우스
스탠리
##도사
아우구
넷마
해장
구금
궁합
천식
우르
행정자치부
하모니
뒤통수
아브라
##일러
선후배
개운
도맡
백조
붙여진
재미없
구례
조승
##푸르
##inal
펼쳐질
절세
신현
##공주
분개
##으면서
대남
드러날
빙그레
성공회
로웠
고속철
동맹국
외교통상부
바쳤
사절단
이발
광명시
외벽
식습관
뽑아내
##코인
한라산
글래
##ness
자유당
오클
줄여야
휴양지
Rec
케미
자자
##봉사
팔린
잡아내
성토
보위
갖춰져
갈지
##하시
받아들여야
견과
얻어
타오르
1915
풀어내
부식
십자군
대차
움켜쥐
궁정
본다는
최인
피어
만한
상록
입김
미화
사와
균등
흘린
양조
Dr
목조
가로지르
쟁취
증원
가파르
Mod
넷마블
어다
직시
중앙아시아
폭주
##에어
Trans
370
Min
##oth
영등포구
밧줄
후미
말년
강습
제단
달려왔
건져
수기
잠잠
민회
국공립
불발
##로이드
참혹
키움
빈자리
ㆍ소
재취업
진급
불멸
쫓겨나
IF
억류
내리막
난처
되돌아보
##eph
챙길
헬리
티저
##ML
불면
진주시
그리스어
장례식장
고덕
금지법
##람쥐
##통화기
##통화기금
황태자
문희
내쫓
딸아이
저당
##을거리
베이컨
##니티
##나스
자유민주
트인
##────────
카다
박형
골드만
하녀
##아슬
겠다는
연약
볼리
겁나
발톱
성씨
##누리
약수
태권도
걸세
판매자
아슬아슬
숨쉬
##팽이
옹진
벼락
경도
정맥
아스널
깔린
치하
시사회
##my
카인
Paul
호호
고배
강희
자만
금천
로이터
일그
##rain
##olution
송라이터
투영
국제통화기금
모교
구치소
ㆍ기
자성
하산
480
액면
##자료
왕가
주성
간파
Eu
킨텍스
정수장
프렌치
멈출
트레일
##정리
그리드
foodstagram
되돌아가
qu
더없이
박철
함평
중앙지
발암
템플
끊기
##찰청
##처리
클레이
한화그룹
조폭
보호구역
살균제
라이스
네놈
도다
통곡
갈라지
빈약
화단
티브
소질
살렸
##유사
더워
최전
사천
온기
ag
발바닥
사명감
오감
슬그머니
##rit
였으므로
였음을
가할
##라지
그래서인지
벡터
사서
##저나
인지라
주희
화전
극작
반출
성가
망신
식스
돋보인다
##각형
연연
바란
삼성카드
이주민
교명
끈끈
찰나
일으킨다
압록
오랑
우두머리
소도
일출
여객기
용맹
장지
꾸몄
어항
인다
트라우마
##66
지긋
플러
LO
do
EV
문무
그나저나
왕세자
섬진
호반
수뇌부
개요
돌봐
##하고
지방산
##소년단
권태
##르노
초당
시에
리프트
##일본
투르
블룸버그
오성
인산
SKT
명랑
곧이어
무용수
사병
임정
고파
역습
조희
결연
##반찬
막아
내놔
신관
팍팍
비트코인
도미니
기린
##이센
Er
크롬
산후
공격력
삼국사기
대검찰청
행세
선양
##ㆍㆍ
교섭단체
여긴다
서태지
양방
되물
기간제
영미
계보
##다발
프로이센
형량
대대로
본받
꺼려
수의
방청
IPO
##복음
별거
카마
고고학
편도
##ents
강우
일몰
손해배상
베이커리
준설
발끝
즐거웠
군비
글라스
기로
항체
##orth
놓칠
종묘
스튜어트
소공
이글스
니아
청룡
외계인
골반
몰아치
불기
##게티
trans
외삼
##바위
싸운
완강
등대
이덕
##iation
웅크
지휘봉
Techn
각색
론가
외무성
인신
중징계
##very
HP
##거림
##17
미끼
휘청
매거진
베어스
포르노
ㆍ공
끈기
날씬
샌디
힘찬
집안일
미투
부득이
계십니다
로저
안병
이병헌
원론
##해튼
##ext
말썽
채식
연명
어수선
Int
경남은행
가신
사비
무거워
정약용
##포로
명하
원리금
시경
맞먹
all
공양
국력
공리
독단
##ng
SPC
변기
##cle
영락
##렁크
개울
NAS
##스럽
##슬로
캡틴
헤비
게리
##55
배심원
단양
란스
권선
성년
행인
관세청
포탄
숨결
##진흥
모서리
죄악
낭패
어여
NHN
##라면
레이크
##기념물
값싼
입힌
했어야
캐치
##formation
예예
소심
기왕
블루스
논산
걸쳐서
##잔치
관공서
찬바람
설렘
##fl
사은품
프란치
지라
리안
서초동
승부수
비철
##가슴
GPS
comm
박영선
침구
David
맨해튼
한영
##제르
##대식
인부
반등
##MP
백서
##irst
비오
수신료
##13
ㆍ대
화천
찌푸리
국교
시구
인공위성
라트
방심
서클
아낙
통운
여쭤
트렁크
스타일리시
네이션
참고인
면하
방송법
##운데이션
사살
##십리
가리켰
사바
단수
외자
파운데이션
너비
역내
촬영장
에워
##불이
제안서
천연기념물
성큼
##uss
현빈
노렸
##르담
후궁
남발
타마
익스프레스
초심
토하
후안
혈세
부치
##조각
박석
벌금형
유태인
무드
리얼리티
과소
2400
out
USB
치욕
소급
읍내
쇄도
선수촌
악보
배합
앙리
오름세
유라시아
##영향평가
오동
리즈
세워져
벽지
스칼
##란도
미켈
타원
굳히
##휴가
강신
훈련장
귀향
나폴리
백미
YG
어원
310
낸다는
산성
왕립
##몰이
직선제
볼일
##려면
물감
고체
##래스카
엄밀
블루투스
프루
방탄소년단
WHO
제멋
생가
거느
적색
카이사르
환경영향평가
망라
오로
일파
장작
남대문
도선
차렸
출항
진성
토익
##청사
유월
종착
##축구연맹
안나
밑거름
206
Ma
라네
도로는
이회창
원나라
광복절
김철
컴퓨팅
메스
비어
볼링
요일
하이데거
##바라기
1894
닷새
엉터리
평지
Good
패치
매춘
오아
반주
##사진
##ful
대리석
무기력
숙주
번성
김한길
레고
카나
흔쾌히
두말
클리어
전태
##ount
사회관
Chris
무심코
봉합
##교동
수은
감도
백일
필립스
Can
피칭
누굴
미워
상서
반듯
핸드볼
장본
기치
파전
수목드라마
소비세
태운
new
유명세
아반
ㆍ서
방재
##벌리
성자
대종
Ev
GP
아바타
대원군
나니
제강
##번스
인준
##우주
조병
회유
반칙
테이크
김성태
한신
가릴
Serv
여실히
테슬라
부르짖
나눈다
모션
격상
첼로
핸드백
##깁니다
로직
##oto
중독자
안테나
마스터스
시찰
백과
중공
마사회
상속세
불거졌
출사표
위드
납작
세척
보이콧
발단
변천
내진
시민운동
##irl
부양책
응징
마그네
##촌동
회고록
떳떳
멧돼지
심폐
Don
##코르
순항
비잔
송년
닥친
##동산
방제
##마른
할려고
운전석
스페인어
방범
악한
가성
기흥
도수
기사단
##타기
평평
스메
화신
브릿
각급
##화학
##충제
신다고
가왕
산천
터무니없
명가
##노프
마담
부렸
불이
저물
##맹이
금빛
벗기
섣불리
암세포
정력
토성
갈아타
등락
제곱
selfie
어딘지
공학부
새콤
노키아
무작위
흐려
내려서
물티
##75
조준
흐를
##정원
테크닉
일병
053
팽배
회의록
화고
아파서
전문지
예천
황기
쾌거
트랩
썰매
##DS
남길
유실
흘러내리
블랙박스
물꼬
산림청
##ther
##bid
쳐들어
호적
JR
무예
##득점
208
매수세
물방울
토모
##인구
유대교
칼리지
백종
온다는
##질서
##45
청담동
안쓰
거동
헤아리
떨어진다는
면밀
##각서
국회법
원성
블레
까만
박한
다이오드
석회
바가지
행자
사가
연작
장윤
##재판
##길동
어류
##효과
##탄불
중개사
장문
우기
지도력
수개월
##tian
##ody
하비
고춧가루
##임수
1916
융통
프린팅
도면
슈퍼맨
##마당
수연
To
AG
했으므로
가래
모진
현판
이분법
별관
ㆍ여
제품군
민수
##ye
방문자
위시
물티슈
네이트
진달
살롱
답한
현대증권
인계
악성
패션쇼
이재오
트윈스
삿포로
##uth
차액
휴양림
레즈
이스탄불
약진
이동하
하숙
##트로이트
##ral
더해져
##감독
광산구
KGC
연사
유시민
고삐
신호탄
평했
최희
우에
기울일
Social
엣지
전등
##암리
이홍
정취
들여놓
무마
##비용
나약
뒤흔들
디트로이트
행각
처신
납세자
풀렸
버금가
##food
한다거나
시흥시
졸음
검단
지역주의
과하
성곽
핑장
##ck
몰랐다
높인다
투데이
##그네
순결
##보냈
##꾸미
로크
부적합
경영인
김영철
베이스볼
회자
##조류
일용
김춘
널려
벌어진다
서글
아수
애원
##야스
양해각서
차입금
JY
하강
관은
간다면
장려금
끼얹
원종
평점
뭔데
##ission
유람선
산호
감미
병풍
수구
##모로
자크
펜싱
초소
떠도
책방
##yle
고마워요
보임
챔프
##황후
상투
##해졌
미로
사월
카페인
256
유모차
공덕
##uck
꽃피
종주
굴곡
동호인
유니버설
스피치
상충
에밀리
##선스
권혁
떨어져서
캐서
##EE
기관차
im
최현
내려진
전문학교
삽화
닥쳐
나가사키
연천
##TRA
su
##포드
미완
비무장
초중
갈매기
캔버스
콜드
##ru
동동
성역
7500
김수현
불운
##idae
에볼
기압
헤어진
식료품
Che
양현종
콤비
##MI
##ator
삼양
우방
##니언
레버
##리지
음미
의외로
이광수
빈부
닭갈비
재보
예치
서귀포시
소시지
돌격
School
보아
적나라
폴라
물놀이
##일관
사용법
얻어맞
뒤쫓
##호영
잃어버렸
부영
내려갈
##글라데시
취해야
피서
예술단
전해져
구술
##림동
체증
이채
축구장
수도권
우먼
영남일보
물어야
레슨
유다
법률안
기막
##주부
메르켈
고하
수현
서대
##정지
History
석탑
아디
방관
##질렀
소나타
브뤼
자바
##경영
라이선스
기선
병상
날아오
도립
병영
내용물
rel
합해
진우
여직
정쟁
자회
친지
기단
옥스퍼드
다가온다
마이스터
마카롱
209
무수히
Fre
UP
까맣
##니시
결방
##위대
실과
장승
플란트
감돌
실록
합천
살펴봤
##그래
430
빨강
영양제
앞세우
관리인
ㆍ전
##지가
레이트
기대치
감내
살상
헌장
봐야지
이정표
포티
데님
받아들인다
##ograp
봉착
한족
케익
콩고
Off
천리
was
점잖
파국
##서기
##트니
방글라데시
뼈대
모신
##바이벌
안성맞춤
사재
고압
##행정
월가
불금
비지
향연
피신
Thom
코스타
깡패
반향
성의
광양시
이기주의
유기체
명지
III
페인
KEB
2200
밀렸
병동
안재
##눈썹
모란
방편
##CA
##수정
대놓
눈초리
인천광역시
데려오
기다린다
기뻤
렌탈
스킨케어
권세
##자실
캐롤
Xã
조림
조달청
콘테
아폴로
오대
자활
##21
경부고속도로
곧잘
영의정
달려오
##끄러미
꺾이
크라운
일렉트로
네스
온다고
한정판
시식
전주시
애호가
설명서
냉철
떠올려
전성
타지
##만치
MIT
서천
##타로
해바라기
영양분
뜻깊
신경질
속마음
##eng
골랐
최저치
긴박
판시
존립
통념
여호와
변국
##apan
알파벳
Ber
교민
가르칠
세브
##나절
파리바
믿기
1898
테오
삼국유사
잇따른
메디컬
MO
순탄
FR
수세
고금리
찜질
##보리
그로
찾아낸
로리
풍물
김태호
Day
상동
요직
##추세
기말
팩스
닫힌
블레이드
한경
##ely
노장
들어맞
절실히
영유권
우발
하순
헤딩
보탰
교통수단
블라디미르
##음료
괴로운
상계
제갈량
도르
범어
안겼
걸요
키친
##27
##불명
##적거리
##ana
부끄러워
중개업
##마니
디렉터
금회
두목
Pre
답장
외삼촌
렉서스
분말
제주시
슈틸
##천면
하자
열량
무의미
제이슨
곰곰이
신간
풀린
프렌즈
반세기
되살리
근저
임재
슈틸리케
반정부
좌완
##볶음
비쳐
구스
카를로스
레이건
장구
절규
창밖
밀려나
유토피아
우선시
진실로
##for
##텐도
너그
수혜자
떠들썩
분경
허나
cc
설악산
##꺼기
Do
박보
손등
볼보
빠져나갔
숨통
요시다
먹을거리
늘린
성행
한산
떠받
##ental
김성근
열강
제멋대로
김만
태수
닌텐도
##ica
instad
섬뜩
리온
폭언
계세요
암울
조중
정숙
현미경
트릭
발제
손보
부원장
항문
##저곳
기성용
종단
##ict
이곳저곳
바친
##관리본부
물줄기
질감
나우
초저
원어민
찌꺼기
괴테
최면
##커피
라임
재조
##ont
##스포츠
알아차리
윤희
근현
세이프
당사국
##베이거스
펑크
허다
못합니다
유채
케이트
압록강
금발
프레드
라스베이거스
수모
##sych
기교
아편
장학생
현악
##23
전셋값
여름휴가
파이팅
면책
##77
애칭
그자
못난
어우러지
5500
의복
##북면
와이드
오보
점주
1899
토이
공매도
누수
김중
자족
맞닥
코로나
양산시
상학
대통령령
아트홀
Rich
찍혀
야산
속눈썹
타진
흑흑
SN
느니라
젠더
소문난
오송
김기춘
칭기
봉급
##큘럼
소극장
도급
신학교
주간지
애국심
앞장섰
브러
양악
로버
퇴적
머뭇거리
전함
상업시설
고속버스
팩토리
비수기
탄광
PA
복고
대패
특산
모퉁이
헤헤
Bro
##ony
책봉
피로감
##창호
비염
신데렐라
한다든지
쉐보레
따라붙
제하
마티
넘나드
밸류
희석
##ior
유재석
엘리엇
##장수
해야죠
사활
##중독
gr
pet
커리큘럼
지은
의료관광
창시자
포옹
백업
덮여
주중
고어
##메스
##ould
분업
##림픽
비선
슬퍼하
성실히
송출
vol
성비
IA
pol
신용장
UC
여보세요
메워
아반떼
##바구니
높여야
##지휘
크리스토퍼
복당
악단
열띤
췌장
##던트
더라구
개최지
육회
지반
법조인
Global
반미
##게이트
##16
금물
리딩
청구인
시승
##━━━━━━━━
순순
약칭
매끄럽
신빙
내림
하이퍼
##폭탄
FO
가자
모독
##장자
공경
암석
거쳐서
후후
##르바
관저
문책
천일
서병
예탁
##수염
이동해
맥아
개헌안
해전
##손가락
신태
##24
브렌
##을지도
불통
저편
Time
브레이
##에이터
아름다워
개의
##마드
마곡
플리
##골목
질병관리본부
윤정
고위직
스파르타
징벌
계망
아즈
담가
판단력
##aby
머스
청해
낙타
##미애
약재
따라다니
러셀
물끄러미
목성
무형문화재
토사
##ency
발코니
재능기부
토탈
가쓰
그린다
미칼
제창
필승
##bs
##순간
꼭지
통감
변별
##work
진달래
명종
블루베리
세일즈맨
이유식
서성
학번
기해
최경주
잔금
첫발
안구
교두
청했
국산화
소견
성탄
로다
배고파
드려요
##타고
출소
서희
스파크
연화
빈소
빛났
전광판
아산시
도자
송나라
어허
세무서
오두
##28
정부군
비밀리
조양
주술
취수
##해하
신동빈
홍명보
장본인
다그
정읍
하물
생동감
윤동
프론
난장
비화
횟집
상쇄
ㆍ수
장엄
헌병
##잣집
스몰
오스카
포상금
본드
엽서
현우
발사체
##포스
##ravel
다독
월등히
갈림
눈매
빨갱이
영산강
부업
피조
##ield
제스처
상작
1890
항암제
현혹
프랑스인
##중국해
봉인
발등
거르
담수
공민왕
##de
고깃
묵인
컨트리
트림
통진
##아졌
어림
인색
수해
걷어
재회
가야금
종아리
담요
책임져야
만리
##달리
##레타리아
세비
위급
루즈
창사
대낮
키워야
명세
프로덕션
고든
이끌어냈
##evelopment
대행사
공탁
축조
박시
뿌린
인단
오호
##클레스
자유민주주의
기슭
누님
대손
물길
더디
##거린다
벨벳
도쿠가와
호모
수진
실직
프롤레타리아
협연
정교회
드러낼
전서
중수
방점
양주시
##진진
무위
해프
215
정모
카바
##교사
리빙
잘생긴
장현
James
떠넘기
빈곤층
애프터
밝기
##회관
천혜
##운동연합
빌리지
양립
군위
정혜
접해
비대칭
DMB
아브라함
신인왕
병설
유니크
의전
리티
오다
불러서
동태
수혈
겸직
니코
동성애자
그랜저
계주
팔찌
##도니아
통칭
##나르
남다르
체벌
오노
스파이더
##ein
범람
민간단체
##35
물갈이
알차
모하
루크
Christ
돌기
매트리스
성심
결정짓
##berg
산신
최문
가오
밑돌
민첩
##조작
섀도
빚어지
빨려
날라
보루
묻히
다릅니다
취한다
한대
연구비
ㅡㅡ
오갔
리브
묘하
##착륙
낙점
시커
##받이
정박
##더드
덧붙이
와우
##극장
피에
병들
일례
##ific
여라
옷장
계산서
들이대
유병언
헤아릴
이너
판세
점하
##85
적도
한들
가람
와라
절하
Cont
히히
스냅
후식
갑판
머문
면면
부러지
Im
부려
Best
##urch
soc
했어도
##스러운
트레이너
여대생
##플릭스
##ane
수트
##히코
철광석
바겐
송시
피어나
깨진
넷플릭스
나날이
통관
쿠스
노량
박테리아
해결사
독립영화
단락
잠기
붙일
PL
애틀랜타
살살
아자
퍼펙트
밑반찬
밝힌다
리베이트
가운
##잖아요
매서
아뢰
되새기
두드러졌
영아
노동계
네거
왜군
##석희
미나미
RPG
철판
찾아올
거닐
빼곡
##문제
교직
노라고
##ave
레이어
우리투자증권
서도
이과
의령
##저지
##혈증
두드려
암벽
호스트
종용
건재
복안
발레단
라오
안종
AB
SL
연례
레이블
foodp
문맥
##추세츠
도메인
화웨이
경실
방중
흥미진진
관망
끈질기
난폭
달팽이
스테인리스
문물
호리
rec
맞히
하워드
매사추세츠
데드
대장정
훑어보
전권
피웠
##쿠니
놀러
##26
##ally
##조부
나그네
애비
완벽히
부유층
해프닝
여러모로
은서
친목
제너럴
김순
기제
식도
해이
한국군
뚜렷이
어쩜
##hel
헤치
가압류
편파
##바바
똘똘
살펴본다
연마
명물
진시
에스파냐
플러그
신천
인포
##arm
펠리
못함
수칙
재산세
연장전
최형우
일석
학벌
옮겨졌
520
술탄
덤벼
숙부
뇌리
일절
하회
Net
제청
광채
차관보
미끄러지
발신
모종
더냐
제빵
일월
개화
앤더슨
와요
조우
허기
시금치
소피아
밸브
##치산
이정희
불식
베어
함부르크
모피
중랑
피플
정몽구
디딤
방지법
##쳐야
##프라노
##19
케임
플래그
가곡
유미
극장판
기장군
누계
강원랜드
섭리
인화
##소타
##acy
부서지
##보기
##첨단
빠뜨리
애용
Inc
예예예
원할
부주
##44
순순히
아몬드
징용
초가
##사장
라멘
##수무
사무처
반달
영상물
Win
박완
배운다
교황청
팬택
조재
의뢰인
##ridge
메드
235
당은
Val
##정책
뽑힌
정한다
아름다웠
단비
지하철역
나자
재인
##틸리티
자력
지은이
야전
자가용
성욕
##동물
##누이
##애미
창업주
낙서
분통
어딨
형체
OB
##티시
양치
지프
FBI
변함없
허전
Instit
ㆍ보
로열티
화이팅
장단점
야후
NASA
심미
##ross
튀어나온
강관
블라우스
대물
번뇌
SDS
시노
##이동
##콥터
필하
대학가
고칠
미연
퓨처
알몸
항공모
마이애미
신당
유틸리티
위기관리
겸허
금수
전생
스탠더드
패럴림픽
교동
Te
정강
체념
생계비
꺼낸
사탄
아벨
시댁
허망
날아갔
집시
노블
팰리스
기록부
Air
역외
다람쥐
질리
안젤
최하위
습성
알로
##덩어리
총독부
네거티브
건성
토미
##여정
스마일
방불
임팩트
##ara
런닝
피식
배아
내디
뛰어났
초고층
선화
차출
벌려
##투아
흔치
##칼리
극작가
히가시
독일인
부총장
양태
온건
##eck
난제
고성군
뒤따르
하남시
선하
하나같이
명곡
문전
박광
##유리
외할머니
후추
시름
식빵
줄여서
Art
금주
승부조작
특선
사들였
##18
삼계탕
도마뱀
대영
##bert
Em
롤링
저점
##ien
##타오
PER
누웠
날린
넥스
앵글
쓰레기통
Reg
인먼
미들
미네소타
녹조
386
고해
덮개
지나갈
어울린다
미진
방파
기념회
나팔
행군
MLB
식중독
흩어지
제주항공
무너질
혼신
고군
추계
##까봐
재치
Public
지어
흥청
정신병
등불
사의
##홍철
태어났으며
피살
두들겨
급선
관우
방증
kW
노회찬
뒹굴
즐긴다
God
모더니즘
가가
알짜
연석회의
갸웃
오자
##니엄
기생충
피카소
바빌
코인
고은
접착
골수
뽑아
양정
정신력
다이어리
현관문
기출
쓰여진
Up
Work
페스
원세
도처
##우라
별반
진찰
청순
과천시
절호
##ca
How
회개
##노당
꿀맛
로브
탄원
치웠
플래닛
떠서
컬럼비아
살충제
최고위
받아
깻잎
던진다
단상
앞면
원예
연기금
440
하물며
아늑
태후
수임
캐리어
프랭클린
아라비아
비호
집적
##ied
전범
고물
오케이
젠장
아세요
데카르트
동강
단선
naver
기마
공정성
시편
안기
밀수
번져
최윤
##MCA
물놀
예문
으레
전법
내보냈
구자철
누진
민노당
기념물
보여요
2300
이요
추수
기타리스트
함박
순매도
는지요
와카
문수
사회당
독식
렉스
감귤
##머니즘
부산은행
통할
다각화
마왕
출근길
힌트
CPU
가브리
진군
##샤오
질식
내려간
이슬람교
##ury
고관
주물
라이더
어렴
경미
홍진
미남
바라본다
##mann
속편
안색
접했
북대
선거전
싱크탱크
del
반부
사발
##회전
판매점
아이슬
##SI
SI
##학습
min
상도
오니
와이어
간암
축출
cafe
##재해
##특별자치
무주
cont
페더
##링턴
마자
울창
##으리
경련
숨소리
228
할인점
##특별자치도
정렬
문화사
6500
강석
러서
체스
학도
외대
잠겼
##ring
장보고
강과
천호
##ael
아이비
조선왕
리턴
물살
제주특별자치도
숨겨져
레오나
app
허덕이
문창
그려지
##토미
선발전
##나비
중심주의
환경운동연합
##놀림
비탈
납세
다락
최첨단
법원장
거사
요번
쥬얼
달려온
##ason
섬진강
프란치스코
캐서린
##its
김두관
한명숙
고흐
주군
악명
코딩
테러리스트
##레라
서대문구
샘물
윤리학
루소
큼직
옥시
##95
##효진
##멩이
이황
발포
무용단
돋보였
따낸
부축
수아
악어
원정대
호통
느려
예비군
막아내
옥외
추스
ㆍ유
경각
한솔
발대식
장제
편승
활로
서바이벌
하이드
아이슬란드
기권
##쩌둥
에반
팀워크
통신비
적막
라온
연고지
노원구
##ular
국문학
문진
벌어져
의중
변함없이
임태
찢어지
박빙
졸리
무패
선반
탐라
전조
이효리
##링크
마오쩌둥
베푸
바꾼다
양천구
이봐
쇠약
콜럼
살아간다
웨일스
진중
넓혔
임영
박대
민우
##미트
##산업개발
갈림길
히라
분대
이낙
##버터
뉴저지
멋대로
##펠러
땅바닥
##중기
보쌈
금형
웃돈
불명예
뛰어다니
선착장
특파
왜구
##ulture
늘려야
경영난
게시물
가평군
사우나
헬리콥터
##urg
최병
Fed
에밀
##ficial
연두
경수
지류
##상정
균일
미백
##타자
교주
백남
서지
찌개
##연료
파헤치
##쓸이
도비
해직
##tim
돌멩이
수빈
필로
한울
동치
소나기
##타카
##스톤
닛폰
훤히
카다피
수완
호도
해운업
gl
각별히
더한
Green
짜장면
공고히
##르트르
코코넛
최태원
외압
항공모함
퇴각
ICBM
둔갑
Ap
라지
싹쓸이
흐릿
##팔트
사림
이석기
변덕
##블릭
##시원
그리운
위트
문집
유형문화재
콘테스트
발행인
##oft
뚝딱
하층
214
##ople
패스트푸드
자카르타
나온다는
일임
시향
북한산
서커스
신협
Mnet
##버스터
Mich
어진
남작
신춘
평야
사이다
GTX
일족
투표소
다분히
뚫린
임성
탈레
사변
이안
종파
체구
두유
달린다
헬멧
인류학
기입
별미
장녀
아스팔트
반점
그제서야
어렴풋
자칭
투약
배지
점원
프라하
글루
못한다고
디펜
치장
헤어졌
지구대
려나
순한
승부차기
미군정
기뻐했
Pri
##미스
이만큼
말소
부침
##거품
살핀
어획
##진우
풀릴
노론
드세요
마이크로
담회
##러진다
마주쳤
깜깜
알베르
이용료
스리랑카
역과
진가
넬슨
메아리
병마
아킬
포병
216
솔라
표제
발원
##공산
신드
곤두세우
구덩이
##년기
전기료
TBS
##가드
이완구
누운
궁지
YMCA
교문
라가
다가갈
##사항
##종일
아낌없이
야유
영화사
시늉
##ship
굴절
연해
클라크
성호
에리
##세라
빠져서
이권
협소
흠집
교습
목청
바자
극락
교두보
나토
경차
유원지
한승
마키
##ret
수영복
단호박
리포터
대주교
구룡
끊겼
끝낼
내키
mod
수놓
경구
ㆍ중ㆍ
공복
신조어
조심스레
스가
1901
성현
황혼
속했
수증
부드러워
제독
없앤
이유로
낱낱
용암
노린다
오수
우의
완승
히메
##간접
풀어놓
그린벨트
정윤
찾아낼
이승훈
각막
##중간
분담금
혼잣
만행
##결연
Die
박제
##사이드
이리하여
주효
라스트
마장
참모총장
선덕
추미애
슬럼프
돌이킬
김성수
값비
철제
자청
가의
델타
바래
함의
미간
City
##실베이
교학
##령관
##실베이니아
최원
우스꽝
시종일관
460
자매결연
##각색
조선사
민지
##박사
자산가
재빠
##플릿
항공편
지날수록
쪼금
경실련
닉스
속임수
극소수
의인
숯불
재팬
떠밀
병든
휘둘렀
##전쟁
감독관
요충
찬찬
논어
유구
뽐냈
1903
회가
##29
캐논
펜실베이니아
프라자
차린
죄다
민경
EL
이웃집
베르크
전자파
형편없
총영사관
줄리아
##ux
해상도
워시
신호등
이뻐
페니
##상승
공부방
허둥
##듭니다
아이구
비틀즈
모기지
Science
추행
역풍
증빙
Li
페르난
##의지
##창수
사생
##치마
##리사
빅토르
강현
형용사
투자처
정확도
Cap
생리대
혈연
마이어
산만
##제강
끌어들여
생김새
겨자
혈중
황우여
화목
DA
문사
은신
펭귄
분지
블라인
허름
xxx
1897
파일럿
벌거
##하르트
##아트
폐사
가지런
물러가
장충
쫓아가
스노우
시추
호시
##여름
홍길동
빨아들
해녀
##틸렌
셔터
거듭날
감염병
##oung
KBL
앤서니
희생양
ㆍ부
로페
산양
순정
후려
유성구
Black
2100
가엾
##ino
웨스턴
성난
정육
사저
질려
솔선
쌀국수
부록
민트
현대산업개발
부들
엔드
어로
올려야
핵연료
피보험
##매장
Music
##버릴
Poli
캔디
앞당기
##덜미
자금난
길들여
At
그을
더비
러블
잔재
213
영일
##지구
자연재해
민원인
파나마
국민카드
등심
커녕
경호원
위자료
완제품
나아갔
불면증
민박
##els
불륜
통했
WSJ
모로코
화교
데니스
버팀
매운맛
직경
한국일보
226
연수구
헌금
넘어간
괴산
루카
##ating
부기
245
라즈
해밀
광동
톰슨
표고
일신
기라
1902
디바이스
비겁
발맞춰
충칭
찬송
##열차
들려준다
정일
one
금오
빽빽
무더운
슬라이드
개진
우표
##신호
KOTRA
자결
##rip
잠긴
블록버스터
문란
대당
##거슨
마태
잡화
High
##시울
연산군
모티
악역
행여
음색
##순위
투항
율곡
들이닥
눈시울
##분투
과오
부문장
굴레
항공우주
반년
북서쪽
##타니
군포시
##여객
닫혀
대할
압둘
Korean
돈독
중식
지령
프레이
현란
오락가락
불매
가르친
어벤
##진로
쏠림
점막
##미리
##소니
진다면
##톡스
스카프
마피아
밀폐
취록
만루
사쿠라
##스타일
고현
불경
##alt
기갑
##브리지
뒷전
쓴다는
경종
레트
리허
히데요
브라더스
연단
구급차
##지물
##자스
학기제
좌지우
편식
좌지우지
수학여행
강호동
줘도
베라
##근무
##다이스
몸뚱
악물
##박질
뱀파이어
정주영
사들인
바티칸
ESS
빨갛
독과
사행
중흥
##드기
하여간
포섭
샤넬
확연
준영
걸어오
난치
##ality
재경
재조명
망막
서상
와해
획관
힘없이
사모님
용액
묶인
서당
국민대
그려졌
독선
치고
백지화
안일
제형
브룩
망할
윤활
Mag
가인
루나
산산
의미심장
아련
리사
뿌리치
프로그래머
브로드밴드
살라
공급량
몰이
퍼거슨
col
여의치
개종
##코비치
Star
심장병
충전기
##연수원
매달린
275
케이프
궁녀
건널
중금속
마케도니아
테리
해석학
헌터
지정학
팔짱
상냥
히로시
강연회
동식물
윤지
격하
자오
무자비
소프라노
불러오
저놈
##부대
남한산성
살아오
브라우저
영통
주어
브릿지
꽃다발
분분
##불교
Class
스러우
적십자사
참으
##메드
도토리
외양
던데요
##모닝
Business
good
탕수
문하
된다며
본고
스팸
sub
카즈
어지간
##혈압
화엄
##ск
어울림
GN
깡통
감명
엄연히
풀어
중학
##세웠
노이
유생
##마치
반대쪽
미관
조원대
천문학자
서사시
봉황
HA
도의
재결
갱년기
##광장
대일
페미니스트
원청
려는데
KC
동국제강
부평구
마모
세네
속삭였
월경
##버시
##na
강경파
Law
하정
##택시
고위험
왕정
👍🏻
녹록
늙은이
##화질
걸어야
광선
요격
동창회
라이터
죽임
관영
보문
양용
요셉
##에이티브
사각형
안다고
ON
짝사랑
물어볼
퇴직자
값비싼
낸드
폐단
승기
반신
우지
특파원
반월
버클리
주영
양평군
버무
알래스카
보수주의
부가세
실지
거란
##바야
Mac
자음
엄선
육식
말끔히
굿모닝
Dream
구정
반반
크리에이티브
정찬
종점
요양원
들르
보듬
##조치
강유
Research
쏠쏠
채색
스트라이커
조각가
성동구
##43
바실
Fri
pe
에너지원
밝혀져
Red
누설
민물
베니스
애절
##무새
ㆍ신
출산율
속력
오우
프런트
고택
짊어지
720
삼월
스타킹
연제
##ection
검문
데이빗
피사
##스턴트
##48
후진타오
블라인드
Colle
무턱
참외
세터
평촌
우화
##추럴
고등교육
교부금
파라다이스
중첩
##TT
##못해
된장찌개
가느
팔뚝
##좌석
301
##사무소
구구
장서
리자
밀란
슬램
경대
징역형
이낙연
데크
뿌렸
##흐로
리필
소말
이론가
의총
개소식
최강희
고프
사민
통근
트리오
채점
장재
Tim
세운다
기판
매달렸
오영
223
저건
처칠
좌상
니콜라
스스
바야흐로
이코
궁핍
얽매이
문호
Management
노크
2600
##랑크
남동구
신지애
음절
임상시험
둘레길
낙천
레비
욕조
##하하
냉혹
물거품
남조선
자임
##미사
구매력
고조선
부전
빗발
저우
실망감
인스턴트
풀뿌리
생태학
인칭
오아시스
빨랐
획단
##케이크
사들여
우치
##로로
중거리
지나쳐
벌크
새긴
건담
유통망
어려워졌
영영
##chen
김부겸
특임
##일레븐
##주니어
공국
잔해
##글리
##수무책
광둥
Assoc
GC
속살
속수무책
##훼손
모어
방공
##워즈
맞아떨
지훈
미하
쥐어
숭실
회비
노면
##패스
##89
프라이버시
사려
상민
하시
주례
횃불
억대
콤팩트
중등
챙겨야
간간이
떨렸
서프
국제축구연맹
브루스
##랭이
TS
허비
강릉시
수전
분만
스콘
##변이
정운찬
모사
오즈
ㆍ한
방광
2800
미래형
공공연
대형주
벤트
다녀야
진천
스콜
걸어왔
950
파벌
부풀려
알찬
아까운
싸워야
안과
시제품
조목
국무총리실
맛난
끈질긴
##티티
걸어온
성북구
대놓고
도하
찬찬히
다나카
모레
내추럴
530
교의
우빈
최동
리허설
긴밀히
닉슨
##체능
계책
공터
정두
##79
연대기
평화상
투숙
노아
성취감
Sim
울분
신중히
##unication
걸으며
강산
노니
특조
프리랜
성완
완구
전압
##크로
증권가
총통
격투기
무표
경원
##만큼
##고시
국내선
뒷걸음
싸인
원기
이씨
펴냄
정치권력
막장
##day
빈티지
##46
사이먼
겨를
승복
달리기
되짚
상병
소피
복습
입소
향한다
불태우
응대
타령
안토니오
매카
산사태
버라
투르크
##하이머
투게
##코트
끈적
분석가
게장
##튀김
지사장
곤경
명태
##ICE
리트
Mart
불어나
##캉스
새싹
##민정
매미
##댕이
##공개
시공간
청색
합성어
돌연변이
Tel
rep
대합
라지만
중환
유업
매점
사돈
이맘
견줘
바캉스
사립대
##일기
##수도
TOP
히든
슈퍼주니어
탈레반
결석
간곡
놓쳐
신격
시켰으며
투게더
##페르
꿋꿋
떠오를
##네이터
미국식
##대간
뭉클
소형차
사법연수원
구도심
남겨진
난자
올려서
에비
매겨
we
대기실
위아래
랠리
샐러리
송아지
거침없
타사
도원
수려
자물
급박
아삭
##비슷
니당
무학
##히트
중기청
론스타
케리
화훼
팝업
상영관
버라이어티
칠곡군
혁명가
위세
갑작스러운
감액
서자
조선대
크리스탈
밥그릇
등록증
백두대간
전기금
이끌려
던전
보내왔
##반구
결손
배재
일인
세라믹
노드
종교인
##비어
나온다고
##amil
Mic
사미
자몽
##로호
난립
스트리밍
도형
드실
껑충
경은
칙칙
390
저널리스트
us
외쳐
부연
크라이슬러
아케
피켓
자유자재
신드롬
Let
산간
출장소
도읍
##르륵
고약
삼림
황재
##ember
시미
통신부
묻힌
함안
마르코
실루
Ox
방도
거렸
난데
날렵
##ological
호로
두리번
진짜로
대수롭
뒤졌
##CE
용두
행정소송
선례
휘감
문제집
장성택
머리칼
독촉
베니
설리
홍석
양가
참회
ER
정품
응집
한하
이상민
모면
can
지원서
레크
##자동
희비
##일비
##정사실
기정사실
바싹
투옥
##테르부르크
광활
직물
##42
형이상
세븐일레븐
해병
은행나무
써니
펑펑
카사
보라색
차곡
김봉
해시
생쥐
##토시
공모주
MRI
본원
성신
다이묘
재가동
혼잣말
명당
발진
ATM
다이노스
자화상
스푼
##군데
묵시
은빛
##여왕
코난
스파게티
노라면
Europ
이을
피시
수온
내려지
쫓아내
교통량
동그랗
Japan
차도
도련
할로
뒷좌석
연우
체험학습
염상
개천
폄하
최수
위약
아래층
감칠
이삭
연봉제
명기
빌헬
##72
방아
병아리
부쳐
##ura
독한
사다
정성껏
##학생회
##화가
명예훼손
경동
김유정
낱낱이
잡아가
##워스
이끼
노점상
비키니
빌어먹
예체능
##유진
학생회
##omen
본청
원생
뜬금
ㆍ제
부적격
풍류
가변
빡빡
##부사
닐슨
외연
전산망
누명
##만두
동양인
흥국생명
송승
##라드
옥천
복역
장전
엉엉
디딤돌
정청
총학생회
파마
POP
특공대
와이번스
판독
섞이
중사
Paris
청동기
Camb
향교
Top
노숙인
스크랩
연남동
오존
장경
도안
대표부
꽂혀
Act
선녀
##나귀
von
오색
다기
시의
가업
##96
레오나르도
백억
읽히
점성
외세
블로킹
체득
엇갈린
무서웠
피셔
기다림
심오
참판
툭툭
공시지가
이구
시무
토요타
은닉
총력전
도배
그리스인
신석
246
불러올
피조물
귀촌
카누
허드
##티넨
560
슬라이더
벨리
생산력
쿠페
##헌영
제보자
단행본
피상
가로수길
##칠성
근무자
천왕
##유국
##노리
캐스터
미트
조끼
##47
https
만사
거버
뒤틀
살인범
프리랜서
work
락할
금융업
평의회
백설
피임
처박
2700
차우
돌아선
진통제
향년
예정지
브래드
##멘스
천정배
만석
밑그림
신령
선취
양방향
리크
휘둘러
##막염
어쨌거나
1880
지도층
효종
##사회
페널티킥
전근
필수품
삼청
##포츠
오릭스
직함
사회봉사
Wil
동떨어진
타케
입혔
강팀
이민호
골밑
족보
전관
질질
되살아
경각심
지나칠
자료실
Center
여하튼
분뇨
옹진군
BT
요로
##두근
##way
브리티시
구설
##rib
트레인
##스태프
오롯
새내기
예멘
이춘
540
##테이
고승
상층
번창
비닐하우스
올림피아
수공
보약
##시타
하이트진로
희한
pre
댄다
랭크
중퇴
##hys
와이프
잡힐
official
히브리
##IL
다마
억누르
홍보물
쟁쟁
타도
660
미운
개찰
218
사무장
비스듬
##산맥
고달
BE
##uty
태양계
Mo
##구려
기복
으랴
조소
고주
섭씨
찰떡
김재철
게나
도축
##와라
수출국
장마철
선크림
##71
XX
##티모어
나눠서
여장
호우
홍영
폭격기
끼여
톱스타
프랑스군
변속기
이서
뒷산
도망쳤
김진표
##cal
스탠퍼드
가발
Bu
##다툼
박신
한의사
무르익
지껄
분홍색
##준혁
전년도
보사
망설임
급성
BNK
펴냈
##73
##개골
고려인
살림살이
강태
부안
미온
끌어올릴
오명
##비히
##적ㆍ
정순
아기자기
##78
아수라
배짱
클라라
김광석
잉태
자연주의
##41
홀드
##승지
활기찬
관성
원주시
염색체
조선왕조
빌헬름
그이
시럽
간질
##ipp
난징
환절기
데이브
후견
팔레
코칭스태프
그네
##wo
ㆍ시
##헤이
내야수
발자취
찾아온다
올려놓
명맥
##세우스
아우성
봇물
레터
마신다
ECB
황량
태영
처남
대관령
아실
알리바바
송시열
##토르
조니
따온
자양
흉노
기무사
떨림
김상곤
덮밥
고참
불어오
눈살
타우
화나
마술사
수두
열심
교과목
TPP
건달
##시브
얼마간
혼례
성완종
윈드
잘려
라이너
일회성
가꿔
타국
포탈
완충
이동식
##연재
두려웠
구릉
목구멍
눈부시
당나귀
블러
앙코르
우렁
조진
##렌스
동심
##느질
승강기
난해
동진
##론자
##요금
Out
굴비
승산
투하
자위대
덮인
엇갈렸
칭기즈
통기
준공식
콘스탄티노
솟구
바닐라
##벤처
두른
##시안
##★★
자랄
응시자
열의
배고프
능히
차단제
간통
우편물
버팀목
젓갈
총대
나래
수잔
추징
물으
속셈
##차곡
차곡차곡
손주
청량리
던가요
Society
##반짝
뚝뚝
깨뜨리
가르시아
바르트
서기관
실외
학연
##렉트
쑥쑥
아랍어
첨가물
생업
압승
직설
하중
Lo
몰수
공공시설
##네트
막대기
메라
진에어
수탈
징조
반짝반짝
cod
전단지
특단
##그라드
옵티
힌두교
은평구
이항
##76
가정폭력
으쓱
##우회
겉모습
배석
추징금
저버리
##꼬박
수치심
노보
255
인사동
꼬박꼬박
##갈색
교만
토스트
빤히
가져갈
감회
정치국
결장
거제시
Park
##집행
##코지
Christian
고증
조공
##라치
한구석
뿜어내
상근
안대
데요
기공식
팔상
##눅스
하영
근거지
변태
징크스
이카
읍니다
##otd
가용
부랴
단도
흑색
##저럭
##신보
골라서
견주
묻어나
쿠르
##ki
233
만수
좌초
일동
##올리
##outh
때린
##DC
상한선
미제
막무
##orge
백범
작품상
##럭저럭
광주광역시
구라
질린
하한
알아본다
막무가내
나옴
쓸모없
골다
끌리
힘주
##라는
##바오
천신
거위
메이트
접합
노년층
합한
##iter
정해졌
실루엣
기웃
리눅스
캐럴
##데자
관찰사
깃들
행진곡
산둥
감사관
Of
민들레
가린
라거나
##공격
우도
Thomas
##데자네이
백석
엠마
참새
올라타
연극제
등반
예고편
한남
##PI
구축함
FDA
공여
CMA
sm
232
AN
날뛰
하키
구심점
나직
백마
예찬
정근
황색
기다린
환호성
##블러
흔들릴
판가
구기
유랑
져요
Af
씨씨
그레고리
등부
다시마
강병
화이
Mor
연지
모아야
남서쪽
석좌
요충지
가물
쫀득
용선
차상
에디슨
유이
눈꺼풀
##라이즈
가브리엘
미자
외제
238
모나코
211
씌워
윗부분
대별
로드리
겨누
부잣집
풍조
##eau
What
바오로
스프레이
볼턴
제언
박창
유휴
이제껏
##icy
성모병원
##학파
212
임야
달랑
동주
##덴티티
허우
자물쇠
체지방
##카미
Bre
걷잡
대산
치수
##98
아이덴티티
무표정
무화
기표
탕수육
잔존
##ities
북위
내력
미나리
오도
행정력
대학원생
두드렸
펄펄
가한
선서
밋밋
없앨
##ju
관중석
모름
##히드
예속
your
##능력
##버리지
정량
##가미
노루
천문대
극성
원제
통쾌
맘껏
유급
1889
원색
오미자
변변
뉴딜
레포츠
뻣뻣
암묵
진보당
구겨
장막
##나간
일군
자폐
지천
##노부
붉은색
퇴색
GW
단초
맞춰야
풋볼
볼티모어
마닐라
유종
괄목
방랑
축축
타스
자장
지퍼
##보호
##킨슨
##ㅋㅋㅋㅋㅋ
Power
221
##RC
김치찌개
이반
갈라진
##데자네이루
하염
##거래소
덕택
색조
헐리
황성
충성심
리우데자네이루
귀순
일률
조모
야구단
송영길
환각
유사시
저온
초미세
##호테
정유라
주눅
늘어선
더한다
##49
##덤핑
도상
약제
헛되
##ters
돈벌이
감청
심청
##드래
무용지물
추도
알아냈
동고
칸막이
상류층
총출
##ham
오랑캐
빗대
##line
##oe
괴담
사간
여념
피처
에바
두만
로렌스
무궁무진
국소
부원
Sw
끓인
케임브리지
익혔
진두
나일
얌전
셔틀버스
창녀
##문화회관
더라는
고인돌
직사
고화질
엽기
하수도
노바
반덤핑
사대
##문트
띤다
여서는
265
속인
문제삼
시료
돌려보내
목수
##저가
궁예
제패
세종문화회관
신승
톈진
세계유산
열혈
서스
흡족
전우
##두부
오두막
고군분투
승수
##ucation
입담
잠그
##성대
기요
나나
##라이더
##카도
로직스
테헤
명주
씨발
유림
유학자
지하실
임관
간청
신해
건강식
드로잉
전체주의
안내문
난다고
최명
##규어
지난날
가천
묘미
항거
빈센트
아람
돌변
슈가
풍년
버스터
양기
자며
##eek
무혐
##ures
Service
독과점
아꼈
월터
##평동
애드
말렸
스포츠카
온수
후발
홍차
마그네슘
카펫
템포
개발비
선악
가점
지배인
겨드
거미줄
심할
외장
에베
윤치
이어주
보합
변종
##개혁
구문
맨발
비열
튕겨
동족
떠맡
아만
##ffect
산은
##VC
신년사
불모
혈전
소대
광진구
Live
낯익
##oman
아로마
위스
비자금
다이렉트
소말리아
난동
비스트
속삭이
제쳐
매스컴
여백
돌아다녔
독립군
Bas
그만둔
묵살
성냥
##LO
일색
##그로
NYT
안드레아
Mer
##eel
원세훈
##이면
맞이해
응원단
조미료
첫눈
주치의
스텐
재야
부산물
앞부분
혼혈
최고점
성황리
듀스
무적
##캐스트
철분
민노총
황진
##ini
##une
배웅
철강업
게으름
So
IV
강민호
안전장치
특정인
후세인
북항
기껏해야
박유
날아다니
분쇄
특별상
루스벨트
인솔
강단
튀어나오
큐레이터
소연
##부들
드리워
버젓
목판
##가타
미일
영결
패거리
time
치이
소학교
아악
Di
징병
무함
테헤란
가비
빙판
배부르
들뜬
대양
카타
##바나
##앙스
제각기
럭키
소드
##무역
굴착
##gan
질까
리차
터트리
무개
불감
##ella
문지
설전
절상
렌트
앉히
##92
베이지
##제한
급선무
도태
읍성
할증
##ible
은둔
제복
Richard
단아
성시
알렉산드리아
유식
MHz
발췌
패기
통나무
410
달아오르
선동열
숙인
##31
##슐리
카니발
학관
도망쳐
청렴도
삼성전기
한계선
임자
다면서요
산속
리퍼
북상
DGB
개탄
걸프
난로
증산
디비
봉수
온종일
합숙
담사
미야자키
RP
왕관
##더라
이걸로
도용
테너
엄밀히
정구
남친
디에
정설
농경지
신창
##트리올
맘대로
이에
투박
객원
ㆍ국
##폴리
앤드루
남아메리카
김근
학내
몬트리올
system
총명
라자
##채기
레미콘
푸념
손연재
주세
신태용
시녀
영희
음직
인천대
##ruct
부러움
대들
##tm
열병
뒤엎
몰아가
졸속
향방
김정남
감칠맛
##산지
떠올릴
소방차
재규어
경무
저질러
총국
병리
시간표
Hol
구획
캐스트
##93
일리노이
내막
문답
휴학
특산품
푸른색
##ros
쌓였
되살아나
나이스
##제과
러시아어
##신기
백과사전
선불
##메니아
마운트
브뤼셀
차후
그란
총출동
이태리
선망
Kar
면죄
석조
##콰도르
이근호
용문
유념
트램
수화
그랬었
취량
늘어지
대뜸
외야
모자란
본의
교관
부들부들
포장마차
게르만
웅변
유경
##공증
기본급
깜박
레퍼
일깨우
굳건히
LI
지현
후원회
군데군데
진드기
나른
콧물
뽀뽀
전곡
드셨
탄약
보시
오뚜기
##ney
Fin
연개
도시바
남중국해
스니
id
몰릴
설움
에콰도르
##금고
##농사
암각
용의
베네딕
사르트르
킬로그램
Cambridge
치료사
##ington
초년
난다는
##언정
권리금
Human
배상금
급상승
풀무원
액화
보수당
구걸
북동쪽
선데이
##애플
##each
도넛
흥정
유체
폴크스
달라서
겉보기
침식
트래픽
Ger
수재
준용
##사관학교
경축
Cons
프란체
맞물리
파면
##당초
##모닉
골다공증
삼위
도예
정감
해금
바빠서
엄지손가락
들이마
육감
##보감
##뛰기
후진국
시그널
장밋
##74
정변
1884
RA
##OT
핏줄
관원
아르메니아
Sam
테마주
대경
ㆍ재
굳혔
##36
격퇴
RF
##뚝뚝
김신욱
감가
학당
모함
비기
플루토
정상회의
형이상학
아니한다
우리말
도인
470
내세울
##폴트
최준
대각
##bl
발기인
제정신
바그너
바리스타
##믹스
싸구려
패트릭
달라요
물으면
쟁의
해줘
후끈
##ero
뉘앙스
애환
##티나무
감식
구전
##노미
긍지
베르디
매개체
##eting
##86
말살
이비
조직법
sel
바로크
##걸스
을지로
Super
Award
따질
팬클럽
##ration
8500
간이
##스트로
김구라
##뜨린다
Met
중저가
귀추
연암
캐디
##어머니
자유형
그럭저럭
##께요
묶음
시효
서툴
1870
바느질
오래가
대장군
용모
단일팀
무뚝뚝
비바람
동화책
필하모닉
간대
국판
##min
USA
찔렀
도미노
⠀⠀⠀⠀
블럭
바라봤
##97
TC
출고가
포도당
속죄
임창용
날치기
놀라울
토시
호사
##다리기
원활히
프라이빗
바트
저어
관리사
##ilm
합쳐서
근속
대연
황영
감염자
잔디밭
울컥
보스니아
서청
학예
##슬라비아
인도인
공저
임해
로마인
수천억
농기계
진경
유산소
대웅전
현기증
파괴력
불합
지동원
황인
노량진
미술사
예비역
느티나무
WC
우버
Cre
엊그
소지자
태화강
##보증기금
깃든
##칠리아
하얀색
삼위일체
선험
나성
뼈아
##드래곤
보국
로베르
양념장
제프리
식물원
난생
막중
위나라
유고슬라비아
셨잖아요
우미
위증
##샅이
유의미
Development
한샘
ISA
샅샅이
광택
외도
제시카
되돌리
팔다리
구보
3200
PEF
콘도
남겨둔
리부
보로
뭉친
생산물
배고픔
농수산
수사학
제회
##be
뒤엉
원비
그리워하
##aster
ro
##HA
법전
비꼬
222
대여섯
거늘
쉬웠
##RE
##rum
실에
원희
구속력
디제이
애타
##파람
Review
태동
시온
지녀
유니온
맞춰져
##방위
마을금고
전언
선거일
주검
타리
황보
구단주
Dem
비늘
레아
은밀히
요구르트
코스모스
교부세
NBC
일문
티브이
장판
상궁
기관총
##치즈
박하
산도
##맥주
역적
아보카도
개포
KAI
메시아
채집
절경
일기장
마의
피해액
러블리
잠자코
대마도
타계
벌판
천차
북아메리카
복음서
도라지
말단
주황
피닉스
내겐
##정신
시발점
윤동주
불임
근면
성악가
노모
Not
화강
지소
서일본
줄다리기
컨셉트
귀걸이
기전
자의식
##니안
Mr
마천
장진
완패
##니지
거리낌
부경
편협
##집합
세용
출렁
##문예
짝퉁
236
피부염
##스토크
낚싯
파노
호러
##자식
##선미
this
1860
카네기
다비
명창
중문
레퍼토리
반품
매표
난쟁이
안영
##선언
진시황
총애
서병수
미정
##수범
기어이
볼리비아
##91
##다닐
서평
회계사
볼펜
황희
형세
호실
억새
에이지
퀄컴
동장
임지
허리띠
만지작
앞길
이부
비틀거리
봉산
##꼭지
친수
당헌
유우
Ang
돋우
숙취
현자
들락
업로드
상한가
Sum
식전
벌렸
그러고
해짐
난색
멘탈
부역
차주
##시아드
돼왔
부화
거만
##라이언트
웨인
다라
찻잔
격식
남동쪽
똑똑히
절기
폭소
도금
유니버시아드
터뜨린
취약점
AFP
##82
##anian
매서운
결전
드립
세태
##angu
수증기
별빛
문종
미노
지칠
채굴
클라이언트
어벤져
하승
항균
have
각축
깔깔
Michael
주경
##원회
##냉면
들린
so
몽둥이
시아버지
김상현
##ensis
재력
버럭
부릅
은영
##37
서연
이찬
mon
디비전
전재
##두고
다림
그럴듯
발끈
소추
의견서
김응
소다
박미
소릴
로저스
##32
피보험자
새댁
##보스
걸스
리디아
##로프
무함마드
인들
영사관
이승기
서핑
선선
쓰촨
주막
##작전
보살피
##aj
흐흐
청소년기
본다고
짤막
그레이트
컨테이너선
대머리
##orts
헌데
VOD
미개
##81
과도기
어드벤처
Arch
사격장
##맥상
레온
암초
응수
협곡
박연차
보헤
Adv
Ibid
카이로
우익수
조나
차분히
조강
580
##스테르담
송지
현아
조각상
빈혈
장화
##복지
##선지
장밋빛
류승
선심
##상의
##olf
소위원회
절절
##스토이
##분자
GA
눈감
봉안
석양
무협
##콜리
이주노
카리브
작인
셰일
종소리
##연설
##LC
시끄러운
라파엘
삼켰
JS
합법화
강림
애경
무서워서
터트렸
bet
##카라
장항
아소
의술
##ycl
##펜하
무턱대
속박
휩싸인
##넌스
하염없이
비노
시월
Frank
괜한
블랑
풀타임
##바시
##모자
Gener
직간접
뱃살
승전
틈타
car
##고생
난사
벡스코
적외선
변조
부락
정략
두개골
보청
샴페인
##ago
3600
그랜트
돌담
튀기
진피
##PR
교권
두고
고품격
중엽
차감
하역
모라
쏠린다
##저축
석고
##uf
권위자
다쳐
빨치산
백발
줄리엣
도사리
부러진
##소시효
동대문구
##국사
자판기
분교장
동갑내기
##ude
양희
##남면
도농
나올지
관악구
무릇
식자재
거느린
하오
공소시효
소포
야자
헤게
##다랗
레버리지
면직
따끈
가네
그윽
머슴
사선
장실
ootd
##부랴
수업료
꽃게
##als
United
She
작중
페라
mar
꼭꼭
##퍼슨
으루
만화책
쟁탈
계셔
305
에어백
##바라지
러쉬
자란다
현정
gre
대운
오산시
혹평
어서요
신춘문예
솔선수범
워런
노상
연습생
딸린
역류
두고두고
Rad
##퍼레이션
3300
나로호
목덜미
오더
하임
그리구
현상학
충무로
쿠퍼
김두한
반대파
밀려오
라디
살펴야
장생
ME
루키
군기
김강
뒷문
##동아
##클로
다던
##우옌
마르셀
창세기
해동
밝혀냈
소닉
베이직
##vern
빼앗겼
ㆍ외
울산광역시
보살펴
단시간
오재
우림
김관용
걸음걸이
산삼
성체
희열
끼쳐
도운
주먹밥
금치
홈구장
어설픈
부랴부랴
##구조
수경
##용지
바를
병무
사문
밀레니엄
조인성
노역
힐스
당무
피노
전멸
##겨워
영화인
##NT
유아기
##ao
010
브로드웨이
리언
325
ㆍ지
신경증
우선주
느껴져
시사점
──
각양
신랄
정평
상대편
모델링
덩이
바바
댄서
벼룩
운동화
진흥회
할게
##ulti
BG
사단장
상주시
앞머리
이도
##장난
서양인
제원
##부지
김주성
콜럼버스
수라
태반
벌어들인
285
관찰자
해안선
거버넌스
카츠
##통신
무턱대고
허준
##제비
붙잡혀
love
천박
피오
향신
ev
간극
강화군
신사동
빈손
총선거
간사인
팔달
암각화
연발
캔자스
정갈
비좁
형질
##bps
만유
##네임
##83
강재
음란물
성관
집념
고사리
잠금
출연료
인품
특수강
움찔
벅찬
영자
##94
헤게모니
UF
보호관
본디
새하
##시고
평탄
연합뉴스
공실
담자
판별
들이받
저작권
군관
우성
헛된
새로움
기네스
데미
육안
난도
뒤이
양식장
당수
도나
로제
소회
입항
교육법
King
640
입법부
부딪쳐
엄연
동년
순교자
인도주의
부풀리
codice
##샤바
마님
미혼모
싱그
인어
##카쿠
최남
독서실
##발력
게임기
튜닝
로이드
협력체
앙드레
##다닥
##ko
개회식
갓난
석굴
양강
네임
친형
픽션
2050
유품
##65
동작구
곶감
인스
##ffee
고용주
쾌속
##oid
재의
##특위
교통비
##손자
빚어진
풍족
Sal
학제
##by
알려야
중견수
순발력
프리킥
살벌
장하
귀금속
나영
암스테르담
휘두
떨어뜨렸
야마구치
진구
맛없
톨스토이
##대왕
걸려서
최전방
가차
제설
민화
금화
등본
단신
박순
슬로바키아
기막힌
부마
셀러
채광
켜졌
하태
과수원
WWE
후반전
조석
##rich
관아
수렁
전미
간수
넘쳤
초고속
##uel
김천시
베른
힐튼
##BN
자기장
윤재
등산객
Your
사납
##심판
분수령
AA
권투
산다고
거스르
건방
국빈
넘어오
뒤섞여
##ense
부드러움
리니지
웅크리
고농
몸체
으르
화정
모국어
귀퉁이
본전
칼빈
설계도
달려와
갑작스레
준거
분간
유혈
##ush
내무부
그람
생리학
현주소
무인기
뻔히
유목민
##kin
뛰어가
바이크
상담원
근저당
심히
비거리
일회용
Gold
녹이
들떠
수행자
조셉
예선전
면죄부
습니당
소방대
장유
##34
디디
미술가
찾아갈
##ets
러시아인
줄무늬
최지
치러졌
조바
##omeranian
만취
옷감
레인보
찬미
요점
말뚝
cit
##약청
시우
진입로
쟁반
래리
##린트
지켜봐
들어올리
RC
세바
시끌
충신
계략
플렉스
조용필
pomeranian
Hen
귀양
환관
BL
두레
파인애플
성찬
발명품
##셈부르크
부대시설
저스틴
괴롭혔
받치
외딴
##민석
인기몰이
자조
전열
1885
자분
밀실
신구
지영
주무관
일본국
하이테크
Mil
플래너
대적
##카메라
간만
합니다만
##38
스타인
인피니티
광안리
근거리
목화
후판
광구
호크
두근두근
처마
괴롭힘
드넓
코리
루니
##비안
공병
기조연설
Ear
시큰
이름난
부르크
도전자
빼돌린
버젓이
##백산
손잡고
##프레소
잠입
##특구
랴오
적기
호주머니
도로변
뽑히
식약청
공예품
가느다란
폴로
##단다
전유물
LTV
포천시
##펜하겐
갇히
부어
썰렁
George
음대
고마웠
박살
##ORPG
방바닥
코펜하겐
휘파람
노부나가
따돌림
NFC
집집
단자
주전자
슬러
현감
타이탄
사나운
일변
위약금
Free
##콘서트
폭등
다이나
다이내
전지현
리나
문중
커넥
금메달리스트
룩셈부르크
키드
잇따랐
Hy
hom
천수
고명
북송
맞춘다
대흥
악법
주소지
사그라
주체사상
##변속기
바벨
허균
imp
다인
연주가
드라이빙
수액
필라테스
번들
넥스트
대자
조찬
우르르
원외
푸코
##치오
##망울
부질
호치
##만별
맥아더
Oxford
히사
희망퇴직
굶주림
천차만별
최고령
요구사항
##사의
야스쿠니
불러일으킬
백자
쌍방향
따졌
왕십리
어버이날
골대
꾸러미
어벤져스
가속도
토박이
프로토콜
결탁
함흥
한국개발
승상
리차드
칠판
국방위원회
프레스센터
통일성
벌거벗
##ka
상조
투자액
대혁명
정보국
두드러진다
논거
들키
##호우
보청기
억눌
재추
키프
험악
해로운
##메이트
후천
공매
리마
척척
순자
해장국
사칭
##마사
한국학
무참
산티아
판화
안이
번호판
Elect
이통
교신
망가지
WM
신다는
카톨릭
멸시
철거민
고열
공의회
부딪혔
졌으나
수족관
아전
##AAD
마롱
파수
형부
##기술센터
##제한구역
고쳤
헤어져
윈터
안다는
Del
기괴
깜찍
송곳
정봉
후사
단막
반란군
나아질
병조
토했
무방비
너지
버마
예단
정철
투혼
한낮
호찌
##주머니
궤적
일개
아녀
김제동
거림
오솔
부릴
앤드류
다빈
엘레
##나갈
함장
개발제한구역
사과문
골머리
정진석
탄다
할매
전자레인지
결투
덜컥
최일
아다
어긋난
물든
불붙
Dec
밤샘
##교차
금하
공장장
With
카세
##계리
로미
갈라져
두만강
상속인
제니퍼
가창력
즐긴
튀겨
튀니지
217
살아날
연출자
농업기술센터
북동부
이겨야
##큐어
기지국
도량
짓눌
한민
##edia
강영
##유업
##eae
프린스
기나
어의
##ㅌㅌ
몸뚱이
집중호우
이종걸
Psych
상아
유분
##이조
지민
향긋
가속기
흡연자
판가름
심연
##instagram
창조성
폭발물
빵빵
였었
유현
산티아고
목공
테드
##노버
##양이
풀밭
신칸
##른자
영재교육
자장면
살펴봐야
마르틴
##here
구로구
고의로
반말
위층
점장
홍역
가군
천변
모자이크
성조
작업자
트리트
##길이
따라갔
Pres
하동군
다신
자평
장주
유정복
막힐
##미술
시그마
KN
빠듯
수부
##네시
크리스틴
표준어
##진다면
로사
눈덩이
용해
칭다오
휴게실
##84
윤상현
한국개발연구원
가교
앨리
잔다
##룽지
##각각
우후
분립
박진영
China
Jos
글러브
막사
##aum
페퍼
##랑스
기혼
장상
전면전
영문학
현충원
천일염
이맘때
##장각
매끄러운
##가방
깨졌
쿠르드
PH
이치로
고아원
##조목
Bri
응우옌
안위
취사
구대
실학
##trol
홍어
3800
이주영
메소
물러섰
MT
##합성
특허청
APEC
Ser
STA
먹히
상역
dogstagram
추사
바이저
이병철
백종원
요강
장준
창덕
한길
조던
나락
묘비
du
역명
영해
알프레
각양각색
맞설
##87
현지인
May
층간
플롯
진두지휘
중심축
Asia
West
YS
임했
초판
토핑
국인
꿈꾼
한수
##섬유
담아낸
역삼동
불현
탈루
##irect
Peter
영결식
관능
##ope
과민
전편
우레
선승
안함
한낱
친밀감
엊그제
문방
공연히
오르막
교활
포니
나부
치달
Pat
준장
미지급
색소폰
##ocal
남양유업
나침
가중치
광주은행
길잡이
DI
숨길
##종합
##혜영
##ㅠㅠㅠㅠㅠㅠㅠㅠ
대견
누리집
토드
231
##itz
시시각각
영천시
무등산
오솔길
날아들
얽히
사이토
##타주
환경청
실권
어장
한답니다
김건
off
신파
한국식
방미
리모컨
크리스천
체인점
Group
부총
슬리퍼
수취
포메라
앞선다
##간다는
말다툼
낙찰가
짐짓
RT
순창
지피
타악
여명
거역
작심
대구대
THAAD
본교
헷갈리
Charles
##메이카
라벤
미츠
##러울
SG
애슐리
냉담
께선
수니
온정
전모
서킷
후각
315
쏟아부
Sun
잔고
단념
서유
노동청
해운대구
박성현
travel
마코
##셰비
써먹
언저리
요람
교보생명
닫히
직진
해리스
County
이케아
BA
닥칠
전야
흥덕
알아차렸
해밀턴
행주
동그란
ver
차창
청년회
MI
신안군
##탐정
State
##다이라
장석
호령
##예진
다거나
동서양
동북아시아
파커
걸터
델리
울상
영업소
##ple
합헌
심술
서스펜
##수소
에워싸
송두리
Great
##EX
개강
부국
쇼군
리거
박헌영
사무엘
Sl
물산
##부아르
저수
노정
창안
Big
##버둥
고용부
관서
고노
배신감
군국
폐위
번졌
그리곤
핍박
닭발
##개토
헤아려
길들이
부귀
이가
주현
##ano
로구나
잿빛
정공
족장
할래
복병
환대
순국
##ues
압박감
##iver
경의선
Institute
##rateg
과수
##돈나
따라갈
##ster
1882
광개토
순리
서청원
싫증
여소
인더스
조반
화학제품
출판물
종부
혼전
방호
징검
##ule
답습
금관
요크
달아난
227
반목
##랑드
식견
가톨릭교회
대상지
상징물
칠성
##리니스트
264
집권당
오로라
바이올리니스트
일광
참작
초식
재정난
번트
하인리히
로그인
청천
경포
부종
##eauty
별일
고쳐야
불가결
##ump
황금빛
범한
해골
##63
가르친다
시현
김유신
도가니
아닐지
최애
익살
북아프리카
다가섰
재단법인
자메이카
훈계
꼬리표
비상사태
미행
다이얼
기민
힘썼
골칫
휩쓸려
외동
풍산
Rock
통영시
과학관
언약
불감증
중의원
장한
윗사람
한남동
급식비
감산
대야
수복
초입
일석이조
조여
##용석
연합국
지산
애국가
휩싸여
바젤
알콜
##상조
##세계
동의서
1871
광양제철
얼떨
곡인
올리버
토론자
신비주의
남하
주몽
석연
애스타
##바야시
석부
실추
언론계
줄기차
##투아니아
코피
대구은행
항고
골몰
전현
한서
다를까
기름진
숙고
천시
##67
음악인
과속
린다
윤진
##스윙
부도덕
로빈슨
다간
직권상정
리원
컷오프
숙면
완비
페로
준비물
foodporn
둥둥
터스
덕성
산중
설상가
성행위
석류
방기
호족
하르
설상가상
MMORPG
손대
흥겨운
##자산
투표율
570
냉기
윤주
터빈
내색
퍼진
실력자
다각도
WTI
덕수궁
홈피
##좌왕
##스코트
서가
접한다
이뤄냈
강탈
위용
광고비
김종필
우왕좌왕
위니
는지라
특례법
경외
당락
떠다니
명암
퀘스트
리투아니아
코스트코
불현듯
##네즈
대전광역시
취재원
역전패
호이
발버둥
버텼
견적
발트
빅터
##등기
해부학
요괴
우사
생각난다
꼬막
흩어진
기나긴
고딕
송유
무겸
총탄
Association
클레어
reg
설파
트레이딩
면사무소
모바일게임
Technology
San
오행
마고
오거
##포도
지배했
예뻤
몰려오
RS
신칸센
훔쳤
ㆍ장
마더
얻어먹
이아
극치
##부르
홍성흔
코믹스
목련
스낵
제노
기를
낙양
생육
패하
##부산
##ading
##소설
어렴풋이
가토
가져온다
거름
유카
키운다
세도
생모
네온
먹구름
설악
스펜
동적
이븐
##ille
재빠르
감촉
한텐
정색
출금
이뤄낸
전해진
레인보우
##투합
등기부
외워
황룡
##에프
의기투합
평신
##enz
출연자
민혁
소영
지평선
택할
잠재우
NSC
장량
1883
영화상
오클랜드
##내린
매수인
소탕
손맛
팝콘
홍순
남이
편안히
검소
삼중
참나무
픽업
연금술
##체육회
죄의식
무허가
안시
바꿔서
내미
제르
##투어
##아키
미역국
소림
##port
레이다
Company
문안
틴트
명성황후
금과
현영
금값
아휴
역자
상트
롯데카드
원은
향신료
원거리
미룰
갑시다
서안
송중기
도호쿠
생방송
소산
생도
##ird
고된
##68
옐로
당산
자켓
파스칼
해안가
체장
증류
##61
빅스
##이치로
##축구협회
독백
시영
##vir
선덕여왕
얼큰
대니얼
망했
224
예지
##자니아
##거릴
sec
니키
선곡
동방신기
더샵
로테이션
##차별
이롭
##OM
휘말리
##ering
승합
복통
경계심
삼켜
체대
불쾌감
최규
510
니콜라스
루피
에볼라
파사
대한축구협회
##트라이트
##방아
합의서
##둘렀
타임즈
느릿
임마
바비큐
애당초
피폐
좋아해
도제
투지
호미
아씨
유임
##사위
다케다
걸레
아키라
달라져
봉제
빠져나간
추돌
홀몸
기독교인
양승태
찜질방
his
당귀
체고
미망
오물
##레드
Je
산실
##리니
에스티
초이스
최루
꾸렸
##장이
고사하고
EM
Ke
붙여서
계모
아재
떠나가
해조류
뒤돌아보
성안
세손
전환기
출범식
대조표
중서
상보
작아지
##캐롤
불합격
예종
집게
345
##저래
근황
샤인
전갈
조선조
저금
부주석
숨긴
낭송
will
존치
좌익수
조광조
고려사
이범호
요동치
역관
흉악
냐구
매니아
영생
전자기
의정서
시부
히스테
연설문
삐걱
instadaily
은상
stud
East
정두언
징검다리
##ena
붐비
회심
##omm
자일
어정
##선다
꽃밭
다움
막국수
상대국
아브
히타
##슬기
결의문
미끄러져
듀엣
서둘러야
심리전
##알라
##장어
안달
파라오
##파티
두텁
배불
송광
반바지
초전
##플랜
##조심
심포니
서린
형주
바르샤바
비엔나
무가
안내판
녹색당
교착
주안점
234
밀려났
하토
캠벨
은어
여행기
##스트럭
대서양
##캐롤라이나
부관
백남준
경솔
스톰
강지
##OW
저울질
##rown
경장
##러워서
굳어지
라디오스타
움직여야
둔치
홀대
의경
219
건너갔
나침반
⠀⠀⠀⠀⠀⠀⠀⠀⠀
마도
정훈
##장사
을지라도
##사이클
해충
보름달
##디푸스
253
오른팔
리우스
요게
기지개
지리학
배회
뱃길
회선
##62
포메라니안
DR
일렉트릭
##긍긍
오이디푸스
견인차
스파이더맨
도살
마수
##페테르부르크
##처치
크림치즈
전전긍긍
카미
파프리카
낙찰자
Bank
##들러
알아채
고혈압
Pub
노프
도치
옥수
복합체
경산시
들으니
탱고
##ecial
무정
출두
##ledge
상트페테르부르크
공소장
근소
UV
핸디
##장성
##티넨탈
혜안
304
배고픈
맛깔
일거리
이한구
고토
혜원
위구
##umb
##스테이
경찰대
안종범
약서
630
##appy
베드로
첫선
황자
간행물
논현동
순직
680
무임
실탄
끊긴
라울
##토모
인사이드
어려워질
노약
여래
정각
방부
을사
ㆍ상
##계선
운동량
뒤로
지방채
클러치
앉혀
지켜온
좋아할
Aut
TR
어유
나빴
남상
##거려
스트레이트
경험담
격언
노여
포브스
데뷔작
##ype
대타협
##oot
운전대
담근
모듬
인디애나
쏠렸
짭짤
추심
OCI
Princ
알로에
##FL
포문
전기동
전초
판권
부차
귓가
통솔
안녕히
홍정
##기획
가라앉히
혼재
다구요
승부처
런닝맨
굴지
처단
백승
숙식
##ari
UR
민낯
송수
신고자
밀림
호명
뒷부분
독살
재작
샤브
소방본부
뛰어올랐
val
##얼빈
랜덤
냐면은
##연수
와이즈
능통
##쿼터스
##action
에덴
기부자
푸조
티코
추천서
Organ
천태
친히
성운
오답
폐광
Inst
라이브러리
조나단
CV
순익
##치료
눈치채
북면
##인수
##지긋
권성
야겠다
학습지
태양열
찌푸렸
조목조목
퓨어
근방
루카스
헬레
홍합
경운
뛴다
필적
##물살
지긋지긋
오스틴
사포
알펜
재청
들여오
일용직
급물살
축협
크나
Open
야크
아흐
겸한
산기
독설
유비쿼터스
모기업
변두리
자료집
배영
생크림
솔솔
##64
진단서
반야
하지
##워프
빗방울
##게스
만만찮
발렌타인
김나
알아본
차려입
OO
고동
도이
틀어막
꿈속
mark
배트맨
ㆍ현
종금
##내티
마지못해
수산업
두꺼비
어플
영접
내비치
##에너지
디엠
일격
증감
격자
공성
수포
본업
척박
알칼리
효모
라바
마우
유어
드롭
어질
기특
단역
손쉬
알카
빛내
연거
금광
빙긋
끌어올려
털썩
후루
고분군
아구
사오
성교
295
눈여겨볼
팔라
##어가
243
김흥
편집국장
발주자
수강료
뚫려
미토
##아프리카
단전
수속
걸터앉
갈랐
감춘
세출
##감사
의장단
가려움
9900
번가
마호
Church
##ows
다방면
부총재
좌장
하얼빈
부단히
전사자
아카이
아미타
##평리
애벌레
피운
##OA
건조기
거문고
나쁠
노른자
축구팀
수석대표
기름기
이창호
살며시
역효과
흘러들
스탬
야영
헬싱
##쿠젠
알바니아
어긴
관리원
Rem
가우
막연히
벼르
##컬레이터
##tice
최문순
북조선
##은경
조바심
백상
타르트
신시내티
노마
파스텔
현진
휴머니즘
일단락
##스트리
문관
민가
알람
샐러리맨
PI
호구
황새
원반
유나
윤창
아부지
Kn
예물
ARS
식음료
에스컬레이터
임진강
늘어진
오갈
특질
선단
위도
구한다
아태
취합
##aint
큰손
프라이드
예배당
북아일랜드
교무
을래
##달라
사진가
찾아와서
손아귀
배변
월마트
life
싸여
베가
프로테
갖은
기른
터너
되새겨
제퍼슨
대한체육회
나주시
달마
혹자
뒷날
수갑
부교
불응
특종
부사관
파노라마
염분
전영
Hall
HIV
살인자
지냈으며
수렵
해서라도
불러야
군량
육사
쿠팡
##도그
KI
MR
흐린
성인병
노심
돌린다
매트릭스
WP
왕릉
잘라서
기통
##ysis
라비
초계
##음사
##atus
고기압
채워져
든다는
##소싱
여섯째
메기
##ha
First
문지르
출몰
에어부산
손꼽힌다
갈기
확성기
격분
와사
부다
레인지
문병
붙인다
미대
어플리케이션
롯데제과
흘러내렸
##스름
경락
Project
미포
허상
1850
뛰어드
왔으니
뽀로로
칼럼니스트
감출
아웅
졸업장
##TER
##ling
김진태
스텔라
레베
해준
##에서
대출자
당구
던스
뒷바라지
따끔
이상득
최고가
섀도우
##츠하이머
민음사
##샤브
크나큰
개학
섭렵
김하늘
달서
##비엔
##박자
드라마틱
##버릇
아이리스
##문학
파이브
아웃소싱
오트
팻말
375
제제
레이첼
집어들
나카무라
김옥균
개축
부감
측정기
조지프
들썩이
지랄
FRB
알츠하이머
탕평
##티어
House
헛소리
십일
어사
나무라
유별
떠내려
진과
스기
심의위
고음
꼬이
die
당규
진취
##에이고
대방
불똥
꼭두
젖소
친문
상무부
플래카드
스팅
겐지
자욱
옵티머스
독학
이베이
장시
샌디에이고
##티움
ㆍ경제
최희섭
니즘
멱살
비야
햄릿
Bi
내레이션
노릴
목상
돌아볼
##스타인
경총
Inv
이뤄지기
저걸
독차
서툰
좌절감
로고스
폐회
동그라
##och
유엔군
놀림
켤레
메이플
UCC
환멸
행복감
무정부
미각
적료
##우뚱
##혜원
약학
##ison
##사건
자아낸다
직제
사무직
##스코리아
##상각
BIS
고여
타오
244
LCC
하객
ㆍ주
허황
심해졌
백합
과식
##페스트
구조주의
라고도
장동건
##공산당
여비
고시원
준위
콜라보레이션
리히
맹주
물레
##CI
##다녀
한단다
방풍
영속
오현
김이
라시
##출혈
둘러본
파헤쳐
팟캐스트
수리비
총감독
239
덕담
##모더니즘
지성사
파고드
탄원서
America
Lab
단호히
향서
##타페
##혈관
조중동
앙금
출점
업장
패티
##other
##탄올
경내
교보문고
##저만
센카쿠
½
á
ī
˘
Δ
€
ㅃ
ㅕ
㉰
俱
倒
勸
匡
卞
含
墳
壓
宅
宴
弔
慮
探
擬
攝
斥
旌
洗
淡
測
漏
漸
爵
突
築
腦
衰
覆
諦
豈
貿
賈
蹟
軌
酸
針
隋
髮
긿
뀨
낟
뉠
뙇
룀
뵤
빰
삘
졔
죗
짹
쫘
퉜
留
＄
🍃
👻
🙇
##ㅕ
##ī
##🙇
##ㅃ
##á
##긿
##빰
##뀨
##🍃
##죗
##👻
##˘
##졔
##쫘
##짹
##뵤
##Δ
##삘
##낟
##€
##룀
##뙇
##㉰
##＄
##½
##뉠
##퉜
##와대
##케팅
벌어
##규직
##머지
##물관
##CD
##드러
##리드
##이브
낙동
##미널
##페라
##이익
##TX
하이브
##평양
어우러
한마
##티즌
##끄러
OE
부드러
##요타
Io
##차이즈
##수산
두드러
터뜨
##세서
레스토
##겨레
##러스터
##여금
##헨티나
##겨진
컬렉
##SA
사들
##드럽
##인드
##탄소
##리포니아
##지노
유네
##끄럽
##시경
##엔날레
유나이
##릿수
##년층
##코올
##세서리
마드
아시아나
##이자
넘나
##DB
부끄러
##두환
##란시스코
##격수
우크
##LPGA
##중근
아이스크
##익수
어시
##민호
발돋
##포터
급기
떨어뜨
DG
##반대
떠넘
##카르
남중
멜로
##마블
##줌마
##미리트
쿠데
##이지리아
##통화
##디언
##틸리케
##레스타인
##워진
##가동
드나
임산
레시
미끄러
##워야
##시민
##어티
무슬
##명숙
##테롤
##태용
##치소
##nt
##공서
##방향
NI
사회봉
##워졌
##서울
##국해
Wor
##자부
인피니
##운트
##트륨
##그인
##학년
##덕이
##년단
##조명
##pm
##탄소년단
##어드
##재현
퍼블
내야
##글스
##69
##52
##56
##39
##희경
##51
자카르
##주석
##도시
##세훈
##현정
##중일
##58
##현수
##57
포레
##성동
##54
왕세
##53
기념사
대한상의
##끄러운
뜯어
DV
최시
박석민
##덕여
##나연
올레드
TEST
이뤄지면
FOMC
코웨이
##스트럭처
우대금리
##로라
마쳐
아웃렛
인프라스트럭처
##59
세난
##도나
녹십자
재추진
연매
EPL
알펜시아
허정무
패셔
체인지업
최나연
보온성
낙폭
김효주
코스모
정부안
##RP
류중일
벌크선
행자부
##신라
##비엔날레
금호산업
광주비엔날레
MWC
박희태
맞불
4800
한화건설
김보경
근린공원
9500
##노위
온누리
증강현실
유소연
마스터플랜
니퍼트
호텔신라
메세
줄인다
##렌트
김경문
롯데케미칼
##내믹
다이내믹
몰아붙
출연금
체납자
##추위
##국제
##승원
조광래
돼온
##러니
향응
출하량
가스공사
키움증권
이용규
통신업
경남기업
##EZ
늘린다
##관절
줄다리
싼타페
골재
##종일관
차로
롬니
황재균
상장지수
손아섭
김연경
##컷뉴스
노컷뉴스
빅리그
##행선
QM
김태희
##만장
배당주
전병헌
가로챈
SPA
3400
##당선
광역자치단체
주정차
리먼
차두리
정근우
방폐
권영진
순환도로
야구팬
고속화
이용섭
##해진
우상호
장학사
로밍
토건
한국가스
신라호텔
골잡이
한화케미칼
치러질
무안타
전월세
##체육진흥
하토야마
안전교육
대리운전
한가위
원희룡
하승진
걸으면
양용은
국민체육진흥
체육공원
BIFF
외파
MMOR
회장단
브릭스
설욕
지방비
미뤘
평택항
신분당선
변별력
전석
외식업
시험대
JYP
동두천시
저층
강남스타일
##토니
##전입
항공권
식재
쌀값
구슬땀
위장전입
냉연
사인회
피서객
완파
우완
봉중근
자위권
aT
탑승객
청신호
로비스
차우찬
전세가
편백
디폴트
경남대
중론
관람료
정례회
##방망이
Tech
김병현
대축제
소공동
단열
##소닉
3700
재조사
##냉키
어획량
고난도
공심
한국가스공사
버냉키
엘시티
나선다는
##기록
샤오미
한국야구
한국야구위원회
담아냈
CSR
UFC
##일답
하지원
일문일답
투싼
엑스코
중처
경기도지사
이호준
경주마
MICE
윗선
최철
치러진다
철강재
티아라
해맞이
변화구
CSI
만도
애로
소형주
내홍
읽힌다
배상문
매회
티볼
##아산
워커힐
OPEC
절전
작목
임신부
체포영장
적조
파나소닉
감정평가
상수원
탈핵
김황
재계약
##슬레이
무디스
셰일가스
채납
김동연
증거인
박주선
##EP
사르코지
구위
쏘울
어종
##시네마
4200
와일드카드
철도망
##손실
축산업
중형차
봅슬레이
##카페
조양호
바우처
정우택
노스페이스
2023
##업체
하정우
물거
전통주
이광재
롯데시네마
안정세
##스피
##사이어티
##운하
IPA
금남
감정가
갈렸
복원사업
입비
어학원
광주시장
소사이어티
##각층
해양경찰
각계각층
이승우
기초자치단체
수매
양동근
김황식
고속철도
서장훈
정홍
향우
마크롱
족부
출정식
도시민
알카에다
교총
맛봤
기프트
QR
건보
판매액
##둥성
황선
과밀
토털
끌어올린
수비진
민변
연구개발
IFRS
테크윈
인천공항공사
##쇼핑
철탑
운반선
덜미
재선거
박종훈
스트라이프
박세리
양일
국민체육진흥공단
##장고
##스토리
지적도
지열
비비드
생산직
##아차
##총재
기출문제
내줘
송혜
##감정원
배출권
국방위
한국감정원
원유철
상암동
##PN
##대포
건축사
##엔지니어
SKC
재배치
병살
기본기
##엔지니어링
지방대
예금자
중앙선관위
##라이어티
##태현
##니카
##무대
필러
##IB
강모
##오피스
ING
롯데칠성
CNS
담뱃값
##라이언스
##어져야
##드려
판매장
올라선
2900
캐머
샤이니
발사대
도핑
폭침
격전지
일침
밀양시
주호영
극소
4600
빚어졌
##카운트
스완지
이자이
윤성환
구리시
장원준
미납
정병국
교수진
개그콘서트
BSI
유찰
호찌민
순손실
문경시
박범
벌여왔
박삼
##현주
샌더스
이종범
거포
음악제
지드래곤
골프클럽
송은
총무원
정형외과
울진군
아사다
입출금
늑장
인증서
김충
휠라
신일
포워드
영종도
명예퇴직
영동고속도로
##연시
무난히
이해도
감찰관
##창민
노약자
폴리에
송혜교
공효진
베이비붐
모빌리티
##키오
숨져
콘서트홀
갖춰진
한마음
##보험공사
연말연시
레버쿠젠
임태희
건당
김영환
머스크
허재
4400
캐머런
체급
건의안
바자회
유례없
뇌혈관
KR
양재동
프라이머리
커쇼
4300
##세종
재범
##냉장고
문화전
퍼터
배급사
나지완
신세계그룹
쌍꺼풀
태안군
실력파
##용준
##메이드
760
전반전
장원삼
자유투
혁신안
업인
가금
특별회계
계양구
서울광장
외지인
결승선
부동산업
김기현
삼성엔지니어링
정론
KTB
지명자
EG
박스오피스
열대야
보상비
되레
##뱃길
봄꽃
양준혁
##결제
난조
##원식
직업훈련
##경부
감원
아라뱃길
에쿠스
감사원장
본격화
남향
박정환
구급대
회원권
비씨카드
배기량
산업재
브렌트
1588
삼화
대덕구
뚝심
윤장
레이디스
국행
일교차
국조
스포츠동아
이뤄지도록
배영수
HSBC
박명수
종량
##읽기
##얏트
하얏트
아동학
김치냉장고
##월동
리얼미터
이용대
목포시
이승철
고흥군
진원지
전성시대
노홍철
##인권
내실화
연가
자동변속기
예술제
월별
트렌치
스노보드
발찌
청과
소방방
##천연
##연금
시급히
가을철
신학기
공금
원양
김현중
단통
김상조
이스코
다롄
분원
컵스
상용차
연다고
착용감
이정수
이종석
알파인
780
산학연
조망권
서프라이즈
유커
이병규
폐막식
유조선
9800
퓨처스
광산업
문화제
032
냉난방
##경정
##노선
기암
##national
490
다수당
보통주
051
인형극
틸러
##보도
미야자
남강
횡성
대백
빌트
원미
의창
정우성
가단
이택
##화원
전략산업
연천군
급식소
송재
개선책
박남
동대구
스포티지
│→
Smart
##레탄
원더걸스
강운
배기가스
스포트라이트
최은
##시경제
##렌토
김혜수
마산합
엇갈린다
센서스
임동
##vel
거시경제
이재민
##임즈
영회
특설
피폭
지명타자
여심
페인팅
인천국제
련관
유권
공영주
안무가
승무
건축비
주채
##애애
스키니
사물놀이
이용해
최시중
화기애애
실거
점자
테임즈
시프트
오창
##EV
민원실
980
재고량
나스닥
고검
##타인데이
태릉
병무청
##제약
추가경정
추가경정예산
뒷심
고현정
유명무실
뮤지엄
진학률
난개발
##덜랜드
김관진
ㆍ기아차
김기태
소지섭
약체
드리블
##왕산
유흥업소
##덕여왕
할인율
포르쉐
올레길
MRO
장근
병변
시보
김종훈
그친다
체납액
감점
리더스
mL
신라면
송창
기염
제막
한동
티볼리
620
미공개
NIE
명량
바이오산업
품평
대항전
##은혜
미소금융
안성시
이스타
선충
모인다
소기업
이철우
기록원
##CN
아쉬워했
부서장
산유국
승합차
시티투어
##미화원
##픽스
피케
상담소
강사진
최단
환경미화원
상무위원
##스피어
오연
모터스포츠
여군
삼척시
둘러볼
간탄
인데다
한국전력공사
야시장
부산진구
인천국제공항공사
이군
검정고시
문태
##공간
월미
공공요금
##이브로
옴니
나성범
##혜선
670
재수사
금천구
##노조
마침표
네이마르
수입액
와이브로
남한강
준법
고소장
김동철
##음식
관계사
##커버그
iOS
표하
창녕군
출루율
불거질
집행정지
다녀갔
의석수
레드카
중환자실
김정훈
타미
유니클로
경인일보
상암
BW
추문
생활고
수여식
네이비
브라운관
예총
라식
상납
창동
김재원
기가
권순
##통행
렛츠
부동층
라돈
역차별
보육원
한중일
농공
답보
이영표
스와프
EA
세무사
교학사
자생력
쏘렌토
##구동
침체기
##우먼
강창
##NE
전달식
ppm
미네르바
기폭
임차료
##난데스
강동원
관로
위령
구력
이름값
5200
은퇴자
실익
김장훈
김세영
박영수
매립장
ㆍ중ㆍ고
내고
엠블
한약재
넘친다
제구
숭실대
지스타
##차도
주거비
섣부
윤병
불모지
수작업
첨복
##DM
하수관
총책
##서비스
불출석
BNP
겨루기
운사
신용보증기금
제일은행
목도
관광버스
ETRI
프라이데이
보톡스
##천연가스
5600
리커
사익
간호학
브러더스
농축산물
스틸러스
예금보험공사
조원진
Wi
##천후
이종욱
홀인
안배
성주군
경인고속도로
방배
아성
구조대
에틸렌
740
맏형
지멘스
##승용
피소
##예우
세원
한옥마을
대립각
##수술
소매업
고엽
예방법
ESPN
전관예우
버버리
존폐
오간
둘러봤
연구관
수두룩
꾸며진다
씨스타
취임사
북카페
올겨울
응급처치
구본무
##원동
730
선덜랜드
IFA
초구
김의
UI
##춘선
홈런왕
얼라이언스
##자드
야대
예대
쏟아진
명문화
상하수도
수준급
초읽기
결식
김현정
수처
##수영
정부서울
정부서울청사
##고장
회도
남달
페라리
##미남
윤증
훈풍
찌꺼
피란
내몰리
대비책
인력난
뼈아픈
조정안
##상도
종목별
장근석
넓힐
방카
직항
모노레일
꿈꿨
여제
휴식기
1577
평창군
##이행
청호
원탁
페더러
박신혜
밝혀왔
보합세
박준영
꽃미남
KIST
무소속
기말고사
독대
천적
##VO
소장품
투표용지
장직
령도
QPR
재수생
부탄
제일기획
응방
##SS
박용택
전용도로
양회
삼송
송은범
기싸움
무급
송강호
초속
난타
민설
맹점
동양증권
진종
##에이징
메운
##캠핑
금정구
안티에이징
대자보
문화축제
윤종신
올랑드
##끄럼
299
임씨
중장비
장자연
울먹
물밑
셰어
발인
김승연
흐트러
변협
ISD
준중
4700
승차감
산화물
거듭났
과기
##례문
김승현
구속영장
앞장선
뇌출혈
윤장현
화주
국민연금
합심
밸런
CGT
행량
##전환
웰컴
직군
타순
농법
우전
컬처
##작년
기립
뇌물죄
초임
검경
아베노
방음
좌회전
강운태
대첩
특활
황정음
인멸
소각장
##덕동
골망
##캠프
880
심재철
회신
6800
장려상
JYJ
WA
일평균
대유
오토캠핑
실격
엿보인다
테크노폴리스
시티즌
한빛
이상훈
김지석
무주택자
염기훈
전소
송편
영도구
미티
열창
옛길
견조
형강
시장법
고학년
##EF
의료인
쌍용건설
달한
데얀
##혜정
조범
인천대교
이재현
김주찬
정준양
국과수
농업용수
현대아산
풀코스
FPS
패해
종량제
예비비
비상시
VI
왜관
고기능
##아리움
송승준
선보인다고
국론
재투자
##넥스
풋풋
프리우스
항공업
990
아쿠아리움
##죽순
자금력
아낄
박삼구
우후죽순
HU
나프
셀틱
연회비
계측
산악인
광역버스
시음
정책금융
속공
##야구장
복강
동양그룹
스탠다드
우원식
대전일보
달째
##인즈
웨이퍼
안치홍
288
KEP
리전
##기준
대운하
철쭉
연령층
배점
기관사
레인저스
에인
농산
크리스털
영제
차승원
유전체
늦출
옐로우
##연휴
레더
중간고사
신동엽
요식
안타까워했
담판
신격호
디플레이션
손석희
스티어링
##대표제
립도
OEM
비겼
김국
잠적
노동법
나가수
건축학
기대주
조윤선
로페즈
##노현
됐으니
##식당
성형수술
불기소
참가국
인사이트
황금연휴
농원
가린다
누진제
의료법
##사체
점치
확인서
고준
티몬
전용기
SSD
정홍원
##커즈
##데없
전청
##치락
이코노미
덮친
노랫말
물대포
보증서
송호
이민정
울릉군
##천사
뒤처지
스펙트
초년생
최양
김상수
KP
다도
힘쓸
##시대회
송년회
극지
공산품
LME
##더위
2040
서문시장
몰지
국가인권
개당
찾아간다
온난화
틈새시장
경시대회
마티스
맞받
주액
결정력
발품
부심
쏠려
##세프
태백산
경춘선
코픽스
8800
내리막길
윤활유
장혁
주미
수술비
쏟아진다
이스타항공
##도장
노후화
##시위
탑승자
불러온
김경태
문희상
##자동차
당명
비례대표제
아이언맨
노승
삼정
숭례문
정회
임원진
성빈
MK
우롱
원목
이정미
사유지
권상
##시공
총점
860
##고속철도
부산일보
501
스포츠센터
SAT
##코스터
경부선
롤러코스터
산수유
몰카
겸용
이어질지
##기현
마산합포구
960
비산
평균치
홍영표
입학생
한일
배차
영흥
호봉
숙박업소
##오위
이사국
윤증현
시운전
CFO
잡티
부정행위
bp
이충
3900
##미오
이용한
세계무역
##로템
는다며
에인절
현대로템
저커버그
한예
성범죄자
##잔디
##존스
자부담
제전
##reat
##홈쇼핑
##탄두
노다
솜방망이
들여와
진정서
지킴이
떡국
터뜨려
퇴거
없앴
김종민
##보험공단
##해전
함안군
안행
곤두박질
POS
박진감
미니스
어려워진
공분
건강보험공단
선결
333
고척
노안
퀀텀
삼공사
종과
도레이
김아
고성장
난청
##대병원
입도
공유제
우면
침출
비뇨
사하구
기폭제
##도현
노경
망언
액상
하이텍
상륙작전
내곡동
DMC
탐방객
회당
##구식
252
수욕장
엇박자
##운영
영주시
컴투스
특채
6600
스니커즈
극장가
부머
자투리
김범일
까칠
환급금
심대
퇴비
꿈꾼다
3100
840
바닷속
안전시설
거래제
대공원
동래구
양의지
매장량
맹비
우천
초동
높인다는
회견장
소장파
민속놀이
임종석
박유천
강기갑
러프
연륙
영업자
폐회식
이재성
대항마
난임
##토니오
삭발
실소
신해철
현대홈쇼핑
서민층
최적지
미취
관위
민의
의성군
가를
불협
스킨십
BRT
박홍
암반
온열
온스
하이힐
070
핵탄두
쿨링
폐차
ISU
곤지
KPGA
변전
조선호텔
포장재
포르테
##NI
5800
마필
강진군
416
곽노현
심해질
bnt
김사
상고심
하이패스
자궁경부
차일
##착증
##이탈
최창
정족
주승용
나빠졌
협착증
하림
관방
관광업
##보트
당찬
유턴
다단
의정비
내국인
종위
##갤럽
5300
크레디
##동욱
해왔으며
문산
로봇산업
연료비
지급액
이만수
##화음
양육비
쇠락
손승
이재정
##전화
##터민
선재
조민
##바이크
황정민
향대
비하인드
논설위원
정치력
송전선
후송
이상호
안진
##자위
보료
이승현
일변도
##어난다
리오넬
인권법
혼합형
창작자
새터민
##사원
시기상조
##현희
610
성탄절
IH
선취점
나쁨
관광호텔
생태관광
특판
불협화음
PT
NCS
염전
설경
스즈
펴내
가스전
한국갤럽
외국산
풀어냈
문대
타블로
유니세프
박서
일고
770
범퍼
지론
##주민
대행업체
추모식
번질
주걱
농악
뒷돈
극단주의
KEPCO
##충우
272
크리에이터
김동현
고엽제
##컨트리
##충우돌
좌충우돌
273
LF
권오준
BBQ
연제구
SMS
액화천연가스
옐런
산별
학습장
오심
경제난
들여온
에스프레소
대통
특근
티파니
맹비난
위문
삼청동
간척
등록세
김명수
미칠지
시스루
AW
크로스컨트리
김인식
##대책
위로금
공문서
문태종
water
IAE
스프린
피난처
안창
830
이상일
응찰
유희관
AIIB
슬라이딩
바통
이운
308
Mbps
성고
어린이재단
법제처
다우존스
다나
불패
##켈레
김정우
행시
빌트인
진종오
불경기
엄벌
경기일보
229
사투
방조제
인비
포메이션
세전
거북선
캠리
5400
전원주택
침출수
빌릴
##웨이항공
선처
힘겨
254
선택제
착시
우포
항모
교통카드
055
자구책
티웨이항공
의창구
식비
홍종
4900
노영
결정지
080
590
##기부전
오작
프라이스
개악
타이트
발기부전
윤아
##가기
희소성
김환
코디네이터
프레시
소래
서산시
향식
기자실
내항
대어
정의선
JB
모디
좌전
불미
옥죄
사직서
산나물
강력범
붙박이
동문회
상존
섹터
##분계선
김진우
예천군
진땀
여성복
군사분계선
출액
선택지
사상구
윤모
동승
싸이월드
횡단보도
감췄
들러리
##LR
발전사
중심가
어지럼
##검사
##복지공단
미켈슨
총학
##NO
##봉산
중앙동
발전시설
마지노선
증편
##슬론
연착륙
##비오
이어가기
사이판
꼽혀
신용도
##타늄
고지혈증
남해군
웰스
조코비치
##프로그램
홍문종
곤욕
어린이날
근로복지공단
정대현
분당구
생색
##esign
마임
부메
임수
이경규
혹한
##동맥
710
빅딜
허가제
다빈치
원액
제쳤
휘둘리
TDI
박혜
역주행
괴한
##book
전출
820
건의문
단오
탕감
플렉
최적화
해빙
##궐기
##델라
이상화
오르내
VA
##스크린
개그우먼
로드리게스
비발
총궐기
함유량
고해상도
UBS
원자바오
개인택시
동아제약
ㆍ박
올림피아드
컨티넨탈
해트
268
강기정
광양항
신동주
##글러브
뽑아냈
골든글러브
장미란
안정환
##르트문트
덤핑
거머쥔
교통안전공단
덕양
생중
충장
##크스부르크
가덕도
내연
도르트문트
일밤
수묵
##덕수
부메랑
김지영
단둥
##경식
스플릿
##경사
##교섭
조력자
JW
임도
코퍼레이션
탈락자
FP
##전동
소매점
062
##태인
살려야
이원화
호조세
칭한
김동주
윤형
조리법
했으면
사별
급체
HE
동신
중고생
맞잡
정족수
1544
영호남
##ND
청도군
공동선
SOS
물망
급등세
접안
##옵션
예정일
군무
미끄럼
상견
적설
##명령
아우크스부르크
환송
##DD
공신력
수생
종근
린드
펼쳐왔
연찬
장호
젠틀
따돌렸
ㆍ합
아워
MSCI
호암
대물림
플러그인
연평해전
점쳐진다
씨도
약대
##딜락
연타
##오위다오
242
산천어
고주파
정개
당적
밥솥
템플스테이
댜오위다오
캐딜락
휴대전화
난소
가치주
재처리
키코
나프타
격앙
##넌트
개인기
오염원
7800
병살타
전준
##골프
풀어낸
팽팽히
쿼드
볼멘
유일호
추도식
##사업본부
유원
한밭
##무가
그만뒀
상견례
본고장
김성환
유감없이
##바라크
급매
촉박
착공식
양학
##보합
체육계
활약상
486
박효
박윤
장바구니
박재완
사통
무바라크
다이나믹
김남주
재작년
파킨슨
##오버
가감
김태원
KF
차범
군산시
군락
##호스
브러시
##데오
분진
도로망
서밋
폄훼
##은사
페어웨이
발병률
장하나
IAEA
상명
덩크
690
기내식
갑상선암
벌점
오상
##철호
방문단
##진청
이지스
관급
활황
지병
##컨드
슬로프
##런티
우정사업본부
비발디
불이행
여교사
##저축은행
앙겔
원샷
284
카디건
세모
앞산
중과
포미
총영사
소방대원
NCC
샤프트
불어났
미뤄졌
환차
빨라질
고득점
죄질
득점력
##켈레톤
나달
세끼
서부산
인버터
코너킥
반포동
동률
한센
친필
미룬
보성군
선미
##지배
화물선
시달려
허경
##학력
유치원생
환노위
ㆍ하
바레인
##작가
홀리데이
청구서
바스프
유연탄
손쉬운
목마
전세기
중개업자
대피소
복강경
천고
공격진
사망률
살아났
공주시
재개발
김병준
동북부
권성동
막무가
이재만
형사부
물러날
더딘
저학년
조범현
띄웠
고지서
세컨드
##루프
##조정
합작사
강승
합금
혼탁
스켈레톤
한혜진
홍성군
디젤차
여상
환태평양
##의료
올랐으며
식장
##속구
조한
사단법인
HM
강속구
교각
친서
화환
임종룡
걷어붙
##티콘
##종합학교
거친다
실업팀
##예술종합학교
##서도
286
수그러
입회
진해구
헤인즈
나선다고
거래세
한국예술종합학교
어지럼증
도드라
6700
상지대
##자랑
##닷컴
출판계
김동욱
분당선
뺑소니
세계무역기구
김복
대통령상
도이치
##위생
##궐선거
합격률
어젠
이영애
히터
섣부른
249
##성어
랴오닝
토플
감사패
강용석
할랄
나타났으며
척추관
강북구
티브로드
저유
경제인
총무원장
뇌관
##현준
한국자산
매제
##로웠
국민주
압구정동
개보
보미
송유관
입영
NX
신바람
지린
한선
##애슬론
숙박업
리퍼블릭
다단계
편취
최광
엄태
강행군
김범수
강원도지사
너리
배용준
정개특위
나진
농정
모회사
분란
꾸며진
##세종청사
nc
ㆍ구
연구사
레일바이크
임모
꽃가루
명화
습자
치주
동부그룹
청원군
임할
정부세종청사
개관식
맥심
앞질렀
306
지참
지하상가
ㆍ안
257
무리수
결격
790
##결합
충치
그래핀
예산군
ㆍ경북
777
함양군
봉송
##피자
채동욱
##캐시
북새
북촌
제련
남성복
조문객
코스타리카
박건
원동
##의학
의장국
홀인원
슬립
피니언
##앤캐시
TI
종근당
VC
##창훈
##램프
연극인
트레일러
조현아
스텔스
눈꽃
뭉쳤
NF
본류
##점검
##승차
트렌치코트
302
러시앤캐시
248
문태영
형형
에인절스
##ication
게이머
급자
심석희
국민운동
쇼트프로그램
아낌없
디너
손예진
오열
아킬레스
클락
##대회
이준기
고철
ㆍ경
##박물관
명복
GMO
어드밴
6300
제막식
외유
앙겔라
층수
하마스
지방행정
주량
##토류
##앓이
크리스티아
재활용품
김태영
장고
투석
희토류
산국
일방통행
요율
주꾸미
##레이즈
수채
모아진다
페트병
레프트
향배
귀감
JC
원폭
MMF
굴착기
강제성
동우
바코드
탁상
등록제
맛본
##충전
중랑구
보양
신입생
빌렸
스팟
6400
속사
수하물
리커창
355
학부모회
어촌계
276
녹취
원광
안동시
푸어
옮겨져
최상급
소아암
##REA
살아난
강추위
소임
수의사
도곡동
7200
따오
철책
빼곡히
만안
송기
정남
해사
방파제
추려
##내장
내원
밑도
시어터
서재응
판타스틱
동절기
##예과
허창수
5700
양학선
##짓기
247
##바토
안내서
##할린
프로젝터
프라다
야생화
컨트리클럽
반송
골든벨
산청군
ODA
##pr
양은
수영구
백년
비일비
비일비재
대기록
회항
6200
권영세
마구잡이
SB
닛케이
2024
##확산
자타
잔량
##쿼리
정소
쪽방
연거푸
870
셧다운
유제품
북새통
이시아
장쑤
정성훈
비욘
##보스토크
##스트림
267
필로폰
241
이중섭
김하
무근
밀어주
블라디보스토크
에디터
PVC
의예과
렉스턴
묘목
투수진
부닥
처할
##필름
##통장
##조리원
대곡
농진청
##arket
멀티플렉스
판매가
마중물
폐선
7600
눈썰
선수상
백지영
##du
고민거리
방만
DSLR
깐깐
꿈꿔
미적
##비통
##참모
동물보호
고육
덕아웃
재충전
김정태
휩싸이
플로리다주
집배
CK
범야
김영주
정조준
전시물
운정
핫라인
김희선
꾸밀
벨로
박영준
흉부
내비친
앞장설
ABS
호남선
산후조리원
최준석
전횡
##갯속
변속
허심
서건
피아트
DW
STE
기획부
풀백
##루이스
##문서
김진수
휴가지
레임
비뇨기
포레스트
레임덕
강일
기항
퍼블리
JA
신세경
저류
자축
237
헤리티
낙농
임병
##투표
화장장
가려내
박탈감
호스피스
예식장
마운틴
속칭
준동
메트
DSR
ACL
전력망
금호강
해수면
양양군
전공노
공갈
전업주부
황창
구설수
과당
내한
헤리티지
##가격
##동네
금할
꾸린
리시브
루이비통
유행어
김성주
매설
밑바탕
광명역
다크호스
##셰어링
쟁탈전
자인
근무지
김영우
소개팅
성산구
##라니
마산회원
정선군
난치성
274
야영장
두산건설
연륙교
안갯속
지탄
밸런타인데이
최고액
농림부
김선우
반딧
소청
터닝
도봉구
자궁경부암
김태우
277
꾸며졌
810
걸음마
방위비
빼돌려
박보영
용선료
유언비어
명산
프러
나군
정겨운
동의보감
이인제
해치백
매티스
미스코리아
식상
원불교
카본
HR
광풍
인라인
266
올림푸스
일정액
##폭력배
##일대
차태현
저속
위너
잘사
협진
조직폭력배
원당
스테디
251
텐센트
경축사
나아졌
거창군
페놀
##부동산
절충안
마을버스
매일신문
면허증
장타율
녹아들
품관
5900
마산시
##주현
##버른
박완수
신선도
트랙터
유희열
관현악단
재소
김형오
내줄
조성민
da
알린다
내부자
동중
사할린
##버님
269
동과
삼천리
격려금
바지락
빈발
첼리스트
혈투
수종
카셰어링
관심거리
서스펜션
울주
스탬프
마스코트
장성군
##슈퍼
까르
스테디셀러
무브
심이
##규칙
이정재
Manag
BP
##리크스
평가서
생활관
범용
##베네
##색색
접착제
변전소
형형색색
제습기
임채
보여줘
747
교협
김민석
락지
멜버른
애물
이승호
방전
요구서
곤지암
에브리
##지훈
##연장
재료비
맞대응
남재
항노
담수화
258
물류비
분발
안긴
920
양수산
자연산
PMI
누그러
유지비
황석
곁들인
맥쿼리
##리얼
일궈낸
보시라이
적응력
족구
레이어드
두류
쇼팽
##상욱
브람
안타까웠
휩쓴
화천군
##MG
##도나도
이동한
조리사
기축
##핑크
노무라
김시진
##클라
남지
##포즈
##봉투
TA
충주시
넘겨졌
매연
송인
율동
##솥밥
고위층
크리스티아누
만반
한솥밥
이시영
곱씹
군내
법질서
국격
신모
BBK
경조사
지휘부
들어간다고
##데스크
시험지
분전
터치스크린
전극
스타일리스트
자격정지
크레디트
서희경
쿠쿠
271
관치
현업
278
##코웨이
##블루
스트링
봉화군
##렛대
충무공
승용
에볼루션
연찬회
노천
메웠
김현미
다녀간
가림
지렛대
판매사
카페베네
맹타
광양만
강만
전창
##톱박스
스테로이드
웅진코웨이
차범근
홍채
황병
일반직
셋톱박스
턴키
단체교섭
##ICA
가빈
김준호
끊겨
보해
윤도현
체육인
육질
경제특구
282
이석채
수납공간
##함마드
##이탈주민
샌들
카메룬
##풍경
빨라졌
헌화
765
프러포즈
고재
##살롱
가공품
칸타
게임빌
애리조나
HO
북한이탈주민
급체포
물증
대졸자
김자
자퇴
이재영
안국
착실히
감천
임실
준원
##관리공사
정성룡
응할
익힐
국관
유재학
##근영
화순군
감경
보쉬
##우유
맞춤식
970
서건창
바닥재
940
##교구
세종로
##ival
RG
##머드
지중화
무브먼트
마에
모가
어가
단열재
만델라
환우
흉물
응원전
물타기
##롤라이나
프레스티지
한국자산관리공사
격한
산본
신수
여아
##활동
장성호
이혜훈
혜리
자국민
선심성
권상우
압권
어쿠
패닉
##럭스
활력소
061
페널티킥을
도료
매머드
별내
복귀전
물러설
박소
봄바람
위키리크스
주걱턱
빛낸
출당
##두라스
골인
##워키
PET
##po
##투구
##타이어
니코틴
지하차도
건다
버킷
온두라스
틀니
김민정
DGIST
930
페스타
259
헤드램프
애물단지
팬덤
허남
보였으나
건축주
들통
CIO
밀워키
RFID
AOA
너도나도
서훈
한풀
재보궐선거
##vent
체어
답변서
럭스
##지책
##다비
포미닛
면장
최연
추모제
드로버
초토
녹색연합
되살려
급사
마스카
스피스
##경화
남문
대납
킴벌리
반인
창신
환승역
배스
골프채
심심찮
납기
죽전
등산로
##부동산세
거문
실랑이
##탄회
서천군
허심탄회
방촌
나빠질
이만저만
근육통
face
병해
##버전
산촌
윤창중
골칫거리
보즈
시큐
수비력
범칙
컨버터
홈런포
스트로크
서창
윤이상
283
흑산
298
에이치
해인사
노블레스
강해졌
##여진
돌산
긴급회의
돌아설
장률
치맥
종합부동산세
계도
들여다볼
대포통장
집수리
공설
##성당
국제여객
292
오거돈
이응
밝혀질
담길
동교동
목전
순찰차
향우회
불량자
블리자드
코일
홍기
롯데슈퍼
GCF
알록
##뮬러
도매상
수계
##DF
전용관
262
UNIST
박중
##깅스
동석
시스코
아서다
수니파
독차지
이사철
뉴스타
썸머
대회장
레깅스
플레이트
마감재
처방전
디딜
휴면
대로변
세인트루이스
난치병
웨스틴
콘솔
수채화
교비
##티크
탐지기
직수
김태환
조대
함미
행원
##천역
##기수
꺾였
방크
심려
BPA
뜬공
PBR
국전
최용
KOVO
서막
##종환
##블던
890
언양
AMG
정갑
한국공항공사
판상
##ergy
영서
이겨낼
##사인
점용
진갑
##베데
육교
김용태
동의대
이모티콘
박철우
이필
처진
광주일보
이주열
위구르
오승
잡이
부대원
다질
백기
조남
태백시
절제술
남달랐
윔블던
유량
스타워즈
실험장
메츠
긴급조치
9600
산악회
신영철
게양
발표문
289
이천수
EF
포뮬러
황의
김준수
노려볼
##아트홀
권재
하성
수출상
##충돌
타이베이
심의회
동제
유안
세이프가드
법치주의
꼽힌
두바이
산로
근현대
물놀이장
광원
산고
하회마을
튤립
이진영
임업
조성환
김영춘
상한제
따가운
방로
보가
웨지
##지부지
고와
흐지부지
상실감
어쿠스틱
눈총
산체
직불
##엉이
반겼
부담없이
가로채
공백기
조계사
등원
옥석
허씨
##오석
번화가
악동
컨버전
후학
대축
매해
남유럽
진일보
노인회
심리치료
약값
실용화
간사장
대극장
타전
빚어낸
##올림
신동아
박종철
응한
이헌
7700
소강
소록
이뤄야
프레지
급매물
남영
통기타
263
SPF
문성근
김찬
ㆍ합병
낼지
돌려보냈
출자전환
구찌
날릴
약효
##달록
쏟아질
전립선암
##아동
장나라
알록달록
##양행
참고서
안타까워
집시법
악연
보내온
헛스윙
기울인
트래블
원지
보호사
정청래
대생
입장객
장윤정
생활상
##엔드
이승준
EB
변칙
오피
일렉트로닉
작황
끝자락
해칠
296
화이트데이
머티
##고은
배가
북남
도심형
스코리아
SNL
범실
재적
8700
김수로
국책은행
검침
하교
낮춰야
구연
##PO
가구주
지침서
기프
이택근
베젤
연근
##종양
어려워진다
벼룩시장
박수현
앞당길
호골
##궤도
LINC
대게
몽환
LGU
야합
HTC
일조량
좌담회
건양
사파리
대장균
곡면
비나
자필
재점검
최국
홍일
307
백일장
선석
트론
채워졌
송승헌
청력
연대보증
경호실
잡아냈
가석
각선미
녹스
주포
297
인구수
장보기
초코파이
8400
석재
생산품
불신임
취학
KTF
타박
독후
##선전
##비티
반올림
김선형
곰탕
KRX
송일
수달
허태
장악력
불이익
279
펼쳐야
하태경
창비
남긴다
우석
모둠
##TP
입체감
뚫리
운동회
경북대병원
원구
추어
##유지
박용진
소도시
유한양행
정대세
파킨슨병
돈줄
이지아
벽체
아고
화폭
4100
범법
패스트볼
코란도
홍정호
근성
머드
해파리
##산소
마음고생
비춰볼
인제군
서대전
GR
##준상
꽃길
폭발력
분여
진용
품절
##윤아
실내악
리프팅
다툰
볼모
우레탄
309
김상훈
마스카라
내라
달궜
뉴스데스크
이영호
귀경
지카
캡스
김예
현오석
김광수
##흡연
박한이
인시
럭비
SR
씀씀
조은
속도전
씀씀이
건설업자
중앙수
온천수
##수사
기본소득
부곡
챔스
고발장
퍼블릭
고어텍스
투표장
손실액
티타늄
이재학
054
황창규
JK
웨이보
가석방
권은희
청송군
낙제
비쌌
스타즈
제값
반대표
국무회의
손보사
자괴
281
현대식
애완견
Vo
김숙
두둔
힘줄
##윤경
287
##ety
산란계
rpm
스쿠
불안해하
리무진
죽도
오세근
감지기
외채
장위
생산지
손승락
열병식
흡착
##디부아르
김창수
과표
재형
##양동
수그러들
비칠
꾀했
염태영
윷놀이
전고
호소문
영양군
헤드폰
##굣길
이정은
DIY
네거리
도계
엇비슷
위업
대가야
만기일
일주일
##이야
수소문
탄산수
김여정
안전벨트
매표소
창덕궁
부고
##공군
##체류
수입품
여주군
##네이션
수행평가
빼돌리
##샤오핑
품평회
316
코트디부아르
베르나
아킬레스건
고입
할증료
사과드
덩샤오핑
봉승
조부모
##사채
스파이크
오타니
콩팥
007
거물급
UST
겹친
##레트
원부
칭했
경마장
개회사
만항
면발
순번
인턴사원
불시
빚어질
로어
비경
빈축
영변
평행선
찬성표
261
진안
재소자
룸살롱
##경궁
##식품
정용진
지킨다
집배원
넥서스
상비
유심
##론을
##불성
위원단
환갑
내보낸
주먹구
조향
주산지
청평
오페라단
꾀할
떨어뜨려
무임승차
손사
##현상
내복
김민수
식용유
권양
협정문
중주
312
카르텔
##재킷
##간판
안상
파상
8600
에이핑크
김서
##HC
밝혔으나
당혹감
꺼진
장기전
박성호
버틴
참의원
##조끼
##셔티브
대형차
플라잉
이니셔티브
급작
##FI
##건조
성수동
복근
용호
우려감
신경외과
세련미
막아주
레스터
지석
##재산
머플러
팔린다
교수회
모태범
비뇨기과
갑론을
##질환
303
갑론을박
탈선
플루토늄
여기자
바운드
김수환
되돌릴
벌칙
수자
##랄라
정신대
김선빈
내디뎠
관망세
김택
빗발치
건너간
연수생
여세
파시
교통편
췌장암
DLS
박정현
어긋난다
피팅
김기덕
파이낸스
뉴스타파
텀블러
벌여야
dong
김완
변해야
건의서
오포
운문
임명장
이매
저촉
통지서
병해충
노른
로로
메리트
불법체류
세네갈
Design
글로브
연금법
737
유성기업
아부다비
혜주
여성부
이동욱
감시단
블루칩
유아인
아크릴
안지
어택
피격
##농장
기술진
이른다고
의협
초간
컵라면
##일동
외통
최저가
GD
고궁
백령
완연
콜택시
억불
불거져
##에고
완투
중창
김성식
여중생
컨버전스
속설
헌납
스캐
채태인
425
땀방울
빈집
패인
##우면
김근태
원빈
한채
지역상
역사박물관
협상력
블랙베리
단일화
7900
사석
해저드
전인지
만엔
김소연
통도
여름밤
이장우
##페스토
자연사
영양사
숄더
317
감탄사
고즈
담화문
대호
은행원
기설
##총사
최철한
매니페스토
원두커피
HMC
294
몰려든
betman
운구
진풍경
전태풍
마산회원구
종횡
박해진
신민아
주대
이대형
##협력
신진대사
계엄군
카멜
브람스
다세대
불어난
씨제이
살수
수애
청학
나와도
머크
지와
치여
중후
송어
중책
키위
피크닉
만발
처용
더블딥
CTO
위법성
냉각수
만호
##천년
자동차세
페트로
헌법재판
걸스데이
다보스
린카
봄맞이
카펠
프라이팬
자괴감
박맹
손시
김태훈
##MEX
배식
골리
체로
래스
291
김재환
개포동
랜섬
전략가
321
후임자
메드베데
강봉
시아파
트랜스포
본상
##룸푸르
##베르토
건축법
데이즈
공과금
전태일
송림
말라리아
문성민
금동
북풍
윤태
엇갈려
감봉
족쇄
해묵
허들
영업력
오진
가이드북
고경
사골
돈가스
뒤따라야
합천군
조깅
중이
##윤근
조현오
면부
소하
적다
탄천
해맑
손사래
ㆍ청
넘보
인조잔디
PX
동수
뭇매
지구력
트랜스포머
차베스
최용수
##신세계
분수대
아쉬워
청량감
선급
##정화
이디
신천지
박보검
달기
매장이
Fr
8900
뉴트
##바스
MBK
파라과이
칭화
치켜세웠
그레인
이르면
7400
황선홍
유달
당선작
스케어
플루트
##뮤지
가져간
6900
불꽃놀이
장타력
디카
리퍼트
막차
산세
조도
유해진
공방전
전현무
322
용산역
뽑혀
품귀
판매원
293
SRT
벌집
추격전
뚜레
양계
인기리
연인원
CDS
까다로워
새천년
쏠린
증도
팔릴
한예슬
뇌종양
밀반
아카이브
7300
올인원
윤병세
격변
마창
사청
비긴
왕좌
범칙금
람보
혜화
수확량
박경완
급전
송산
##일정
##음악
관리직
##폐율
해남군
소백산
파드
##팬츠
유통점
오브제
염화
뉴스쇼
격론
빙자
철길
상공인
판도라
이보미
다임
채비
김길
람사르
옛말
재창
##스민
WK
형지
만부
##형물
##플로
인도적
재래식
벌어들이
디지털카메라
시한부
직능
발전량
농사일
꿀벌
설토
##팔달
성장산업
손색없
관도
치어리
##란스
1080
김영진
박범계
비보이
결항
부울
샛별
신반
내조
김종국
facebook
김석기
수아레스
비데
옥탑
타살
퍼플
##이야기
도미니카
액티
##서블
##믈리에
세정제
흑색선전
눈독
초순
##월일
여성미
꾸며져
GHz
소믈리에
정치판
영업망
총성
##경색
항공료
ICE
롯데칠성음료
표고버섯
건폐율
넘어간다
하방
##포화
담벼락
수가
335
이정민
누린
보탠
안전띠
피부색
지하경제
##엑스포
바리톤
##러웨이
기본요금
보였으며
설현
채움
페넌트
##어음
유지관리
왁스
김병만
김미화
나바로
냈으며
설기현
체외
매일경제
밀려난
견해차
곽태
메가폰
##순위채
광폭
나포
엔카
고학력
역발
중급
혈안
취업규칙
##영수증
발렌시아
명승
상파
##가을
후순위채
##당당
크로스오버
##TM
주변인
김태형
조성진
휘두른
개청
수행원
최지우
##친화
TB
급파
수형
밀어붙였
관광특구
광주신세계
부적응
전도연
324
킹스
관리제
시화호
PSI
메리어
합의체
김대현
트러스트
손민
몰려드
이종현
픽셀
뒤집기
부주의
부재자
눈도장
산시
삼총사
송원
역투
##래치
소식지
활기차
미친다는
돔구장
##앤비
문화엑스포
마라도나
카풀
이승환
겨레
안길
에베레스트
댄싱
보신
건전화
박주호
에르메스
갈취
미봉
입식
정봉주
메울
골프공
그려냈
부녀회
청국장
사통팔달
배팅
바닷길
녹내장
뇌경색
도쿄대
넓힌
용광
즉답
크론
음모론
검도
출발선
의사일정
손시헌
밀릴
습한
이륜
코바
올림픽대로
관정
터프
기도회
ㆍ동
군더
디럭스
커밍
관현악
입학금
윤경
현금영수증
당진시
원곡
이륙
쓴맛
조타
박봉
김희정
고소인
토리노
군더더기
산입
이용권
##바이러스
패권주의
FS
일로
루지
북고
조련
